ng 100
▁t 100
▁c 100
nh 100
▁đ 100
▁th 100
▁l 100
▁v 100
▁T 100
▁C 100
▁m 100
▁ch 100
▁h 100
▁b 100
▁s 100
▁2 100
▁k 100
▁1 100
▁tr 100
▁n 100
▁nh 100
▁S 100
▁g 100
00 100
er 100
▁M 100
in 100
▁p 100
▁N 100
▁ng 100
▁kh 100
ານ 100
▁P 100
▁d 100
an 100
▁B 100
▁ph 100
ông 100
ch 100
iệ 100
▁H 100
▁L 100
01 100
on 100
▁và 100
▁ເ 100
▁gi 100
ời 100
▁( 100
▁/ 100
▁D 100
.. 100
▁A 100
▁V 100
ên 100
▁- 100
▁Đ 100
ar 100
▁G 100
▁ກ 100
▁là 100
iế 100
es 100
▁x 100
▁201 100
▁3 100
ອງ 100
▁r 100
▁củ 100
ại 100
▁K 100
ác 100
▁của 100
▁Th 100
▁Ch 100
ໍາ 100
ັບ 100
qu 100
▁ສ 100
▁R 100
en 100
ột 100
or 100
ັນ 100
at 100
▁Tr 100
▁có 100
ong 100
ới 100
▁qu 100
ang 100
ất 100
ôi 100
▁F 100
ai 100
ລະ 100
ượ 100
ິດ 100
ình 100
iề 100
al 100
úng 100
ຫນ 100
uy 100
ười 100
am 100
ay 100
້າ 100
ທີ 100
▁một 100
ັດ 100
▁5 100
le 100
ao 100
ing 100
ướ 100
ải 100
▁4 100
as 100
ic 100
ày 100
▁ຄ 100
ol 100
▁không 100
▁cho 100
າມ 100
em 100
iều 100
▁ແ 100
▁W 100
om 100
▁người 100
et 100
ung 100
▁Q 100
ước 100
▁ta 100
▁E 100
iện 100
ອນ 100
ທີ່ 100
▁ຂ 100
▁Nh 100
áng 100
uố 100
it 100
ần 100
anh 100
▁ການ 100
ài 100
... 100
▁tôi 100
ản 100
▁I 100
ững 100
▁chúng 100
ạn 100
▁6 100
ac 100
iên 100
mm 100
▁ອ 100
ot 100
▁8 100
el 100
st 100
ược 100
ân 100
ການ 100
າຍ 100
▁với 100
iết 100
ື່ 100
▁họ 100
▁các 100
▁0 100
▁ngh 100
ປະ 100
▁... 100
▁ລ 100
▁trong 100
id 100
▁được 100
▁ຕ 100
າດ 100
ến 100
ro 100
▁. 100
ໍ່ 100
▁ໂ 100
▁thể 100
▁U 100
▁_ 100
▁những 100
ây 100
iể 100
ur 100
ấy 100
ວາມ 100
20 100
áy 100
ật 100
ận 100
າວ 100
ầu 100
▁đã 100
▁* 100
ad 100
ed 100
ươ 100
ườ 100
ách 100
້ນ 100
▁ພ 100
ter 100
▁Ng 100
▁độ 100
ường 100
▁làm 100
ào 100
▁7 100
oại 100
▁đó 100
▁số 100
▁ມ 100
ức 100
▁ຫ 100
▁Gi 100
inh 100
▁O 100
▁cả 100
▁về 100
▁ຈ 100
50 100
▁9 100
▁để 100
ັກ 100
▁ນ 100
ực 100
▁J 100
ành 100
▁Ph 100
ăm 100
is 100
▁ໃ 100
àn 100
oo 100
ương 100
ou 100
il 100
ích 100
▁+ 100
າງ 100
ăng 100
▁10 100
▁này 100
▁bạn 100
▁ບ 100
ính 100
ối 100
ັງ 100
000 100
ết 100
▁ho 100
ess 100
ơn 100
êu 100
▁đến 100
ag 100
au 100
▁ທ 100
▁ວ 100
eo 100
▁> 100
▁$ 100
▁Kh 100
▁nó 100
▁ຊ 100
▁sự 100
àng 100
▁X 100
▁ຄວາມ 100
-1 100
áo 100
▁như 100
re 100
ົດ 100
▁– 100
.0 100
ow 100
ະລ 100
▁, 100
່ງ 100
▁ດ 100
▁2018 100
ົນ 100
▁ທີ່ 100
com 100
ສະ 100
▁nhà 100
▁sẽ 100
▁thế 100
uốc 100
▁nào 100
òng 100
ục 100
▁ra 100
▁điều 100
ập 100
us 100
ຂອງ 100
ຸດ 100
▁ຫນ 100
10 100
im 100
ằng 100
ái 100
▁Co 100
ion 100
iệc 100
▁12 100
▁công 100
iệu 100
່ນ 100
▁em 100
ội 100
▁Trung 100
▁ປະ 100
.2 100
▁ໄ 100
▁& 100
▁Quốc 100
າກ 100
▁khi 100
▁từ 100
▁20 100
ig 100
▁con 100
iệt 100
án 100
ượng 100
▁St 100
ánh 100
ົາ 100
âu 100
▁ຜ 100
ack 100
▁mình 100
ິນ 100
▁phải 100
ວກ 100
ền 100
▁chỉ 100
ia 100
ăn 100
ຫລ 100
▁ở 100
86 100
-2 100
▁việc 100
lo 100
▁Y 100
ີນ 100
un 100
▁năm 100
ùng 100
ວນ 100
▁y 100
▁ແລະ 100
ặc 100
.1 100
▁15 100
pp 100
່ານ 100
ổi 100
ống 100
úc 100
ື່ອງ 100
▁động 100
át 100
▁ສະ 100
▁: 100
ắt 100
ີ້ 100
▁tại 100
ອກ 100
▁máy 100
th 100
ứng 100
ấp 100
30 100
▁ຮ 100
▁ngày 100
of 100
▁trên 100
ct 100
ôn 100
▁tiế 100
ine 100
▁bị 100
▁lại 100
.5 100
and 100
âm 100
▁In 100
▁ປ 100
um 100
uyệ 100
▁mà 100
▁tháng 100
art 100
▁học 100
ຄື່ອງ 100
os 100
▁anh 100
uất 100
▁Sh 100
▁gì 100
ດ້ 100
▁2019 100
ặt 100
ພາ 100
ູ້ 100
ir 100
▁vào 100
▁đầu 100
uộ 100
ơi 100
▁thoại 100
=" 100
ິດຕ 100
ab 100
ut 100
▁quy 100
ọng 100
80 100
▁Các 100
ck 100
▁dụ 100
▁2017 100
op 100
ໍາລ 100
▁in 100
່ຽ 100
áp 100
▁Và 100
▁thấy 100
▁w 100
ảo 100
▁Tháng 100
▁Chúng 100
▁biết 100
ịch 100
60 100
iv 100
ູ່ 100
ໍ້ 100
ent 100
iến 100
ul 100
ắc 100
▁“ 100
ưở 100
▁cách 100
eb 100
ảng 100
▁11 100
ົວ 100
ເມ 100
▁Z 100
▁nói 100
▁thành 100
▁Điện 100
ົງ 100
ỗi 100
▁gia 100
ưởng 100
ຫລດ 100
ອບ 100
▁sản 100
▁Máy 100
ະຫນ 100
▁ດາວ 100
40 100
▁hình 100
uộc 100
ົ້າ 100
ồng 100
▁đề 100
ລິ 100
▁khác 100
່າ 100
ໃນ 100
ẩm 100
▁Công 100
ốc 100
12 100
ໂຫລດ 100
▁dụng 100
45 100
▁chị 100
ie 100
ໍາລັບ 100
▁to 100
▁ໂທ 100
ຫມ 100
uyện 100
ap 100
▁theo 100
▁Qu 100
້ໍາ 100
ạo 100
ãy 100
▁ໃນ 100
▁ຫນ້າ 100
▁ລະ 100
ເຮ 100
▁100 100
▁19 100
▁30 100
11 100
ậy 100
oft 100
ũng 100
▁# 100
້ອ 100
iểm 100
▁đi 100
▁ເຄື່ອງ 100
ex 100
▁An 100
▁quan 100
▁lời 100
▁nhiều 100
ain 100
iển 100
▁sao 100
▁Ngài 100
ຫຼ 100
▁phẩm 100
ip 100
ເລ 100
▁điện 100
av 100
cm 100
້ງ 100
td 100
▁hàng 100
ạt 100
ẫn 100
▁thời 100
ລະສ 100
້ອງ 100
▁£ 100
▁sống 100
one 100
ັ້ນ 100
▁lượng 100
▁hơn 100
ເພ 100
▁xuất 100
ảnh 100
ép 100
ະສ 100
▁chính 100
ọc 100
▁nhận 100
ếu 100
▁rằng 100
▁tu 100
▁ຂອງ 100
od 100
▁Tôi 100
ấn 100
▁nhất 100
-5 100
ປັນ 100
NG 100
ິງ 100
▁Nhà 100
▁cấp 100
▁nghiệ 100
▁thu 100
▁cầu 100
▁US 100
▁cao 100
ົບ 100
ỏi 100
35 100
iễ 100
ະຫນາດ 100
▁cũng 100
ạc 100
▁f 100
▁st 100
ລະສັບ 100
▁50 100
ຢູ່ 100
▁đây 100
99 100
ạnh 100
ູນ 100
▁cảm 100
ers 100
▁Ltd 100
▁ຍ 100
ໄປ 100
▁Trang 100
ດຍ 100
▁thước 100
ືອນ 100
▁200 100
ສາ 100
▁16 100
iêu 100
iễn 100
▁ເດ 100
êm 100
▁ấy 100
▁lu 100
75 100
▁Một 100
▁phí 100
ét 100
▁tiếp 100
▁ຖ 100
15 100
▁< 100
ian 100
▁18 100
▁© 100
ep 100
iểu 100
▁Pr 100
co 100
▁25 100
uốn 100
ູບ 100
ົມ 100
▁trước 100
▁ông 100
▁gian 100
ງານ 100
▁dự 100
▁" 100
út 100
▁tin 100
ak 100
▁86 100
25 100
ub 100
▁đị 100
▁nghĩ 100
ind 100
ốt 100
▁kho 100
▁ảnh 100
ọi 100
ມື 100
ởi 100
iền 100
▁ໂທລະສັບ 100
ີ່ 100
og 100
ard 100
▁yêu 100
ob 100
ຜະລ 100
ະພ 100
▁giá 100
ail 100
▁13 100
▁loại 100
ນ໌ 100
▁nước 100
▁tự 100
▁Cas 100
ồi 100
ate 100
▁2016 100
ຫຍ 100
ຸນ 100
ợi 100
iz 100
▁ອີ 100
ấu 100
▁quyền 100
▁° 100
▁đang 100
ust 100
ຄວາມ 100
ửa 100
ib 100
▁nên 100
▁ເຮ 100
▁ຈີນ 100
ua 100
▁ty 100
▁cần 100
ht 100
ແລະ 100
-0 100
▁hoặc 100
▁năng 100
▁17 100
ợp 100
▁trọng 100
ັ້ງ 100
if 100
.3 100
▁24 100
ບບ 100
▁by 100
oh 100
uyến 100
sh 100
òn 100
▁ຂະຫນາດ 100
16 100
ະນ 100
▁Nam 100
eng 100
ist 100
▁lớ 100
ເພດ 100
ມ່ນ 100
▁qua 100
▁thì 100
▁ເດືອນ 100
▁~ 100
ọn 100
yp 100
▁hai 100
▁ăn 100
ill 100
▁hệ 100
▁lòng 100
ữa 100
▁giờ 100
ấm 100
ວກັບ 100
▁mới 100
▁Tải 100
່ຽວກັບ 100
se 100
êng 100
-8 100
ຊ້ 100
້ານ 100
.6 100
▁thực 100
▁00 100
້າງ 100
ມາ 100
bo 100
▁muốn 100
ທໍາ 100
▁mm 100
all 100
▁ວິ 100
ắng 100
▁Vess 100
▁tế 100
▁Vessoft 100
▁vì 100
.00 100
▁Ma 100
ລ໌ 100
▁cùng 100
▁trang 100
las 100
ộng 100
yl 100
13 100
ôm 100
▁ອີເມ 100
▁do 100
ám 100
▁14 100
1, 100
▁bằng 100
est 100
.4 100
úp 100
້ອຍ 100
▁cơ 100
uyên 100
ừng 100
▁Kích 100
ພາບ 100
ảy 100
▁thương 100
▁hợp 100
▁cung 100
ຕິ 100
ino 100
ສຸດ 100
່າງ 100
ress 100
kg 100
▁xét 100
ắn 100
▁lý 100
▁lên 100
▁thứ 100
▁No 100
-3 100
▁ມີ 100
ight 100
ຂະສ 100
▁dur 100
ຂະສິດ 100
▁start 100
90 100
ຫັດ 100
▁kết 100
"> 100
▁40 100
ູງ 100
▁» 100
▁vậy 100
▁tính 100
▁lo 100
▁chủ 100
ver 100
▁ໄດ້ 100
▁60 100
▁bản 100
ưa 100
▁sinh 100
ies 100
ly 100
ra 100
ort 100
▁tâm 100
▁cuộc 100
ຽນ 100
ນ໌ໂຫລດ 100
70 100
iêng 100
▁định 100
▁× 100
ລາ 100
▁thông 100
ồn 100
ອິດ 100
▁ດາວນ໌ໂຫລດ 100
▁nghiệp 100
▁thức 100
ric 100
▁ຕໍ່ 100
ະພັນ 100
▁tiết 100
▁giới 100
▁vụ 100
▁đường 100
ຄາ 100
ຮງ 100
ưng 100
▁tốt 100
▁thật 100
▁ຫຼ 100
່ວ 100
▁rất 100
▁Việt 100
▁ປະເພດ 100
▁nhân 100
ິດຕະພັນ 100
àm 100
ໄລ 100
201 100
ik 100
.8 100
ish 100
▁bu 100
▁hội 100
▁liệu 100
▁phần 100
▁ບໍ່ 100
23 100
ີດ 100
▁Ar 100
▁ສໍາລັບ 100
▁giải 100
▁ອີເມລ໌ 100
ທໍາອິດ 100
▁chuyện 100
ຫ້ 100
▁xe 100
▁Con 100
▁hiện 100
24 100
▁nay 100
ord 100
▁Sp 100
▁xem 100
້ວ 100
ển 100
▁Un 100
let 100
▁sử 100
ựa 100
▁Những 100
ưu 100
ິ່ງ 100
ຜ່ານ 100
▁lớn 100
28 100
ວກເຮ 100
▁hành 100
▁đổi 100
ity 100
▁ຄໍາ 100
▁cái 100
▁tay 100
ce 100
▁báo 100
▁phát 100
ation 100
ມີ 100
▁đồng 100
ER 100
NH 100
óng 100
,5 100
zh 100
ຍາ 100
່ອນ 100
▁hỏi 100
ìm 100
att 100
ໍລິ 100
19 100
ướng 100
▁viên 100
▁ໂດຍ 100
ື່ອ 100
▁bao 100
▁Điều 100
dro 100
74 100
▁Re 100
▁giúp 100
▁ຫນ້າທໍາອິດ 100
▁lực 100
▁tình 100
ົກ 100
lu 100
▁ລາ 100
▁Hãy 100
ss 100
ຫັນ 100
ຜະລິດ 100
▁ນ້ໍາ 100
▁ລະຫັດ 100
ແບບ 100
ạng 100
▁Ho 100
▁bảo 100
ງິນ 100
▁trở 100
uyển 100
▁đối 100
óa 100
▁ý 100
ói 100
▁ກ່ຽວກັບ 100
▁mẹ 100
▁ກັບ 100
up 100
▁22 100
▁mặt 100
ຫາ 100
age 100
ổng 100
▁trình 100
ວກເຮົາ 100
ບັນ 100
▁Wind 100
18 100
ẩn 100
aser 100
▁còn 100
▁Làm 100
່າວ 100
▁sáng 100
ຸມ 100
▁ເປັນ 100
ew 100
ຸກ 100
▁Có 100
▁cứ 100
▁ຮູບ 100
▁Ro 100
▁đình 100
ey 100
óc 100
úi 100
▁ຢ 100
▁bắt 100
▁• 100
ark 100
▁dẫn 100
▁câu 100
ເຕ 100
▁Số 100
▁ລິ 100
▁trường 100
ox 100
ui 100
are 100
▁sau 100
▁Không 100
▁thiết 100
-6 100
▁35 100
▁bộ 100
▁Bạn 100
ầm 100
ໃຊ້ 100
▁Casino 100
iếu 100
ໄດ້ 100
ຶກ 100
.9 100
▁USD 100
▁toàn 100
ກັບ 100
▁thường 100
17 100
ww 100
ຊີ 100
ant 100
ປະກ 100
ester 100
33 100
ືນ 100
ell 100
ows 100
ຈົ້າ 100
▁tạo 100
▁vị 100
▁ອາ 100
▁nhưng 100
ạch 100
▁ຜູ້ 100
▁Đị 100
▁ຫມ 100
▁nhiên 100
ໍານ 100
▁điểm 100
້ມ 100
▁Pro 100
ທາງ 100
▁cha 100
oly 100
▁chất 100
ạy 100
▁hay 100
▁thuật 100
22 100
ສໍາລັບ 100
ín 100
▁Nhận 100
ẫu 100
ile 100
▁miễn 100
▁tử 100
88 100
▁23 100
IN 100
▁ສໍາ 100
ảm 100
▁Te 100
▁tức 100
14 100
▁Nhưng 100
▁đặt 100
▁ເວ 100
▁bởi 100
▁Koh 100
▁trợ 100
ທະ 100
ầy 100
▁Al 100
▁chơi 100
▁Trước 100
▁tiền 100
▁Giá 100
▁Windows 100
ເທ 100
lock 100
▁Trong 100
▁Sản 100
▁trực 100
▁tuần 100
▁Rong 100
ideo 100
▁tập 100
▁2015 100
▁thích 100
ອດ 100
act 100
ick 100
own 100
den 100
▁ພາ 100
ắp 100
▁Bon 100
▁Hack 100
▁liên 100
▁Người 100
ệnh 100
ຜ່ານມາ 100
ເວ 100
▁mạnh 100
▁2014 100
▁Pl 100
▁giáo 100
▁Ser 100
.7 100
ົ່ງ 100
▁cm 100
▁trị 100
ff 100
ນີ້ 100
uyền 100
▁ເຮົາ 100
▁chứng 100
áu 100
ເສ 100
ເຫັນ 100
▁chu 100
uối 100
▁500 100
ົ້ນ 100
▁nhau 100
▁ທີ່ຜ່ານມາ 100
36 100
ph 100
ຫນັກ 100
▁chọn 100
AN 100
droid 100
▁ຜະລ 100
ặng 100
uống 100
▁trẻ 100
▁giao 100
▁hiệu 100
018 100
ook 100
▁ເລ 100
▁kế 100
▁dịch 100
ພວກເຮົາ 100
▁tiên 100
▁' 100
▁Họ 100
▁ລິຂະສິດ 100
-4 100
ິດຕໍ່ 100
▁Com 100
he 100
ຕະ 100
ຖານ 100
▁ເສ 100
inter 100
▁bất 100
▁tất 100
▁Liên 100
ìn 100
▁ປີ 100
▁Khi 100
▁thanh 100
76 100
de 100
▁ຊື່ 100
▁phân 100
▁phục 100
ứa 100
ສູງ 100
▁Địa 100
▁rộng 100
ກະ 100
ặp 100
ຄິດ 100
ạm 100
ẳng 100
▁âm 100
▁Thời 100
▁thay 100
ive 100
▁vật 100
▁bình 100
▁lần 100
▁Android 100
▁ດາວໂຫລດ 100
▁€ 100
ຸ່ນ 100
▁TNH 100
26 100
ຽງ 100
▁Fl 100
▁Hol 100
der 100
▁To 100
▁mai 100
▁TNHH 100
▁Hội 100
▁đều 100
▁0086 100
ềm 100
▁i 100
▁mọi 100
▁vấn 100
▁kinh 100
▁sách 100
200 100
ກໍາ 100
▁nhỏ 100
▁phụ 100
▁Đại 100
ຕ່ 100
່ວນ 100
▁cụ 100
ແມ່ນ 100
tr 100
ເດ 100
▁CN 100
te 100
▁Ning 100
▁Em 100
▁ເກ 100
ite 100
85 100
ໄຟ 100
iếp 100
▁an 100
▁Anh 100
▁tìm 100
▁Bonus 100
lot 100
ຕອນ 100
▁26 100
▁mỗi 100
▁đo 100
▁dài 100
▁hãy 100
▁mềm 100
▁tư 100
▁ngo 100
▁300 100
▁For 100
AC 100
lect 100
▁ວັນ 100
▁Ex 100
▁màu 100
▁(3 100
▁quốc 100
ect 100
▁ລາຄາ 100
ຫະ 100
ບັດ 100
▁Po 100
▁ứng 100
95 100
▁1, 100
▁Nếu 100
▁trung 100
▁tưởng 100
oc 100
oun 100
▁thân 100
▁tiêu 100
sm 100
iang 100
ເງິນ 100
▁thị 100
▁triển 100
▁phố 100
▁lẽ 100
able 100
ire 100
ນ້ໍາ 100
▁khí 100
▁chức 100
EM 100
ide 100
▁lúc 100
▁mục 100
ເຊ 100
▁bài 100
▁Ningbo 100
ບໍ່ 100
SO 100
▁28 100
▁Cr 100
າມາດ 100
▁Chủ 100
▁ຂ່າວ 100
▁tuyến 100
ED 100
ໃຈ 100
▁Độ 100
▁nơi 100
ix 100
ດີ 100
▁Min 100
▁ຕໍ່ໄປ 100
▁ai 100
77 100
▁tài 100
▁2013 100
ãi 100
ụi 100
▁? 100
▁[ 100
▁đồ 100
ting 100
ສະຫນ 100
▁CH 100
▁Fr 100
▁thống 100
▁áp 100
▁dân 100
▁viết 100
▁cố 100
ເປັນ 100
ເຂ 100
ເຮັດ 100
▁ống 100
ເກ 100
▁chuyển 100
ຕໍ່ 100
▁nhìn 100
▁ນ້ໍາຫນັກ 100
▁lã 100
attoo 100
່ອງ 100
▁ba 100
▁cô 100
▁trả 100
▁ທີ່ຢູ່ 100
▁nữa 100
▁quả 100
▁nghe 100
ov 100
tp 100
ຮັບ 100
້າຍ 100
▁vô 100
ໄວ 100
ພິ 100
ື້ 100
ືອກ 100
▁kích 100
▁ຜະລິດຕະພັນ 100
ET 100
ev 100
ủy 100
▁thép 100
sp 100
ắm 100
▁bà 100
▁gh 100
▁ເມ 100
່າຍ 100
▁ນີ້ 100
▁Phần 100
ຽກ 100
▁Ô 100
ບໍລິ 100
▁khu 100
▁Chiều 100
”. 100
▁trò 100
▁1000 100
ວດ 100
້ອນ 100
▁21 100
▁+86 100
ug 100
▁Sam 100
▁tải 100
cr 100
▁Mã 100
▁lập 100
▁đời 100
▁hôm 100
▁vui 100
▁ວິທີ 100
ເຄື່ອງ 100
▁quyết 100
ank 100
ial 100
▁Br 100
▁hộ 100
ທະຍາ 100
ະລັງ 100
▁luận 100
▁di 100
▁Cam 100
▁Đối 100
▁hoàn 100
29 100
àu 100
▁ທ່ານ 100
AS 100
ax 100
ud 100
▁Tin 100
▁hiểu 100
ưới 100
▁45 100
eat 100
▁nghệ 100
21 100
ໂນ 100
▁Gr 100
▁Tất 100
▁sợi 100
▁phòng 100
▁sp 100
quot 100
ets 100
ator 100
▁ບັນ 100
chain 100
ິ້ນ 100
▁hết 100
▁ຈະ 100
▁ສີ 100
▁bán 100
ens 100
iệm 100
▁Gh 100
▁nữ 100
▁Hai 100
▁Tại 100
▁trí 100
▁tuổi 100
▁ແມ່ນ 100
▁CO 100
▁TH 100
ນະ 100
▁j 100
ຈາກ 100
▁Cl 100
▁Dr 100
55 100
min 100
,000 100
▁bụi 100
▁tác 100
ຖື 100
▁Ad 100
▁ລັບ 100
ec 100
ຸປະກ 100
ຸປະກອນ 100
ະລັງງານ 100
່ມ 100
ach 100
▁Bản 100
▁web 100
▁kiện 100
▁tối 100
▁Road 100
▁dùng 100
uan 100
▁bỏ 100
.... 100
▁cứu 100
▁Poly 100
lockchain 100
ື້ນ 100
▁ກະ 100
ິກ 100
▁nặng 100
▁Á 100
ber 100
ຜູ້ 100
ເຕີ 100
▁150 100
▁sức 100
▁đơn 100
▁nghiệm 100
ຈຸ 100
ຫໍ້ 100
ີ່ຫໍ້ 100
▁biệt 100
▁chết 100
▁ຄວາມຄິດ 100
by 100
▁ຂໍ້ 100
ah 100
▁1. 100
▁ເພ 100
▁hoạt 100
▁lịch 100
▁chỉnh 100
ge 100
:00 100
âng 100
▁Su 100
▁Sol 100
▁pháp 100
▁suất 100
▁ເຈົ້າ 100
ັ່ງ 100
ໃຫ້ 100
▁đánh 100
ST 100
▁2, 100
▁gói 100
▁thêm 100
ree 100
▁ơn 100
icro 100
ທະຍາໄລ 100
hat 100
ure 100
▁hóa 100
▁tham 100
39 100
:/ 100
▁= 100
▁Vì 100
io 100
óm 100
▁± 100
ວ່າ 100
▁ເຂ 100
▁Laser 100
:// 100
▁ht 100
▁Mar 100
▁dạy 100
▁thờ 100
▁Holm 100
▁mang 100
▁thưởng 100
▁Col 100
▁Ste 100
▁dây 100
▁nếu 100
▁vài 100
ẹp 100
ich 100
ươi 100
ຂໍ້ 100
ໍານວນ 100
UR 100
ast 100
▁80 100
▁ຄວາມຄິດເຫັນ 100
89 100
▁nhựa 100
az 100
ượt 100
▁27 100
▁75 100
ower 100
▁đau 100
▁ຢູ່ 100
▁2020 100
▁Mach 100
ON 100
ື່ນ 100
65 100
ດງ 100
ເທດ 100
▁kim 100
▁tiếng 100
▁≤ 100
▁2011 100
▁nghĩa 100
òa 100
ຫວ 100
ມູນ 100
▁quá 100
▁toán 100
▁Châu 100
▁Slot 100
▁AC 100
▁cắt 100
▁tục 100
▁http 100
▁chuẩn 100
32 100
uyệt 100
▁ກັນ 100
py 100
▁(1 100
ash 100
▁bên 100
▁Thiết 100
▁ຕົວ 100
▁biến 100
34 100
ram 100
ບາຍ 100
▁29 100
▁PC 100
ຕັ້ງ 100
▁Dav 100
▁ຈາກ 100
່ອນຫນ 100
▁Printer 100
▁e 100
ບົບ 100
line 100
ina 100
▁Bộ 100
▁so 100
▁vệ 100
▁ຄົນ 100
▁luôn 100
ube 100
AR 100
arn 100
ỉnh 100
▁đầy 100
eg 100
ຈະ 100
ເຄ 100
▁Air 100
▁đóng 100
VC 100
▁90 100
▁áo 100
uang 100
▁bay 100
▁khó 100
▁lưu 100
▁ໂຮງ 100
້ານີ້ 100
▁trời 100
▁Tattoo 100
fo 100
int 100
ຟ້າ 100
▁mở 100
▁đất 100
▁Đông 100
▁chống 100
ໄຊ 100
alv 100
oll 100
▁(2 100
67 100
ice 100
▁Mai 100
▁lỗi 100
▁minh 100
▁ngay 100
▁pm 100
iber 100
GH 100
▁vi 100
▁đạo 100
່ອນຫນ້ານີ້ 100
່ຽນ 100
▁ໄປ 100
load 100
▁hạn 100
▁đặc 100
▁thiệu 100
າທີ 100
▁ພະ 100
▁ໃຫ້ 100
▁doanh 100
▁xuống 100
af 100
aw 100
ໂລ 100
▁) 100
ັງກ 100
ີ່ມ 100
▁IP 100
▁kỹ 100
▁giữ 100
▁tinh 100
▁khoản 100
68 100
DF 100
net 100
▁nhớ 100
▁tới 100
▁Cách 100
▁chân 100
▁ຕິດຕໍ່ 100
ສີ 100
ốn 100
▁cây 100
▁gọi 100
▁ngài 100
▁nhiệt 100
ຽມ 100
-20 100
ຕົວ 100
olog 100
▁Copy 100
▁ອຸປະກອນ 100
ກົດ 100
▁án 100
▁chi 100
▁cửa 100
▁ເມື 100
▁bệnh 100
▁David 100
100 100
▁New 100
▁chế 100
ush 100
ypt 100
ສັດ 100
ຸ່ມ 100
ໂດຍ 100
▁xảy 100
▁tích 100
▁giảng 100
▁ເມືອງ 100
▁nguyện 100
▁ວິທີການ 100
cs 100
ເນ 100
ໄຂ 100
▁bé 100
ທ່ານ 100
▁lọc 100
ສາມາດ 100
▁Mười 100
▁ວິທະຍາໄລ 100
ry 100
ຫມ່ 100
▁Sau 100
▁Tag 100
.2018 100
▁Giáo 100
▁cuối 100
▁Ngày 100
▁phút 100
38 100
ne 100
ແປ 100
▁Lu 100
▁App 100
▁ISO 100
▁chí 100
▁thư 100
▁chiến 100
▁chiều 100
rop 100
▁HD 100
▁Bài 100
▁Web 100
ກ່ອນຫນ້ານີ້ 100
du 100
▁AP 100
▁Sự 100
▁dễ 100
▁kỳ 100
ized 100
▁Man 100
▁Tiếp 100
▁Đăng 100
ons 100
ແດງ 100
▁ລາວ 100
▁phúc 100
▁ຍີ່ຫໍ້ 100
LE 100
ທິ 100
ອາ 100
ider 100
▁800 100
▁rồi 100
▁ngoài 100
▁tượng 100
AT 100
ãn 100
ພະ 100
end 100
▁32 100
▁gần 100
ee 100
ູກ 100
ທິດ 100
▁DC 100
▁tấm 100
▁Micro 100
▁ແນ 100
ັບໄຊ 100
▁thần 100
44 100
ửi 100
ữu 100
▁ເບ 100
ື່ອນ 100
▁Yêu 100
ml 100
ore 100
tic 100
ĩnh 100
ອອກ 100
ຮູບ 100
▁lễ 100
/201 100
▁cập 100
ແກ 100
ace 100
ວຽກ 100
▁RF 100
iếng 100
▁1500 100
ium 100
▁Bl 100
▁Để 100
▁tội 100
▁Tech 100
ຜະລິດຕະພັນ 100
ome 100
ລາຍ 100
▁Lo 100
▁Inst 100
▁Loại 100
old 100
▁CNC 100
▁Top 100
▁ຟ 100
▁xin 100
▁yếu 100
▁cảnh 100
eth 100
ຕິບັດ 100
▁mừng 100
▁Polyester 100
500 100
ipp 100
per 100
▁120 100
▁Thứ 100
▁ສຸດ 100
▁khỏi 100
ຕາ 100
ble 100
▁Giới 100
37 100
ີໂ 100
▁>> 100
zhou 100
▁ພະລັງງານ 100
-10 100
▁tăng 100
▁tuyệt 100
98 100
MP 100
▁Mỹ 100
▁vải 100
▁ລາຍ 100
▁ເຮັດ 100
▁thuộc 100
31 100
EC 100
Hz 100
OR 100
OS 100
èn 100
ຫຍັງ 100
▁đứa 100
▁Danh 100
▁phương 100
ູມ 100
ດັນ 100
ment 100
▁Mob 100
▁đại 100
94 100
CL 100
iếm 100
▁Video 100
▁ຈໍານວນ 100
ມ້ 100
▁Comp 100
▁kính 100
▁ເສັ້ນ 100
ei 100
gle 100
▁05 100
▁Tổng 100
▁nhật 100
cc 100
li 100
ẵn 100
▁tù 100
▁LED 100
▁Inter 100
▁hướng 100
ownload 100
amp 100
▁Kế 100
fish 100
▁Van 100
▁ban 100
▁Ông 100
▁thúc 100
ຕອນນີ້ 100
▁ích 100
ue 100
▁36 100
▁lệ 100
otor 100
▁thánh 100
ary 100
▁Đó 100
▁Mẫu 100
▁đàn 100
▁loạt 100
72 100
ass 100
▁kẻ 100
▁Tên 100
▁hữu 100
▁lợi 100
▁86-5 100
▁Blockchain 100
ຫມົດ 100
▁ຫົວ 100
ology 100
▁Free 100
▁nhập 100
▁giống 100
., 100
ມ່ 100
iss 100
iềm 100
ະນາ 100
▁Sk 100
▁ກໍ 100
ສ້າງ 100
ຫນ້າ 100
▁vẫn 100
▁Forex 100
▁Trọng 100
ậu 100
ear 100
irt 100
▁TR 100
▁Từ 100
ສົ່ງ 100
▁Car 100
▁EUR 100
▁PVC 100
▁khách 100
IC 100
Th 100
GS 100
ID 100
isa 100
ຄ້າ 100
ລົດ 100
ເລກ 100
lass 100
▁mắt 100
▁túi 100
▁ຮູບພາບ 100
ans 100
ຕັດ 100
.000 100
▁sẵn 100
▁nhạc 100
▁vọng 100
ít 100
ຸ້ມ 100
▁tổ 100
▁Phụ 100
▁vực 100
▁ຊຸດ 100
▁ມັນ 100
oogle 100
-- 100
ery 100
▁mô 100
▁sh 100
less 100
▁gặp 100
▁xác 100
▁ການປ 100
!! 100
47 100
ork 100
▁(5 100
▁3, 100
▁ເອ 100
▁ຫຼື 100
▁Steel 100
▁nguyên 100
:5 100
▁Nó 100
▁hy 100
▁sĩ 100
▁ຄວາມຄິດເຫັນທີ່ 100
ES 100
▁Do 100
▁ký 100
ັດສະ 100
▁cáo 100
▁100% 100
ັງຫມົດ 100
ລິຂະສິດ 100
▁Series 100
345 100
byg 100
ວິດ 100
▁mười 100
▁tương 100
OB 100
ame 100
rict 100
▁600 100
▁Khu 100
▁Tuy 100
▁tín 100
▁chưa 100
▁dựng 100
bygden 100
▁Thành 100
66 100
▁ໂລ 100
ingd 100
ສາຫະ 100
▁Rou 100
▁Vậy 100
▁ເກມ 100
▁thiên 100
:0 100
ຢືນ 100
▁ad 100
-201 100
shop 100
▁OEM 100
▁gái 100
▁trái 100
IL 100
ade 100
▁ໄຟ 100
▁Thông 100
ມະ 100
ອມ 100
ູດ 100
ແຕ 100
ạp 100
log 100
ner 100
▁dục 100
▁linh 100
▁đáng 100
-7 100
OT 100
man 100
▁đa 100
▁đẹp 100
▁Dist 100
▁Techn 100
iếc 100
▁Se 100
▁vợ 100
ring 100
▁19, 100
▁Ind 100
▁ຜ້າ 100
ງານຜະລິດ 100
▁Holmbygden 100
ừa 100
▁Đây 100
▁ກົດ 100
▁Chất 100
PS 100
="1 100
ກັນ 100
▁250 100
▁Sơn 100
▁Xin 100
▁nỗi 100
▁ສິງ 100
▁tiến 100
US 100
ເບ 100
ແນ 100
ory 100
out 100
ຫມາຍ 100
▁220 100
▁hút 100
▁ທໍາ 100
▁phép 100
Ch 100
Ph 100
kw 100
ຽດ 100
▁a 100
esh 100
lex 100
uit 100
ື້ອ 100
າກາດ 100
▁Lin 100
▁ສູງ 100
ຶດ 100
ead 100
ign 100
pcs 100
ວັນ 100
▁70 100
▁QR 100
▁rõ 100
hats 100
ster 100
▁niên 100
▁phản 100
▁trai 100
▁ບໍລິ 100
ຸດສາຫະ 100
uồn 100
ຫານ 100
▁FX 100
▁Tw 100
▁Zh 100
▁sơ 100
▁sợ 100
▁lạc 100
▁sắc 100
▁Nước 100
▁tranh 100
▁truyền 100
27 100
69 100
ton 100
ຍິງ 100
ສໍາ 100
▁mù 100
▁ສ້າງ 100
84 100
EE 100
ມັດ 100
ຫຍ່ 100
▁tên 100
▁văn 100
▁xây 100
▁ສາຍ 100
.” 100
ນໍາ 100
▁địa 100
▁info 100
ັ້ງຢືນ 100
▁riêng 100
ມັນ 100
▁AS 100
▁cr 100
▁đủ 100
ຫຼັກ 100
▁Hoa 100
▁Thể 100
▁bàn 100
▁lấy 100
▁ánh 100
▁dành 100
bar 100
ຖິງ 100
ikoo 100
▁min 100
▁Dust 100
▁Dòng 100
▁chiếu 100
▁nhanh 100
ຢັ້ງຢືນ 100
ຸດສາຫະກໍາ 100
ພິມ 100
່ວຍ 100
▁PH 100
▁cá 100
▁Lan 100
▁hôn 100
▁xăm 100
▁Quảng 100
▁Mobile 100
uk 100
▁Bo 100
▁UV 100
ະຫນົນ 100
▁buổi 100
▁giác 100
▁đúng 100
▁triệu 100
2, 100
lt 100
ງວນ 100
ດັບ 100
ຕ້ອງ 100
▁quý 100
▁thử 100
▁xúc 100
▁kiến 100
▁Power 100
-9 100
ຮຽນ 100
່ຽວ 100
▁ມິ 100
ater 100
▁suy 100
▁đôi 100
▁ຂ້ອຍ 100
▁Giang 100
▁video 100
ual 100
▁01 100
.0.2 100
ames 100
atch 100
▁Pay 100
▁www 100
▁ວິນ 100
▁Long 100
▁nghị 100
▁Google 100
PE 100
ຄື 100
▁@ 100
ຈໍາ 100
arin 100
ware 100
▁kiểm 100
lector 100
▁District 100
61 100
AL 100
ປີ 100
ໂຍ 100
▁o 100
▁Sc 100
ylon 100
▁Vải 100
éo 100
▁Am 100
▁Or 100
▁kể 100
▁ເຕ 100
▁ໃດ 100
ອນໄລ 100
▁Met 100
▁nhóm 100
ood 100
ull 100
▁ແຜ 100
▁110 100
▁Can 100
▁Ngh 100
▁bây 100
▁mất 100
▁tốc 100
▁chịu 100
▁hưởng 100
EN 100
ơm 100
ຣີ 100
orm 100
ຈັກ 100
ລ້ວ 100
▁hồ 100
▁0, 100
▁Sm 100
▁sở 100
▁17, 100
▁Hải 100
▁cải 100
▁Post 100
▁xung 100
▁ພາສາ 100
3. 100
PC 100
ເອ 100
ếp 100
▁ຝ 100
203 100
osh 100
ກິດ 100
▁gỉ 100
▁ໃຈ 100
ount 100
ຫຸ້ມ 100
▁Win 100
▁giả 100
ເຈົ້າ 100
▁kiếm 100
▁Chứng 100
RO 100
ຂາຍ 100
▁Ba 100
▁Bag 100
▁ລົດ 100
ົ່ວ 100
▁(4 100
▁gửi 100
▁nối 100
▁ຫ້ອງ 100
ikoooo 100
▁Fiber 100
▁ຖະຫນົນ 100
ຄງ 100
ron 100
▁LT 100
▁ດີ 100
▁gây 100
▁mặc 100
▁ước 100
▁bóng 100
▁bước 100
▁giữa 100
▁lành 100
▁trưởng 100
▁Download 100
ẩy 100
les 100
▁đọc 100
▁Supp 100
CH 100
ສງ 100
ໂທ 100
755 100
ັ່ນ 100
▁Bu 100
▁De 100
▁En 100
▁Max 100
▁PDF 100
▁mại 100
▁tra 100
▁buồn 100
▁quản 100
▁thủy 100
▁Thanh 100
IT 100
cy 100
ເປ 100
ero 100
ຶ້ນ 100
ated 100
ຂ້ອຍ 100
▁400 100
▁Pet 100
▁bánh 100
▁càng 100
KW 100
★★ 100
ake 100
iew 100
oth 100
ump 100
ຄືນ 100
▁tỏ 100
idth 100
uyết 100
▁ສິ່ງ 100
▁thiêng 100
▁ຄວາມໄວ 100
ຸງ 100
ales 100
▁Dis 100
▁USB 100
▁vời 100
ັດສະດ 100
▁mạng 100
▁ສ່ວນ 100
▁chiếc 100
▁ລະບົບ 100
64 100
ຊາຍ 100
▁du 100
▁of 100
ical 100
▁(1, 100
▁Chr 100
▁Hot 100
▁sai 100
▁86-1 100
▁chia 100
▁diễn 100
▁Copyshop 100
AD 100
ót 100
▁xa 100
▁Hình 100
▁đăng 100
▁liêng 100
ith 100
▁ຄາ 100
ັດສະດຸ 100
pm 100
ics 100
ode 100
org 100
son 100
▁0. 100
▁55 100
▁sẻ 100
▁ຫາ 100
ສ່ວນ 100
▁ແບບ 100
▁ໃຊ້ 100
▁Port 100
▁sang 100
▁Machin 100
▁Technology 100
▁ປະເພດຜະລິດຕະພັນ 100
63 100
ີມ 100
ໂມ 100
App 100
ING 100
▁dữ 100
ເວລາ 100
▁Bit 100
▁Vật 100
▁tùy 100
▁đáp 100
▁ຄຸນ 100
▁ບົດ 100
▁ພວກ 100
▁ສະຫ 100
▁Live 100
▁tỉnh 100
ອນໄລນ໌ 100
▁chương 100
001 100
ຄົນ 100
▁Hệ 100
▁dù 100
▁HGH 100
press 100
▁khoảng 100
▁ໂຮງງານຜະລິດ 100
ool 100
stR 100
ຶ່ງ 100
▁dày 100
▁nổi 100
ຂະຫນາດ 100
▁Slots 100
stRider 100
▁Tattoos 100
ງວນລິຂະສິດ 100
▁On 100
▁Up 100
▁ມື 100
ື່ນໆ 100
▁Xem 100
▁khổ 100
▁sáu 100
jiang 100
▁2000 100
▁Mini 100
▁Plas 100
▁từng 100
▁Whats 100
▁ປະເທດ 100
uốt 100
▁Kỳ 100
▁PP 100
▁kg 100
▁ຕຸ 100
ທະນາ 100
▁Art 100
▁Blu 100
▁Ide 100
▁bày 100
▁họp 100
▁tôn 100
▁ກຸມ 100
▁ນັບ 100
ເຂົ້າ 100
▁Play 100
▁danh 100
▁phạm 100
▁chồng 100
▁laser 100
▁ngươi 100
▁nhiệm 100
BS 100
▁ເຊ 100
loem 100
▁Bắc 100
▁City 100
▁Word 100
▁Dress 100
48 100
78 100
Tr 100
úa 100
ẹo 100
ert 100
ilic 100
▁Câu 100
▁cực 100
ustom 100
▁gắng 100
▁nóng 100
▁đứng 100
▁ເງິນ 100
▁Phòng 100
▁ເຂົ້າ 100
71 100
iao 100
ລາວ 100
ຫໍ່ 100
ອາດ 100
▁2. 100
ຫນ້ນ 100
▁rep 100
▁đấu 100
▁ອອກ 100
▁biểu 100
▁thiếu 100
ວຍ 100
ແວ 100
ậm 100
ີໂອ 100
ສະພາ 100
▁0.1 100
▁Màu 100
▁mẫu 100
▁ຖົງ 100
lette 100
ໂຍບາຍ 100
▁diện 100
▁chăng 100
▁ວິນາທີ 100
▁ເວັບໄຊ 100
): 100
MS 100
ວິ 100
yst 100
▁su 100
ຕົ້ນ 100
▁Thế 100
▁Với 100
▁nội 100
▁đưa 100
▁Samloem 100
2) 100
Sh 100
pl 100
ທ໌ 100
ຣະ 100
ene 100
▁Hy 100
▁Sw 100
▁đá 100
ໍາລະ 100
▁dấu 100
▁ແນວ 100
▁Soft 100
▁admin 100
3, 100
pr 100
ếm 100
ase 100
ຜົນ 100
▁Hỗ 100
▁hỗ 100
ຢ່າງ 100
▁ຈໍາ 100
▁khiển 100
ok 100
ອຍ 100
▁3. 100
▁ທີ 100
▁Bởi 100
agram 100
▁Dịch 100
▁phim 100
▁Collector 100
▁9: 100
▁ພິ 100
▁ໃບ 100
duct 100
້າພະ 100
▁Ant 100
▁Des 100
▁Pre 100
▁Str 100
▁ghi 100
▁ພຶດ 100
arton 100
▁nhôm 100
▁ສົ່ງ 100
▁Email 100
▁khiến 100
ກ່ຽວກັບ 100
▁ອຸດສາຫະກໍາ 100
79 100
CO 100
õi 100
ọt 100
iêm 100
und 100
ຖາມ 100
▁xử 100
ford 100
ການຊ 100
▁Eng 100
▁mời 100
▁Mark 100
▁Thái 100
▁ກ່ຽວກັບພວກເຮົາ 100
). 100
ແຕ່ 100
▁4, 100
▁CS 100
▁ấn 100
yper 100
▁20, 100
▁Res 100
▁ນໍາ 100
▁dung 100
▁ການທ 100
▁chung 100
▁ອາທິດ 100
ໍາລະເງິນ 100
73 100
nc 100
="2 100
iệp 100
ຫນາ 100
▁đỡ 100
ັດຕະ 100
▁Năm 100
▁Par 100
▁đâu 100
▁dạng 100
▁Rikoooo 100
), 100
ẩu 100
ồm 100
enn 100
▁4. 100
▁am 100
land 100
ນ້ອຍ 100
▁bạc 100
▁lớp 100
▁ngữ 100
▁tho 100
▁ຫນາ 100
▁quay 100
▁ຕ້ອງ 100
▁ສິງຫາ 100
IS 100
ໄພ 100
ệt 100
ບັບ 100
▁31 100
▁AT 100
▁vẻ 100
ະພູມ 100
ໃຫຍ່ 100
▁ແຕ່ 100
▁Theo 100
▁thăm 100
▁Instagram 100
fl 100
ma 100
òi 100
air 100
ກາງ 100
▁38 100
coin 100
▁Bàn 100
▁Cân 100
▁sát 100
▁thú 100
utter 100
ບັນຈຸ 100
ອາກາດ 100
▁ngôn 100
▁ເບິ່ງ 100
▁Suppli 100
cl 100
ưỡ 100
eed 100
ifi 100
ime 100
ond 100
urg 100
ປົກ 100
ລອງ 100
ຸນາ 100
▁1: 100
▁Hộ 100
▁Mô 100
▁SA 100
▁Gen 100
▁lâu 100
▁chắc 100
▁Đường 100
ຫຸ້ມຫໍ່ 100
CC 100
ແຂ 100
ຈັດ 100
▁ຕາ 100
▁FOB 100
▁Tám 100
▁mua 100
▁núi 100
▁vai 100
▁ທັນ 100
▁ທົດ 100
ັງກອນ 100
▁Shen 100
▁biển 100
▁giản 100
▁truy 100
ຕິດຕໍ່ 100
ທາງການ 100
41 100
46 100
ux 100
col 100
hai 100
ລິກ 100
ສອບ 100
▁PM 100
▁Sử 100
▁Lưu 100
▁hoa 100
abric 100
ating 100
ouble 100
ເລືອກ 100
▁Stre 100
▁Tags 100
▁hiểm 100
▁Hướng 100
ເຮັດວຽກ 100
4: 100
IF 100
TS 100
ວມ 100
www 100
▁Be 100
▁ເປ 100
▁1.5 100
▁đêm 100
▁Việc 100
▁Thường 100
113 100
▁Ox 100
▁la 100
alve 100
▁hòa 100
▁lựa 100
▁nhẹ 100
▁vận 100
▁ຮັບ 100
ຫະພູມ 100
ໂນມັດ 100
▁dưới 100
▁vàng 100
▁Black 100
▁phước 100
49 100
ane 100
ays 100
ຍາວ 100
ທຶກ 100
ສຶກ 100
▁6, 100
▁7, 100
▁8: 100
▁FR 100
▁Hà 100
▁kỷ 100
ange 100
pper 100
▁Thẻ 100
▁gsm 100
▁hộp 100
▁ບັດ 100
▁hạnh 100
▁ໃຫມ່ 100
▁phong 100
8, 100
gsm 100
▁Bột 100
▁Mac 100
▁Mon 100
▁khả 100
▁trữ 100
▁ວ່າ 100
▁đoạn 100
ວາ 100
300 100
con 100
▁09 100
▁GB 100
▁Fil 100
▁nền 100
▁thảo 100
ຸນຫະພູມ 100
▁ມັງກອນ 100
▁ປະຕິບັດ 100
ຕີ 100
eta 100
ຊາດ 100
ỏng 100
▁65 100
▁Cơ 100
▁bì 100
▁gỗ 100
▁sứ 100
▁ຂະ 100
▁ຊີ 100
▁ບໍ 100
▁ໂມ 100
soft 100
uper 100
ອບແວ 100
▁môi 100
▁phá 100
▁Tiêu 100
▁ຮຸ່ນ 100
▁ຂໍ້ມູນ 100
ັດຕະໂນມັດ 100
AM 100
ale 100
ath 100
ley 100
ທານ 100
▁vv 100
▁ແກ 100
ມືຖື 100
▁Bán 100
▁gồm 100
▁lửa 100
irect 100
▁inch 100
▁thất 100
ສະຫນູນ 100
▁Chang 100
▁Nylon 100
/0 100
ão 100
▁lộ 100
▁pr 100
ື່ອມ 100
▁1.0 100
▁Lời 100
▁Mod 100
ອື່ນໆ 100
▁2012 100
▁Hyper 100
▁chẳng 100
▁thiện 100
▁ເລືອກ 100
ັບສະຫນູນ 100
▁ການຫຸ້ມຫໍ່ 100
ằm 100
ult 100
ສາຍ 100
▁bố 100
▁Gro 100
▁cam 100
ຮງດັນ 100
▁3000 100
▁Chơi 100
▁chấp 100
▁khởi 100
▁luật 100
▁lạnh 100
IP 100
ept 100
▁1/ 100
▁Đảo 100
Phone 100
▁Char 100
▁FXCL 100
▁xanh 100
▁ເຖິງ 100
ingdao 100
▁ngoại 100
ຍະ 100
ແທ 100
▁z 100
bon 100
ຕາມ 100
▁ຫລ 100
ຮ້ອນ 100
▁10, 100
▁21, 100
▁24, 100
▁chú 100
▁ທໍ່ 100
▁ນັ້ນ 100
ນໍາໃຊ້ 100
▁Nhiều 100
▁tường 100
96 100
ùn 100
ຕູ 100
-15 100
lin 100
▁5, 100
▁GI 100
▁Về 100
▁al 100
▁0.0 100
▁28, 100
▁Kinh 100
▁Nhãn 100
▁Trời 100
▁cứng 100
▁12345 100
▁reply 100
▁Qingdao 100
▁ຫນ້າທາງການ 100
4, 100
ຽວ 100
-12 100
eet 100
ມານ 100
▁Ban 100
▁ຂາຍ 100
▁ngồi 100
▁niềm 100
▁suốt 100
▁ສະຫນ 100
▁Roulette 100
▁WhatsApp 100
én 100
uộn 100
ຄໍາ 100
ຈີນ 100
▁48 100
▁KH 100
▁Pe 100
▁ac 100
ກະຕິ 100
▁2.0 100
▁380 100
▁Bao 100
▁Phi 100
▁nam 100
▁ກໍາ 100
▁ຈັດ 100
itter 100
▁giảm 100
▁tịch 100
ິດຕັ້ງ 100
▁Chiết 100
ບໍລິການ 100
▁Thượng 100
ri 100
ru 100
ວບ 100
gor 100
ins 100
uân 100
ຮູ້ 100
▁8, 100
▁lạ 100
▁Đã 100
▁ມາ 100
▁ສາ 100
▁Kho 100
▁LTD 100
▁bảy 100
▁ພາກ 100
▁ສານ 100
Press 100
▁sạch 100
▁email 100
▁quang 100
▁ອຸປະກອນການ 100
In 100
ີຍ 100
lug 100
ype 100
▁tả 100
▁ມມ 100
▁Cho 100
▁Cor 100
▁độc 100
ລະກິດ 100
▁Quận 100
ຂໍ້ມູນ 100
▁Chính 100
▁quanh 100
▁ຄວາມຫນາ 100
UM 100
ວງ 100
ສິ 100
ືອ 100
▁Â 100
uôi 100
▁MT 100
▁NO 100
▁Op 100
▁ca 100
▁hồi 100
ງື່ອນ 100
▁Giấy 100
▁ràng 100
▁ເວົ້າ 100
lor 100
ock 100
ote 100
▁37 100
▁Dự 100
ຖຸນາ 100
▁Kết 100
▁sắp 100
▁thẻ 100
▁ທຸກ 100
▁Chín 100
▁giấy 100
▁khăn 100
▁nâng 100
ທີ່ສຸດ 100
▁ພຶດສະພາ 100
92 100
br 100
mp 100
pe 100
ón 100
▁Ả 100
.10 100
ren 100
▁85 100
▁Ed 100
▁ID 100
iver 100
sung 100
▁Aut 100
▁Cốc 100
▁lao 100
▁ຄ່າ 100
▁ລູກ 100
ector 100
▁Dong 100
▁Thực 100
▁Motor 100
▁ວັດສະດຸ 100
.99 100
ຖືກ 100
ົ່າ 100
ແປງ 100
▁3: 100
▁ST 100
lash 100
ຫຼາຍ 100
▁12, 100
▁22, 100
▁Set 100
▁and 100
▁sâu 100
ivers 100
yptoc 100
ຕະຖານ 100
▁Jack 100
▁Page 100
▁poly 100
▁vòng 100
▁đừng 100
▁ພື້ນ 100
▁Plastic 100
óp 100
app 100
lic 100
ườn 100
ຫນີ 100
▁9, 100
▁Av 100
▁dị 100
▁ác 100
▁bức 100
▁dõi 100
▁lắng 100
▁tổng 100
▁Chương 100
▁ຜູ້ຜະລິດ 100
▁Microsoft 100
▁ຕິດຕໍ່ຕອນນີ້ 100
9, 100
▁ủ 100
ari 100
້ຽມ 100
▁SP 100
▁de 100
atic 100
ulse 100
▁23, 100
▁Mục 100
▁ທາງ 100
ເລກຸນ 100
▁băng 100
▁lãnh 100
▁trục 100
▁đông 100
ຸລະກິດ 100
▁Valve 100
▁Chuyển 100
້າພະເຈົ້າ 100
oz 100
ແຜ 100
igh 100
ise 100
olt 100
ຂາວ 100
ສາດ 100
▁bơm 100
▁mật 100
▁mối 100
▁tắc 100
uitar 100
ປະເທດ 100
▁chạy 100
▁chắn 100
▁Được 100
າດຕະຖານ 100
▁iPhone 100
▁khuyên 100
DA 100
oid 100
ລົງ 100
ສູນ 100
▁(0 100
▁ນະ 100
▁ອະ 100
▁ເທ 100
ound 100
▁Fac 100
▁Mua 100
▁RFC 100
▁The 100
▁hát 100
▁màn 100
▁mùa 100
▁van 100
▁ຊື້ 100
baric 100
▁khẩu 100
▁thao 100
▁Thiên 100
▁ແຫນ້ນ 100
ງື່ອນໄຂ 100
3) 100
NS 100
sk 100
ອີ 100
600 100
ger 100
our 100
ໄມ້ 100
່ວມ 100
▁06 100
▁2: 100
▁33 100
▁NH 100
▁Tỉ 100
▁Áp 100
ະລັດ 100
▁Dây 100
▁Hua 100
▁sửa 100
▁đạt 100
ຄງການ 100
▁Blog 100
▁cạnh 100
▁ກຸ່ມ 100
▁trắng 100
▁ສະຖານ 100
▁Samsung 100
51 100
82 100
9) 100
ໃດ 100
ສິນ 100
ີນາ 100
▁Di 100
▁FS 100
▁SK 100
.201 100
▁Box 100
▁Kit 100
▁ຂຽນ 100
ition 100
thank 100
▁Miễn 100
▁Sing 100
▁Thâm 100
▁Wall 100
▁loài 100
▁phía 100
▁Đánh 100
▁ຕົ້ນ 100
▁WordPress 100
-86 100
ົບທ 100
▁58 100
▁CP 100
▁ex 100
▁on 100
▁ít 100
▁Zhe 100
▁for 100
▁hại 100
▁mức 100
▁tai 100
▁Best 100
▁Tiền 100
▁Quyến 100
▁gương 100
ບໍລິສັດ 100
SP 100
ứt 100
oph 100
oud 100
ສະນ 100
▁TG 100
ະນໍາ 100
▁xấu 100
▁ຮູ້ 100
-2018 100
ົບທວນ 100
▁chăm 100
▁ກ່ອງ 100
▁ຫມົດ 100
▁Elect 100
▁nguồn 100
▁thắng 100
▁chuyên 100
▁Suppliers 100
CD 100
▁Le 100
▁MB 100
▁ss 100
ding 100
shan 100
ຂຶ້ນ 100
ໃຫມ່ 100
▁chỗ 100
▁ຜົນ 100
ມ່ຍິງ 100
▁Town 100
▁dòng 100
▁tảng 100
▁ການຄ 100
▁ປ່ຽນ 100
▁10000 100
to 100
▁Gu 100
▁La 100
▁co 100
▁ທະ 100
▁ແຂ 100
▁Off 100
▁Tìm 100
▁lái 100
ເຫຼັກ 100
▁Hàng 100
▁Nhật 100
▁Thật 100
itting 100
▁0086-5 100
St 100
ຈິກ 100
ັບປ 100
▁SH 100
▁TO 100
▁cử 100
▁86- 100
▁kéo 100
▁lầm 100
▁nạn 100
▁rao 100
▁ຈຸດ 100
ebook 100
▁Flat 100
▁Line 100
▁cộng 100
▁phun 100
▁Solom 100
▁thách 100
▁Hyperbaric 100
DM 100
ft 100
ati 100
ຄຸມ 100
ະນະ 100
ເຄາ 100
ໂຮງ 100
▁02 100
▁03 100
▁Hồ 100
ດ້ວຍ 100
ເລັດ 100
▁18, 100
▁Pal 100
▁mát 100
▁ngủ 100
color 100
ໄຟຟ້າ 100
▁ກໍລະ 100
▁Tiếng 100
▁hoạch 100
42 100
81 100
ຽບ 100
ແຫ 100
▁Ấ 100
-30 100
EAN 100
ann 100
era 100
ຊົນ 100
ຍັງ 100
▁Du 100
-200 100
▁11, 100
▁Bro 100
▁Cập 100
▁Med 100
▁đen 100
▁đẩy 100
▁ຢາງ 100
ຕໍ່ໄປ 100
ທີ່ມີ 100
▁uống 100
▁Shang 100
▁ກຸມພາ 100
▁86-574 100
Pro 100
ink 100
oto 100
pro 100
ສົມ 100
▁DR 100
▁sổ 100
ader 100
ance 100
ustr 100
ນັ້ນ 100
▁125 100
▁14, 100
▁Gia 100
▁sạn 100
▁vua 100
▁Đôi 100
▁dàng 100
ategor 100
▁Press 100
ປົກກະຕິ 100
▁ຫົວຂໍ້ 100
▁ອຸນຫະພູມ 100
▁Machinery 100
IR 100
ັມ 100
ເຈ 100
ໃສ 100
ຮັກ 100
▁5. 100
▁cổ 100
▁ép 100
▁ນິ 100
▁3.0 100
▁Cap 100
▁Net 100
▁PCB 100
▁Trò 100
▁nhu 100
▁sóc 100
ວບຄຸມ 100
▁Tool 100
▁bảng 100
▁thấm 100
▁ເປີດ 100
▁123456 100
▁ທົດລອງ 100
▁Bitcoin 100
▁ເງື່ອນໄຂ 100
SD 100
ces 100
gen 100
pot 100
▁Sn 100
ouse 100
▁hối 100
▁Đơn 100
▁đền 100
▁ຄູ່ 100
▁Arch 100
▁Miss 100
▁Thép 100
actory 100
ອອກແບບ 100
ັດທະນາ 100
▁sales 100
▁thuốc 100
ທັງຫມົດ 100
▁carton 100
▁Solomons 100
▁ໃບຢັ້ງຢືນ 100
43 100
6, 100
JS 100
VD 100
een 100
ute 100
▁Uk 100
▁ໄລ 100
zhen 100
▁Mỗi 100
▁Nội 100
▁họa 100
▁Chào 100
▁khai 100
▁Warin 100
▁ຫຼິ້ນ 100
ນະໂຍບາຍ 100
▁Trường 100
CS 100
ave 100
raw 100
ອົບ 100
ືອງ 100
ầng 100
▁Fo 100
acks 100
mail 100
oter 100
ưỡng 100
ເຫນີ 100
▁0.5 100
▁Tur 100
ading 100
▁Park 100
▁Seal 100
▁Visa 100
▁yarn 100
▁trách 100
▁Server 100
........ 100
62 100
MA 100
TC 100
oss 100
ລະອ 100
້ອມ 100
▁34 100
▁5: 100
▁CF 100
▁vũ 100
▁ຕະ 100
▁Rob 100
▁hơi 100
▁hồn 100
▁ໂລກ 100
▁2010 100
▁siêu 100
▁Light 100
▁ô 100
+00 100
ຊື່ 100
▁39 100
▁cl 100
ives 100
umin 100
▁Pan 100
▁Tài 100
▁tri 100
▁Chúa 100
▁Giải 100
▁đoàn 100
▁ຫຼາຍ 100
+00:00 100
ົບທວນຄືນ 100
▁ທັງຫມົດ 100
EL 100
ຕ້ 100
ເກມ 100
ເລດ 100
▁95 100
▁Hu 100
▁PR 100
▁RS 100
▁Tư 100
▁ຂໍ 100
▁Ấn 100
▁130 100
▁Bar 100
▁dầu 100
▁ຕອບ 100
▁Thay 100
▁thầy 100
▁Ideas 100
▁Nhiệt 100
▁ໄຟຟ້າ 100
▁ຄໍາຖາມ 100
▁Machine 100
▁Product 100
ການຊໍາລະເງິນ 100
ໂດ 100
-01 100
ott 100
▁ox 100
atal 100
▁16, 100
▁450 100
▁Ref 100
▁Thị 100
▁You 100
▁bột 100
▁mãi 100
▁tàu 100
▁Quản 100
▁nuôi 100
▁trận 100
irtual 100
ໄດ້ຮັບ 100
▁khích 100
▁ມິຖຸນາ 100
▁ພວກເຮົາ 100
MC 100
fu 100
ກວ 100
ແພ 100
els 100
ous 100
uss 100
▁sư 100
ille 100
ພາສາ 100
ສິໂນ 100
▁180 100
▁29, 100
▁hậu 100
▁lẫn 100
▁Ảnh 100
ລະອຽດ 100
▁2005 100
▁Phát 100
▁cuộn 100
▁giận 100
▁ນາທີ 100
▁ASEAN 100
▁https 100
▁Online 100
TF 100
ືດ 100
ẽm 100
ụp 100
ທໍ່ 100
ສັງ 100
▁AM 100
▁TS 100
▁Tự 100
▁ຫວ 100
ella 100
▁Cảm 100
▁Tây 100
▁phê 100
▁Đọc 100
▁ຜົງ 100
▁ມື້ 100
▁Quần 100
▁tùng 100
▁ເດັກ 100
▁ເມສາ 100
▁ແລ້ວ 100
▁khung 100
ປະຕິບັດ 100
▁ອອນໄລນ໌ 100
AY 100
IA 100
acc 100
lay 100
ohn 100
▁TP 100
cket 100
lish 100
ົນຕີ 100
▁25, 100
▁Kim 100
▁cáp 100
▁hàn 100
▁trì 100
▁đèn 100
▁ຕັດ 100
▁ວິດ 100
▁ຮັກ 100
ຫວ່າງ 100
▁FREE 100
▁width 100
▁ສະບັບ 100
ຂອງທ່ານ 100
▁Double 100
▁fabric 100
ຕິດຕໍ່ຕອນນີ້ 100
6) 100
7, 100
cn 100
mg 100
ém 100
ກາ 100
800 100
aff 100
eph 100
ຢັນ 100
ຸ້ນ 100
ເດດ 100
▁44 100
▁Ac 100
▁da 100
▁xứ 100
ions 100
ຂ່າວ 100
ເຄາະ 100
▁4.0 100
▁Pin 100
▁Rồi 100
▁khỏ 100
▁kia 100
▁may 100
▁nằm 100
▁phủ 100
▁thủ 100
▁đảm 100
▁đức 100
ຈຸບັນ 100
ິດຕາມ 100
ເມື່ອ 100
▁Bình 100
▁Cool 100
▁Nhân 100
▁Phân 100
▁ຫມາຍ 100
ເຊື່ອມ 100
▁2019! 100
▁ກັນຍາ 100
▁ສາມາດ 100
ational 100
▁Custom 100
▁ແຮງດັນ 100
ategorized 100
▁ກຸ່ມນະໂຍບາຍ 100
LC 100
dr 100
xy 100
ose 100
ຢາງ 100
ສານ 100
້ໄຂ 100
▁.: 100
▁By 100
▁mã 100
crip 100
▁Cao 100
▁Gol 100
▁mến 100
▁thi 100
ັບເດດ 100
▁1200 100
▁2006 100
▁Cuộc 100
▁Tube 100
cooter 100
▁Cheat 100
▁Games 100
▁ສະແດງ 100
2. 100
8) 100
?— 100
ລີ 100
150 100
250 100
ker 100
kgs 100
raz 100
ênh 100
ຜ່າ 100
▁7: 100
▁Ap 100
▁CA 100
▁CD 100
▁xã 100
ິດທິ 100
ີດໍາ 100
▁15, 100
▁Arm 100
▁Ben 100
▁Chỉ 100
▁Jet 100
▁Pie 100
▁Túi 100
▁nén 100
▁phổ 100
▁chút 100
▁mong 100
▁nghi 100
▁vĩnh 100
▁ຕຸລາ 100
▁Filter 100
▁ປະຕິບັດຕາມ 100
▁ການທົບທວນຄືນ 100
91 100
PP 100
VA 100
cá 100
ແລ 100
.05 100
atin 100
lyth 100
▁Chị 100
▁Key 100
▁Mặc 100
▁Pat 100
▁Tấm 100
▁Unc 100
▁com 100
▁trụ 100
▁ພຣະ 100
▁ຟຣີ 100
board 100
ລະບົບ 100
ສະແດງ 100
▁Star 100
▁sóng 100
▁ມີນາ 100
▁ແຜ່ນ 100
▁ບໍ່ມີ 100
▁Factory 100
▁ພາສາລາວ 100
▁Shenzhen 100
KG 100
ke 100
vc 100
ຂະ 100
top 100
ຊຸມ 100
່ອຍ 100
ựng 100
▁Hi 100
▁đô 100
▁Cle 100
▁Thư 100
▁móc 100
ified 100
otrop 100
urren 100
້າສຸດ 100
▁chữa 100
▁ເວລາ 100
ສະຫນອງ 100
▁tránh 100
▁Thương 100
ດີທີ່ສຸດ 100
▁Portable 100
▁Zhejiang 100
GB 100
pu 100
ຫດ 100
▁ງ 100
ext 100
▁CE 100
work 100
ເຕີມ 100
ເອົາ 100
▁350 100
▁cân 100
▁mắc 100
▁ນາງ 100
▁ພາບ 100
-2020 100
cript 100
right 100
ປະເພດ 100
▁Pack 100
▁Pump 100
▁buôn 100
▁khóa 100
▁lanh 100
▁niệm 100
▁vùng 100
▁phiên 100
▁Intern 100
yptocurren 100
CN 100
ĩa 100
ີບ 100
ize 100
ÔNG 100
ຄ່າ 100
▁4: 100
▁My 100
▁RN 100
▁tỷ 100
▁ຖື 100
▁ແທ 100
ແຕ່ງ 100
▁(1) 100
▁1.2 100
▁10: 100
▁240 100
▁26, 100
▁Bảo 100
▁Mag 100
▁Sáu 100
▁tha 100
ional 100
▁Pháp 100
▁Stud 100
▁cánh 100
▁khỏe 100
▁quần 100
▁ຊັ້ນ 100
estern 100
▁Union 100
ainless 100
▁ເປັນຫຍັງ 100
4) 100
be 100
da 100
uf 100
ໃຍ 100
▁ổ 100
iet 100
uck 100
ຢາມ 100
▁04 100
▁SD 100
▁Tu 100
▁at 100
▁ໄວ 100
ling 100
ular 100
ສິ່ງ 100
ຫມັກ 100
ຮ່ວມ 100
▁2.5 100
▁Như 100
▁tắt 100
▁xếp 100
▁đội 100
▁Bảng 100
▁Giao 100
▁khoa 100
▁soát 100
▁thôi 100
▁vững 100
▁Đóng 100
▁Đừng 100
້ຽມຢາມ 100
▁Super 100
▁trạng 100
ຕັ້ງແຕ່ 100
ທຸລະກິດ 100
▁Street 100
ອາດສາມາດ 100
▁ສະຫນັບສະຫນູນ 100
▁Uncategorized 100
/5 100
1- 100
yn 100
any 100
ສຽງ 100
▁08 100
▁43 100
▁PE 100
▁Si 100
▁mẽ 100
onic 100
ຈ່າຍ 100
ນເລດ 100
▁Har 100
▁che 100
▁cắm 100
▁đám 100
▁ລົງ 100
▁ເຄື 100
▁ເອກ 100
▁Ngay 100
▁ເຫັນ 100
verter 100
▁Manag 100
ີ່ມເຕີມ 100
▁ລາຄາປົກກະຕິ 100
BO 100
-25 100
bal 100
erv 100
ຄານ 100
ອດຕ 100
ເສດ 100
ແສງ 100
▁BS 100
▁Bà 100
▁SS 100
▁Xe 100
▁bè 100
▁lá 100
▁mạ 100
▁ân 100
▁ເຟ 100
-100 100
ooth 100
read 100
ເດັກ 100
▁Sch 100
▁căn 100
▁cấu 100
▁iOS 100
▁tắm 100
▁ນັກ 100
ethyl 100
▁Zone 100
▁sàng 100
▁viện 100
ບັນທຶກ 100
ຜູ້ຊາຍ 100
ເວັບໄຊ 100
▁Guang 100
▁Silic 100
▁thẳng 100
▁ພະຈິກ 100
ໂທລະສັບ 100
▁Software 100
▁ແລະອື່ນໆ 100
▁ໂທລະສັບມືຖື 100
OL 100
ape 100
ຕອບ 100
▁.. 100
▁LÀ 100
▁tô 100
▁ຄື 100
ຫຍໍ້ 100
ອບໃຈ 100
▁Văn 100
▁cầm 100
▁dựa 100
▁tận 100
▁Đặt 100
▁ຊົມ 100
▁ຍິນ 100
▁ອາດ 100
ກວ້າງ 100
▁Mult 100
▁Thêm 100
▁Tình 100
▁khôn 100
▁khắc 100
▁nghỉ 100
▁ngôi 100
▁tiện 100
▁điệp 100
▁Khách 100
▁Design 100
▁ສະຫະລັດ 100
▁ການນໍາໃຊ້ 100
UT 100
ິບ 100
ech 100
vey 100
ຜ້າ 100
▁51 100
▁GS 100
▁IT 100
▁fl 100
heel 100
itch 100
▁0.2 100
▁Tạo 100
▁chờ 100
▁gốc 100
▁hủy 100
▁lão 100
▁quà 100
▁tạp 100
▁ບາງ 100
▁ອົງ 100
▁ແສງ 100
elash 100
ີນທາງ 100
▁Chat 100
▁Hong 100
▁diệt 100
▁lệnh 100
▁tuân 100
▁ນິ້ວ 100
່ຽນແປງ 100
▁Zhong 100
▁trông 100
▁0086-1 100
inecolor 100
▁ເຄື່ອງມື 100
▁International 100
++ 100
ML 100
bs 100
ໂຄ 100
iam 100
ພັນ 100
▁6: 100
▁PU 100
▁ví 100
▁xo 100
.0.1 100
Tiếp 100
tain 100
ypto 100
▁Boh 100
▁Bur 100
▁Jan 100
▁chữ 100
▁cài 100
▁vừa 100
▁ກອງ 100
▁Mill 100
▁Wire 100
▁chào 100
▁ngắn 100
▁phận 100
▁thấp 100
▁vâng 100
▁Thánh 100
▁ngoan 100
ຕ້ອງການ 100
▁ຮູບແບບ 100
▁Twitter 100
▁Facebook 100
▁ອັດຕະໂນມັດ 100
OC 100
ິວ 100
ີກ 100
ớn 100
125 100
ano 100
eld 100
ids 100
inj 100
opp 100
orn 100
rew 100
ury 100
▁HP 100
▁dỗ 100
aint 100
ຕ້ານ 100
▁-20 100
▁Red 100
▁Thu 100
▁hoá 100
▁hãi 100
▁hạt 100
▁món 100
lythe 100
າງວັນ 100
▁Case 100
▁Home 100
▁trải 100
atalog 100
ສູນກາງ 100
▁Mount 100
▁Stand 100
▁dường 100
▁ລະດັບ 100
▁ຄາສິໂນ 100
▁ວິດີໂອ 100
▁English 100
▁ບໍລິສັດ 100
▁ມາດຕະຖານ 100
87 100
-00 100
.06 100
aph 100
ava 100
ກັດ 100
ສົນ 100
▁mi 100
▁tệ 100
▁vs 100
ຕ່າງ 100
▁115 100
▁750 100
▁API 100
▁Inc 100
▁Lên 100
▁Tai 100
▁lai 100
▁Đầu 100
▁Cuối 100
▁buộc 100
▁giết 100
▁kiểu 100
▁đoán 100
▁đích 100
▁ຫຍັງ 100
▁khuôn 100
▁luyện 100
▁khuyến 100
▁Internet 100
▁ເຄື່ອງຕັດ 100
1) 100
CP 100
ໂກ 100
015 100
VAC 100
amb 100
isc 100
▁El 100
▁MI 100
▁ເຄ 100
Tube 100
ແລ້ວ 100
▁Tốc 100
▁lãm 100
▁ngờ 100
▁Đen 100
▁Đức 100
▁ສູດ 100
quare 100
▁Hand 100
▁Tour 100
▁giám 100
▁mảnh 100
▁quân 100
▁ອ່ານ 100
▁Group 100
▁khiêm 100
ຫຍໍ້ຂອງ 100
▁Christ 100
▁Single 100
▁ຊື່ຫຍໍ້ຂອງ 100
83 100
CE 100
èo 100
ໄຮ 100
ộn 100
▁u 100
ips 100
zip 100
ກໍ່ 100
ຊື້ 100
ບຸກ 100
▁-. 100
▁Rd 100
▁Sơ 100
▁sc 100
.4.1 100
ansp 100
ອ່ານ 100
▁900 100
▁Lọc 100
▁Sức 100
▁mái 100
ໍານົດ 100
▁khắp 100
▁nguy 100
▁đựng 100
▁ຫນຶ່ງ 100
ເດີນທາງ 100
▁Western 100
▁Shanghai 100
FC 100
pa 100
ym 100
ẹn 100
900 100
="0 100
="4 100
ais 100
bag 100
rum 100
ອົງ 100
ໄວ້ 100
ấng 100
▁DX 100
▁EN 100
▁Nê 100
▁ກາ 100
2018 100
ທົ່ວ 100
ເຂົາ 100
▁Cửa 100
▁Gas 100
▁Gọi 100
▁Mal 100
▁cám 100
▁ghế 100
755-2 100
enter 100
ນະພາບ 100
ສຶກສາ 100
▁Auto 100
▁Blue 100
▁John 100
▁game 100
▁phán 100
▁phối 100
ກົດດັນ 100
▁ຫນ່ວຍ 100
▁ບົດຄວາມ 100
▁ຢ້ຽມຢາມ 100
▁ເສັ້ນໃຍ 100
** 100
zz 100
ຊາ 100
▁— 100
.30 100
lan 100
unn 100
ທູ້ 100
ຝາກ 100
ຟຣີ 100
ອັນ 100
ື່ມ 100
້ວຍ 100
▁($ 100
▁42 100
▁CR 100
▁Cy 100
▁Ep 100
▁JW 100
▁bê 100
▁ưu 100
ject 100
ouch 100
reen 100
▁HDL 100
▁Ray 100
▁Sar 100
▁kẽm 100
▁ສູນ 100
olone 100
▁ຝຸ່ນ 100
▁Glass 100
▁ທັນວາ 100
ຕິດຕັ້ງ 100
ordpress 100
▁ຄວາມສູງ 100
▁Copyright 100
▁Stainless 100
ve 100
ຈໍ 100
ດາ 100
ago 100
alk 100
cam 100
oon 100
ota 100
oài 100
ຂົນ 100
ຕອງ 100
ພາະ 100
ຮົມ 100
ịnh 100
▁63 100
▁QU 100
▁SE 100
▁We 100
▁nỗ 100
▁đổ 100
ylic 100
ຕະຫຼ 100
ຝຸ່ນ 100
ພື້ນ 100
ສັ່ງ 100
ໂລຫະ 100
▁(2) 100
▁13, 100
▁30, 100
▁Led 100
▁duy 100
▁dệt 100
▁góp 100
▁nhờ 100
▁phù 100
▁thù 100
enoid 100
raine 100
ທີ່ຈະ 100
ເພື່ອ 100
▁Bằng 100
▁Tian 100
▁liệt 100
▁nhắc 100
▁thập 100
▁ຫລາຍ 100
▁Bohem 100
▁Crack 100
▁Smart 100
▁ຊອບແວ 100
▁ຜະລິດ 100
▁chuyền 100
▁nghiên 100
ພະລັງງານ 100
▁Virtual 100
▁Archives 100
▁ຂຽນເມື່ອ 100
yptocurrency 100
FL 100
OW 100
ແຮ 100
້ຍ 100
▁% 100
Bet 100
EMA 100
GSM 100
elt 100
xin 100
ຈິງ 100
ຊຸດ 100
ບິນ 100
▁FI 100
▁IN 100
▁Mc 100
▁Me 100
▁Pu 100
▁as 100
▁hu 100
ital 100
ເກັບ 100
▁(10 100
▁11: 100
▁3.5 100
▁ABS 100
▁Dub 100
▁PET 100
▁Tập 100
▁ben 100
▁gió 100
▁phi 100
▁tầm 100
arius 100
wheel 100
▁Mình 100
▁Part 100
▁cook 100
▁giây 100
▁hiển 100
▁lông 100
▁mươi 100
▁Đồng 100
ສິນຄ້າ 100
ອົບຮົມ 100
▁China 100
▁Nguồn 100
▁Industr 100
▁ກໍລະກົດ 100
▁ແມ່ນຫຍັງ 100
7) 100
ye 100
-11 100
-80 100
arm 100
omo 100
ະລັ 100
ືອບ 100
▁64 100
▁FA 100
▁ນາ 100
▁ເຈ 100
ຫ້ອງ 100
▁12: 100
▁160 100
▁Mat 100
▁Rot 100
▁Tab 100
▁thụ 100
allow 100
asino 100
oller 100
ooden 100
ystem 100
ຊີວິດ 100
ອດຕິງ 100
ເສັ້ນ 100
▁4000 100
▁Lock 100
▁Tham 100
ສະເຫນີ 100
ແມ່ຍິງ 100
▁xuyên 100
▁ບັນຊີ 100
ະລັອດຕິງ 100
ຶກອົບຮົມ 100
▁Unthank 100
ຜ່າສູນກາງ 100
▁ຂຽນເມື່ອສຸດ 100
MD 100
ME 100
fr 100
ls 100
va 100
yr 100
ùa 100
ປາ 100
ືມ 100
ẳn 100
-05 100
="5 100
ont 100
sss 100
umb 100
ວັດ 100
▁Cô 100
▁Jo 100
▁Ru 100
▁ma 100
▁Âu 100
view 100
ດ້ານ 100
▁230 100
▁All 100
▁Ang 100
▁Giờ 100
▁Out 100
▁Shi 100
▁lăn 100
▁pin 100
▁thô 100
▁ຄິດ 100
▁ວຽກ 100
▁ໄມ້ 100
28113 100
aster 100
▁2009 100
▁6000 100
▁CNIL 100
▁Coil 100
▁Kiểm 100
▁Luật 100
▁kiên 100
▁thái 100
▁Định 100
ອັບເດດ 100
▁Lượng 100
▁Ngoài 100
▁ສີດໍາ 100
▁Golden 100
▁1528113 100
An 100
GO 100
HS 100
HZ 100
MO 100
MT 100
ຢາ 100
ໂພ 100
ION 100
ier 100
jia 100
ướm 100
ຕະລ 100
ທັງ 100
ທົນ 100
ໍເຕີ 100
▁101 100
▁Bas 100
▁FSX 100
▁Hộp 100
▁San 100
▁Sex 100
▁Sur 100
▁đảo 100
▁ພາຍ 100
▁ພິມ 100
edust 100
ບໍ່ມີ 100
▁Song 100
▁Tiến 100
▁Vacc 100
▁Vàng 100
▁chấm 100
▁xuân 100
▁ຄົ້ນ 100
▁ບ້ານ 100
▁ໂລຫະ 100
▁Alumin 100
▁Blythe 100
BC 100
ds 100
ແຈ 100
ốp 100
ụy 100
-60 100
.20 100
ACK 100
nes 100
ຄັນ 100
ຄຸນ 100
ຄົວ 100
ພາກ 100
▁66 100
▁Áo 100
▁ແປ 100
.2.1 100
assp 100
eter 100
vent 100
▁bốn 100
▁cửu 100
▁sắt 100
▁đếm 100
sssss 100
ຮັກສາ 100
▁Sinh 100
▁Them 100
▁phấn 100
▁than 100
▁Dubai 100
▁thiểu 100
▁ສີຂາວ 100
▁Darius 100
▁Oxford 100
▁ໂຄງການ 100
▁Ukraine 100
▁ກົດຫມາຍ 100
▁Bohemian 100
▁ເວັບໄຊທ໌ 100
Blockchain 100
▁Dariussssss 100
BR 100
WS 100
oi 100
su 100
ຶນ 100
-16 100
-21 100
.08 100
Air 100
fly 100
ift 100
itt 100
mer 100
ora 100
ຖົງ 100
ລວມ 100
ເອງ 100
ໍລະ 100
▁DN 100
▁Ly 100
▁MP 100
▁xi 100
▁ມະ 100
iano 100
rick 100
▁Ghế 100
▁Khả 100
▁SKU 100
▁can 100
▁dứt 100
▁hứa 100
▁mod 100
▁ມູນ 100
▁ວາວ 100
▁ສັດ 100
ປະກັນ 100
ັບປຸງ 100
▁Aria 100
▁Mesh 100
▁bông 100
▁chụp 100
▁ຕັ້ງ 100
▁ມິຕິ 100
ສູງສຸດ 100
້ອນຮັບ 100
▁chóng 100
▁ດົນຕີ 100
ພັດທະນາ 100
ສັງເຄາະ 100
▁ສູງສຸດ 100
alloween 100
▁Fitting 100
▁Manager 100
▁Vaccine 100
ສໍາລັບການ 100
gs 100
າະ 100
ເຟ 100
ໄທ 100
-40 100
400 100
="3 100
anc 100
box 100
cel 100
emo 100
lam 100
▁PA 100
▁Wh 100
▁tố 100
reak 100
ແຜ່ນ 100
▁(25 100
▁(35 100
▁Koo 100
▁Đặc 100
▁ຖືກ 100
▁ປະສ 100
ລິມານ 100
ເບິ່ງ 100
▁Cung 100
▁Nghệ 100
▁Nguy 100
▁Tính 100
▁bướm 100
▁cười 100
▁gánh 100
▁việt 100
▁xách 100
outube 100
zhuang 100
▁Giêng 100
▁motor 100
▁ເສື້ອ 100
5) 100
5, 100
MM 100
ặn 100
ớp 100
110 100
ada 100
ali 100
oop 100
ຄອນ 100
ຍາດ 100
▁99 100
▁Bi 100
▁Kn 100
▁PL 100
▁VÀ 100
▁cà 100
▁cư 100
▁ແຕ 100
inch 100
ings 100
tern 100
ອີເມ 100
ະສານ 100
▁Báo 100
▁Bây 100
▁Oct 100
▁Rod 100
▁Thủ 100
▁chứ 100
▁pha 100
▁đào 100
▁đùn 100
▁ຖ້າ 100
▁ວົງ 100
▁ອິນ 100
glass 100
ipper 100
light 100
ufact 100
ໃນການ 100
▁Card 100
▁Vill 100
▁cuốn 100
▁lưới 100
▁ບ່ອນ 100
▁Chẳng 100
▁Triển 100
▁lương 100
▁ຊີວິດ 100
assport 100
ໂມເລກຸນ 100
▁wooden 100
ຝຶກອົບຮົມ 100
▁Standard 100
▁wordpress 100
▁ຄວາມກວ້າງ 100
▁ສະຫງວນລິຂະສິດ 100
54 100
Kh 100
QL 100
XL 100
ốm 100
-02 100
USD 100
ana 100
erm 100
ged 100
ike 100
nam 100
ots 100
ເສຍ 100
ໂຫຍ 100
▁Li 100
▁XL 100
▁lồ 100
cker 100
irus 100
▁(2, 100
▁Bow 100
▁Chi 100
▁Glo 100
▁Roo 100
▁Sim 100
▁Vào 100
▁cặp 100
▁gắn 100
▁đòi 100
▁ມົມ 100
▁ສຽງ 100
ember 100
ength 100
▁Lượt 100
▁Sand 100
▁cháy 100
▁hùng 100
▁nông 100
▁ຂັ້ນ 100
▁ເຂົາ 100
erator 100
etooth 100
▁hoang 100
▁Chrome 100
▁Markets 100
▁ລະຫັດການ 100
▁Downloader 100
▁ຄວາມອາດສາມາດ 100
▁ເສັ້ນຜ່າສູນກາງ 100
.) 100
0% 100
PH 100
ẫm 100
ộc 100
999 100
her 100
hua 100
ole 100
ທຸກ 100
ນາມ 100
ຫົວ 100
ເຫຼ 100
່ໍາ 100
▁46 100
▁Is 100
▁Ji 100
▁MH 100
▁en 100
▁nọ 100
Sets 100
alls 100
yang 100
ະສົມ 100
▁170 100
▁Bay 100
▁Bảy 100
▁Chu 100
▁Dep 100
▁Học 100
▁Rel 100
▁bào 100
▁bác 100
▁bền 100
▁kêu 100
▁sol 100
▁đợi 100
▁ທັງ 100
▁ຢ່າ 100
▁ແມ່ 100
otton 100
▁(201 100
▁Plus 100
▁Quan 100
▁Trên 100
▁châu 100
▁tĩnh 100
andong 100
▁thuận 100
▁thùng 100
ຕ້ອນຮັບ 100
ຫຼ້າສຸດ 100
ັດຈຸບັນ 100
▁Square 100
ເວັບໄຊທ໌ 100
▁Koowheel 100
na 100
sc 100
ນິ 100
-03 100
aha 100
cer 100
way 100
ທຶນ 100
ື້ມ 100
ແທ້ 100
ແນວ 100
▁Gl 100
▁TI 100
▁un 100
ates 100
imit 100
ixel 100
izer 100
jack 100
ຂ່າຍ 100
ແຫ່ງ 100
▁(0) 100
▁140 100
▁27, 100
▁Val 100
▁cơn 100
▁cậy 100
▁dev 100
▁hài 100
/2017 100
eless 100
ປະກອບ 100
▁Hành 100
▁Mold 100
▁diệu 100
▁vinh 100
▁vượt 100
▁ຢ່າງ 100
▁ຫນັງ 100
▁Cloud 100
▁crate 100
▁ເພື່ອ 100
▁Router 100
▁chuyến 100
utterfly 100
▁ພື້ນທີ່ 100
ດີຕ້ອນຮັບ 100
▁Aluminum 100
ການເຮັດວຽກ 100
59 100
?” 100
Nh 100
2.1 100
han 100
ify 100
ເຊີ 100
▁Cu 100
9001 100
aper 100
oney 100
osit 100
yuan 100
▁-10 100
▁700 100
▁Bul 100
▁Cầu 100
▁PRO 100
▁Rep 100
▁Tem 100
▁bại 100
▁khô 100
▁lục 100
▁mấy 100
▁tan 100
▁tấn 100
▁đĩa 100
▁ແຜນ 100
cover 100
ຕະລາງ 100
ລະຫັດ 100
▁Foam 100
▁Full 100
▁Last 100
▁Minh 100
▁Prot 100
▁cháu 100
▁khối 100
▁nhẫn 100
▁tiêm 100
▁ເອົາ 100
▁ໄລຍະ 100
ສະຫມັກ 100
ຮູບແບບ 100
▁thang 100
▁ອາຫານ 100
otropin 100
ufactur 100
ອອນໄລນ໌ 100
▁Length 100
▁ຂ້າພະເຈົ້າ 100
": 100
IV 100
xi 100
ya 100
ໃບ 100
-18 100
-50 100
bit 100
ola 100
ume 100
ງົາ 100
ພິວ 100
ໂລກ 100
ụng 100
▁52 100
▁6. 100
▁CB 100
▁PN 100
▁TT 100
▁ak 100
▁đu 100
9.00 100
amic 100
orts 100
ຫຍາຍ 100
▁315 100
▁Aug 100
▁DIN 100
▁Ink 100
▁TGG 100
▁car 100
▁hảo 100
▁tòa 100
▁ອິດ 100
ature 100
ຽດນາມ 100
▁(3,5 100
▁Extr 100
▁ngạc 100
▁ຊິ້ນ 100
▁Giáng 100
▁phẳng 100
▁trượt 100
▁ກະທູ້ 100
▁Dedust 100
▁Guitar 100
▁tattoo 100
▁ເລື່ອງ 100
.05.2018 100
▁ສະຖານທີ່ 100
▁ສູດໂມເລກຸນ 100
▁ສໍາລັບຜູ້ຊາຍ 100
ky 100
ld 100
-90 100
ara 100
des 100
eck 100
ượu 100
ສຸກ 100
ເຫລ 100
▁+1 100
▁DS 100
▁MA 100
▁ly 100
▁Ôn 100
▁ẩn 100
aric 100
pera 100
ປ້ອງ 100
ສບຸກ 100
ຫລັບ 100
ໂຫຍດ 100
▁135 100
▁Dig 100
▁Jin 100
▁Log 100
▁Lúc 100
▁Nga 100
▁Pos 100
▁Sun 100
▁Wir 100
▁góc 100
▁kém 100
▁đột 100
allet 100
lugin 100
ອາຫານ 100
ແກ້ໄຂ 100
▁Cage 100
▁Flex 100
▁Java 100
▁View 100
▁thậm 100
▁visa 100
▁Động 100
Casino 100
ທົ່ວໄປ 100
ັ່ນຕອງ 100
▁ທໍາມະ 100
ິດທິພາບ 100
ໃຊ້ເວລາ 100
▁Carbon 100
atalogue 100
▁Univers 100
▁ບໍລິການ 100
▁Shandong 100
▁ເສັ້ນໃຍສັງເຄາະ 100
UN 100
__ 100
yu 100
ນີ 100
ບນ 100
ໂປ 100
ỏa 100
▁້ 100
-04 100
-19 100
ema 100
ບຽນ 100
ລູກ 100
ໃສ່ 100
▁72 100
▁92 100
▁Ab 100
▁HB 100
▁RH 100
▁WE 100
ພາສີ 100
ຫວັດ 100
▁DVD 100
▁Est 100
▁Mos 100
▁Neo 100
▁ODM 100
▁Sao 100
ensor 100
ໃນຕອນ 100
ໍາລັງ 100
▁1800 100
▁Karn 100
▁Work 100
▁vườn 100
lamode 100
▁Huafu 100
▁Pulse 100
▁dưỡng 100
▁phiếu 100
▁đương 100
▁Pocket 100
▁ເດືອນກ 100
▁ສະລັອດຕິງ 100
▁ສໍາລັບການ 100
▁Misslamode 100
▁ການປ່ຽນແປງ 100
58 100
Un 100
aj 100
ek 100
kW 100
èm 100
.09 100
220 100
orr 100
osm 100
rid 100
ura 100
uri 100
ພັກ 100
ພາຍ 100
ພີມ 100
ແຂງ 100
▁41 100
▁56 100
▁AL 100
▁Ai 100
▁GW 100
▁hò 100
amin 100
inyl 100
ອດໄພ 100
ະພາບ 100
▁0.3 100
▁1.6 100
▁316 100
▁Cup 100
▁Imp 100
▁Sub 100
▁Tòa 100
▁ກວດ 100
▁ຂອບ 100
▁ບົບ 100
▁ສົນ 100
▁ອັດ 100
amaha 100
proof 100
ຂອບໃຈ 100
ພີມມາ 100
▁Chia 100
▁Khóa 100
▁Snap 100
▁chứa 100
▁trại 100
▁ດ້ວຍ 100
▁Trắng 100
▁chàng 100
▁hương 100
▁kháng 100
▁thoát 100
ໃຊ້ຈ່າຍ 100
▁System 100
▁phượng 100
ຜູ້ຜະລິດ 100
▁YouTube 100
ufacturer 100
▁Converter 100
7. 100
PA 100
ys 100
ìa 100
ຄະ 100
’. 100
-07 100
ata 100
ost 100
sch 100
shi 100
sul 100
ກາຍ 100
ັອກ 100
ິລາ 100
▁'' 100
▁(6 100
▁59 100
▁At 100
▁BL 100
▁Dù 100
▁Go 100
▁Mở 100
▁RO 100
▁bề 100
▁bổ 100
▁lò 100
▁ໂປ 100
feng 100
ປ່ຽນ 100
ເພາະ 100
ໂນໂລ 100
▁Act 100
▁Cal 100
▁Lao 100
▁Lào 100
▁Nov 100
▁One 100
▁Per 100
▁cậu 100
▁hẳn 100
▁mạc 100
▁não 100
▁nút 100
▁rối 100
▁sạc 100
▁ຕິດ 100
▁ປັບ 100
ights 100
veyor 100
ville 100
ທະບຽນ 100
▁Amaz 100
▁Chọn 100
▁Coin 100
▁High 100
▁NEMA 100
▁hack 100
▁nhắn 100
▁trần 100
▁đuổi 100
▁Epson 100
▁Jiang 100
▁chiên 100
▁ngang 100
▁quảng 100
▁ຄູ່ມື 100
▁Driver 100
▁Karnar 100
▁giường 100
▁thuyết 100
▁thượng 100
interest 100
▁2006-2020 100
▁Bluetooth 100
▁Fiberglass 100
mA 100
ນູ 100
ບໍ 100
ແອ 100
180 100
24. 100
350 100
4,5 100
TFE 100
ຂຽນ 100
ຊານ 100
ສອງ 100
▁54 100
▁BI 100
▁MO 100
▁MS 100
▁Tô 100
▁iP 100
▁sw 100
▁ảo 100
▁ủi 100
1000 100
auda 100
dele 100
unct 100
xury 100
ເງົາ 100
ເວັນ 100
▁ATV 100
▁Bất 100
▁Gir 100
▁Hay 100
▁Heb 100
▁Mel 100
▁Pip 100
▁Tân 100
▁hầu 100
▁rào 100
▁sơn 100
aming 100
▁Bill 100
▁Thăm 100
▁khóc 100
▁sánh 100
▁trúc 100
▁ປະຕູ 100
▁ຫນັກ 100
ຈໍານວນ 100
▁Opera 100
▁Phone 100
▁Touch 100
▁cường 100
ຂົນສົ່ງ 100
▁spring 100
▁ແນະນໍາ 100
ພາບອາກາດ 100
▁Products 100
▁ຈັດພີມມາ 100
▁ການເດີນທາງ 100
▁ຍິນດີຕ້ອນຮັບ 100
FF 100
Qu 100
TA 100
ẤT 100
101 100
ORD 100
Pie 100
ebo 100
key 100
ody 100
ãnh 100
▁#5 100
▁98 100
▁NG 100
▁PS 100
▁Tổ 100
▁Ví 100
burg 100
ible 100
outh 100
ທ້າຍ 100
ເຢັນ 100
▁0.6 100
▁Ber 100
▁Int 100
▁Rad 100
▁TPU 100
▁lắp 100
▁mòn 100
▁mực 100
▁nhị 100
▁sân 100
▁Đếm 100
▁Đội 100
▁đúc 100
▁đầm 100
▁đớn 100
▁ວັດ 100
ສະຫນາ 100
ອບຄົວ 100
ອມພິວ 100
ເມືອງ 100
ເລີ່ມ 100
▁5000 100
▁Fire 100
▁Idea 100
▁Kiểu 100
▁Vang 100
▁bang 100
▁chăn 100
▁căng 100
▁lượt 100
▁trọn 100
▁ຂຶ້ນ 100
▁ລ້ານ 100
imited 100
ແຕນເລດ 100
▁Giant 100
▁khiết 100
ປະກັນໄພ 100
▁Yamaha 100
▁ການອອກແບບ 100
,0 100
93 100
CM 100
GE 100
km 100
ໂຕ 100
-85 100
ONG 100
UMX 100
inc 100
ney 100
pal 100
wei 100
ທົວ 100
ພຣະ 100
ອະນ 100
▁!! 100
▁-- 100
▁CC 100
▁Er 100
▁ẩm 100
ania 100
ence 100
etch 100
iger 100
long 100
orth 100
ສະນາ 100
ເຖິງ 100
▁And 100
▁CAS 100
▁Dãy 100
▁Gal 100
▁Hôm 100
▁Saf 100
▁Tốt 100
▁Ult 100
▁Xây 100
▁gốm 100
▁hắn 100
▁lót 100
▁pre 100
▁tia 100
▁Đào 100
▁đón 100
▁đạp 100
▁ຖາມ 100
▁ປົກ 100
alvan 100
ປະຊຸມ 100
ົບການ 100
ແນວໃດ 100
▁Sách 100
▁lược 100
▁thận 100
▁thịt 100
▁trôi 100
▁Đang 100
▁ກ່ຽວ 100
▁ຫມວດ 100
▁Sheet 100
▁ເມື່ອ 100
oppingd 100
▁Direct 100
▁Phương 100
▁Tablet 100
▁ປະລິມານ 100
▁Blackjack 100
▁ຄວາມກົດດັນ 100
oppingdirect 100
▁ລະຫັດບໍລິສັດ 100
DS 100
II 100
ms 100
ÔI 100
ũi 100
ຖະ 100
ໄກ 100
ean 100
mon 100
ors 100
ros 100
ນັບ 100
ຣິດ 100
ັ້ມ 100
ໃຕ້ 100
▁53 100
▁LC 100
▁re 100
▁ຊມ 100
acth 100
ober 100
ross 100
ປະຕູ 100
ເປີດ 100
▁0,5 100
▁105 100
▁360 100
▁Gre 100
▁Hơn 100
▁Lad 100
▁May 100
▁Mặt 100
▁Nói 100
▁Pen 100
▁Pol 100
▁Pox 100
▁Tan 100
▁bật 100
▁hấp 100
▁tán 100
ຊອບແວ 100
ບັນຊີ 100
ົດສອບ 100
▁Bang 100
▁Hiện 100
▁Lịch 100
▁PTFE 100
▁Phil 100
▁Tail 100
▁chảy 100
▁quen 100
▁tiểu 100
▁trao 100
▁tròn 100
▁Đấng 100
▁ຊ່ວຍ 100
▁Board 100
▁Model 100
▁khoác 100
▁ອີເມວ 100
ansposh 100
▁Center 100
▁Crypto 100
▁exacth 100
▁nhường 100
▁ເຟສບຸກ 100
ໄວ້ໃນຕອນ 100
▁Charter 100
▁ການອ່ານ 100
▁exacthacks 100
▁ງວນລິຂະສິດ 100
ໄວ້ໃນຕອນຕົ້ນ 100
MK 100
RC 100
UD 100
go 100
kh 100
ùy 100
bet 100
ser 100
ງາມ 100
ຕິກ 100
ປັບ 100
”.— 100
▁57 100
▁76 100
▁:: 100
▁As 100
▁Là 100
▁OS 100
▁ເນ 100
ince 100
▁Ass 100
▁Bai 100
▁Day 100
▁Fre 100
▁sàn 100
▁ຖານ 100
▁ພັນ 100
▁ສັນ 100
▁ແທ້ 100
store 100
ັງກິດ 100
▁Cook 100
▁Diện 100
▁Ngân 100
▁Prof 100
▁Tầng 100
▁beta 100
▁cổng 100
▁jack 100
▁ຫນາດ 100
rument 100
ຂອງການ 100
ັກໂນໂລ 100
ແນະນໍາ 100
ແປພາສາ 100
▁Hebei 100
▁Train 100
▁nhiêu 100
▁ຖົງມື 100
▁ເລີ່ມ 100
ສໍາເລັດ 100
▁guitar 100
▁ໄດ້ຮັບ 100
ທາງເລືອກ 100
ປັດຈຸບັນ 100
▁ຄວາມຍາວ 100
ຂ້າພະເຈົ້າ 100
▁Industrial 100
▁shoppingdirect 100
/4 100
?? 100
KT 100
PN 100
cb 100
gh 100
/11 100
10, 100
120 100
769 100
aki 100
iff 100
its 100
oul 100
ray 100
set 100
ກວດ 100
ອາຍ 100
ິ່ນ 100
ແພດ 100
▁#6 100
▁07 100
▁DM 100
▁Gỗ 100
▁Sl 100
▁UN 100
▁Xử 100
▁hề 100
▁ໃສ 100
---- 100
2020 100
NUMX 100
luor 100
ness 100
ລາຄາ 100
ຮ່າງ 100
ັດໄປ 100
ເນີນ 100
▁1,5 100
▁LCD 100
▁SMS 100
▁cai 100
▁thí 100
▁vat 100
▁Đèn 100
▁đem 100
▁ຕາມ 100
▁ແຫຼ 100
-2017 100
ປອດໄພ 100
ເລກທີ 100
▁Anti 100
▁King 100
▁Vòng 100
▁giai 100
▁quên 100
▁tour 100
▁trăm 100
▁tặng 100
▁ການຊ 100
tainer 100
ulator 100
ໍາເນີນ 100
▁..... 100
▁Khuôn 100
▁khổng 100
▁Amazon 100
▁Cooler 100
▁Cutter 100
▁scooter 100
▁modified 100
▁Pinterest 100
▁polyester 100
▁Instrument 100
▁ການປະຕິບັດ 100
▁ລະຫັດການປະກັນໄພ 100
97 100
AP 100
ps 100
rd 100
ÁC 100
.12 100
.50 100
IFI 100
Tất 100
alt 100
ướt 100
ກົງ 100
ປະສ 100
ແຮມ 100
ໍ້າ 100
▁Dĩ 100
▁It 100
▁oz 100
▁ĐI 100
chia 100
ials 100
xBet 100
ຊັ້ນ 100
ຮ້ອງ 100
▁8.2 100
▁Apr 100
▁Fin 100
▁Gửi 100
▁Kẹo 100
▁Mẹo 100
▁Sàn 100
▁app 100
▁cát 100
▁dần 100
▁dậy 100
▁oxy 100
▁soi 100
▁trừ 100
▁tộc 100
▁uốn 100
▁ກົນ 100
▁ງານ 100
▁ຢາກ 100
▁ສວນ 100
▁ສອງ 100
▁ủng 100
eting 100
night 100
phone 100
ຫຼິ້ນ 100
ອາທິດ 100
ເຄືອບ 100
▁Conn 100
▁Drif 100
▁Flor 100
▁Năng 100
▁Phải 100
▁lãng 100
▁miền 100
▁nhảy 100
▁thai 100
▁tràn 100
▁tông 100
▁điển 100
▁Apple 100
▁Chiến 100
▁Water 100
▁ບັນຫາ 100
eyelash 100
▁Minnes 100
ການຜະລິດ 100
▁ນີ້ແມ່ນ 100
ຫາພວກເຮົາ 100
ແລະແມ່ຍິງ 100
▁University 100
▁ການບໍລິການ 100
▁ການຢັ້ງຢືນ 100
▁ສະບັບເລກທີ 100
▁ທີ່ດີທີ່ສຸດ 100
EW 100
HD 100
LP 100
ca 100
vi 100
wu 100
ໄສ 100
ớm 100
▁! 100
-22 100
.01 100
105 100
380 100
MPa 100
omb 100
url 100
ຜິດ 100
ພາດ 100
ສູ່ 100
ຫຼດ 100
າລະ 100
▁61 100
▁67 100
▁SF 100
▁UK 100
▁lề 100
▁mơ 100
▁ໂຄ 100
2005 100
ages 100
guan 100
jian 100
uity 100
ສະນະ 100
ເສີມ 100
▁FAQ 100
▁Geo 100
▁Màn 100
▁Sec 100
▁Sil 100
▁bầu 100
▁cnc 100
▁cất 100
▁khá 100
▁tám 100
▁yên 100
▁đai 100
▁ກາງ 100
▁ລັດ 100
▁ລໍ້ 100
ement 100
leton 100
▁Bear 100
▁Feng 100
▁Hiệu 100
▁Khoa 100
▁Serv 100
▁củng 100
▁ngập 100
covery 100
ຍີ່ຫໍ້ 100
ຕົວແບບ 100
▁Beach 100
▁Khung 100
▁Skype 100
▁©2005 100
▁ເຄືອບ 100
▁ແຫຼ່ງ 100
▁Fruity 100
▁Luxury 100
ຄວາມຮ້ອນ 100
ນ້ໍາຫນັກ 100
▁Drifter 100
▁ການແປພາສາ 100
▁ລະຫັດພາສີ 100
▁ຄ່າໃຊ້ຈ່າຍ 100
UB 100
nm 100
yi 100
ອະ 100
.07 100
.15 100
get 100
ife 100
rom 100
ນັກ 100
ບ່ງ 100
ລັກ 100
ວາງ 100
ຫຼື 100
▁Od 100
▁SO 100
▁Sa 100
▁im 100
▁vu 100
▁đỏ 100
▁ບາ 100
▁ໂອ 100
-800 100
ific 100
ixer 100
▁190 100
▁650 100
▁AAS 100
▁Ext 100
▁Inf 100
▁Nha 100
▁Reg 100
▁SGS 100
▁TÔI 100
▁Tín 100
▁bơi 100
▁máu 100
▁nản 100
▁nắm 100
▁ຕູ້ 100
▁ລວມ 100
▁ສຸກ 100
▁ເພດ 100
indle 100
osmos 100
▁Hang 100
▁Ling 100
▁Nick 100
▁Phục 100
▁Test 100
▁lĩnh 100
▁rượu 100
▁ດັ່ງ 100
▁ເມນູ 100
eramic 100
▁Contr 100
▁Hotel 100
▁Paris 100
▁Range 100
▁Trình 100
▁chuỗi 100
▁AASraw 100
▁Player 100
▁ປະຫວັດ 100
▁ລາງວັນ 100
▁ຕົວຢ່າງ 100
▁ນະໂຍບາຍ 100
▁ໂມເລກຸນ 100
▁ເດັກນ້ອຍ 100
▁Minnesota 100
▁©2005-2018 100
OO 100
do 100
we 100
ມມ 100
.95 100
1.5 100
:86 100
als 100
ily 100
que 100
ຕູນ 100
ສັນ 100
ເດຍ 100
ໂມງ 100
▁68 100
▁Ge 100
▁HÀ 100
▁Ir 100
▁TM 100
▁Xi 100
▁bi 100
Chat 100
erry 100
ians 100
orld 100
ston 100
vers 100
ູມິນ 100
▁1.1 100
▁123 100
▁Cài 100
▁Còn 100
▁Cần 100
▁Mus 100
▁THƯ 100
▁bùn 100
▁rút 100
▁the 100
▁you 100
▁ກັດ 100
▁ຍົກ 100
▁ຕອນ 100
▁ນິດ 100
▁ສິດ 100
-2019 100
ailer 100
fiber 100
icker 100
▁Băng 100
▁Cont 100
▁Giảm 100
▁Hoàn 100
▁Mang 100
▁biên 100
▁hồng 100
▁iPad 100
▁mạch 100
▁ຮ້ອນ 100
ກໍານົດ 100
ຄວບຄຸມ 100
ຕະຫຼາດ 100
ໂຄສະນາ 100
▁Flash 100
▁Panel 100
▁Piece 100
▁Quyền 100
▁South 100
▁Under 100
▁xướng 100
▁ເຫຼັກ 100
ກັ່ນຕອງ 100
ອຸປະກອນ 100
▁Armati 100
▁Paypal 100
▁Rotary 100
▁Shijia 100
▁ຕິດຕາມ 100
▁ບັນທຶກ 100
▁Deposit 100
▁Digital 100
▁ຂໍຂອບໃຈ 100
▁ຕິດຕັ້ງ 100
▁Compress 100
▁Silicone 100
▁ເວົ້າວ່າ 100
ພາບອາກາດໃນ 100
▁Genotropin 100
▁Manufacturer 100
▁Shijiazhuang 100
)) 100
52 100
CB 100
la 100
ts 100
ຶງ 100
aft 100
bus 100
ຍານ 100
ຖີ່ 100
ບານ 100
ລັດ 100
ຮອງ 100
ີ່ປ 100
▁47 100
▁AI 100
▁EX 100
▁FL 100
▁SN 100
▁rẻ 100
▁ວາ 100
▁ổn 100
aner 100
stan 100
ther 100
ກວ່າ 100
ຄຣິດ 100
ຄົ້ນ 100
ທ່ຽວ 100
▁0.8 100
▁10% 100
▁108 100
▁2.2 100
▁320 100
▁Bal 100
▁CHO 100
▁Gói 100
▁Mật 100
▁Not 100
▁bão 100
▁lối 100
▁lừa 100
▁rời 100
▁tóc 100
▁tật 100
▁tồn 100
▁vít 100
▁vết 100
▁Độc 100
▁ຂ້າ 100
▁ລໍາ 100
▁ເຫດ 100
ender 100
ສະບັບ 100
▁Brow 100
▁Cart 100
▁Khối 100
▁Open 100
▁Trái 100
▁Tăng 100
▁hạng 100
▁ngẫm 100
▁ngọn 100
▁ສິ້ນ 100
▁Brush 100
▁Clear 100
▁Phiên 100
▁Tương 100
▁dương 100
ເຮັດໃຫ້ 100
▁Chuyến 100
▁cookies 100
ເຊື່ອມຕໍ່ 100
▁86-574-8 100
▁Conveyor 100
ອັດຕະໂນມັດ 100
▁ທີ່ໃຊ້ເວລາ 100
▁Refinecolor 100
FS 100
Gi 100
IB 100
Ng 100
ສື 100
-06 100
.35 100
160 100
IES 100
PDF 100
elf 100
elo 100
gan 100
ibo 100
ico 100
une 100
ຄອງ 100
ຄູ່ 100
ຄົມ 100
ຕົກ 100
ລົມ 100
▁2) 100
▁CT 100
▁NY 100
▁TV 100
▁Vo 100
▁bí 100
▁bó 100
▁cs 100
▁et 100
▁ຕິ 100
▁ໍາ 100
▁ấm 100
2019 100
ຕ່ໍາ 100
▁2.6 100
▁4.5 100
▁Acc 100
▁EVA 100
▁Non 100
▁Sem 100
▁USA 100
▁khử 100
▁mây 100
▁phó 100
▁rơi 100
▁sốt 100
▁sớm 100
▁tổn 100
▁ຄວນ 100
▁ຊາຍ 100
▁ພັກ 100
▁ເພງ 100
▁0.15 100
▁0.86 100
▁1600 100
▁Cộng 100
▁Head 100
▁Hoạt 100
▁Kitô 100
▁Matt 100
▁Mạng 100
▁Nhựa 100
▁Pick 100
▁Thưa 100
▁khám 100
▁ngại 100
▁thác 100
▁trắc 100
▁Chick 100
▁Poker 100
▁tướng 100
▁ຖັດໄປ 100
▁cosmos 100
▁ຄົ້ນຫາ 100
.06.2018 100
▁ສໍາເລັດ 100
Catalogue 100
alvanized 100
ຕັ້ງແຕ່ປີ 100
▁Wireless 100
▁ຄຸນນະພາບ 100
ຂອງພວກເຮົາ 100
▁halloween 100
▁Compressor 100
ນັບຕັ້ງແຕ່ປີ 100
OV 100
TT 100
df 100
gy 100
ka 100
-14 100
-17 100
860 100
ANG 100
COM 100
Pal 100
ael 100
ຂັບ 100
ຣົບ 100
ແທນ 100
▁7. 100
▁88 100
▁ER 100
▁HS 100
▁RE 100
▁SU 100
▁Vũ 100
▁bò 100
▁Âm 100
form 100
mmer 100
tian 100
ແຈ້ງ 100
ໄລຍະ 100
▁280 100
▁30% 100
▁4.3 100
▁7.4 100
▁GPS 100
▁bút 100
▁cán 100
▁lan 100
▁nửa 100
▁pvc 100
▁tái 100
▁ຈັນ 100
▁ລັກ 100
ments 100
usion 100
ຽງແຕ່ 100
▁1.0% 100
▁1300 100
▁Chem 100
▁Hoặc 100
▁News 100
▁Nhôm 100
▁Rand 100
▁Thụy 100
▁hoan 100
▁khẩn 100
▁Điểm 100
▁ຕ່າງ 100
▁ອື່ນ 100
ຮູບພາບ 100
ູມິນຽມ 100
▁Cauda 100
▁Grill 100
▁Linux 100
▁miếng 100
▁nhánh 100
▁PayPal 100
▁Posted 100
▁nghịch 100
▁Casting 100
▁ສິ່ງທີ່ 100
▁Electric 100
▁ຄວາມຫມາຍ 100
▁ເຄື່ອງພິມ 100
▁ຈໍານວນຕົວແບບ 100
Cl 100
RL 100
RS 100
gi 100
iC 100
ji 100
ບດ 100
ậc 100
00€ 100
INE 100
axy 100
bed 100
cks 100
ler 100
ope 100
ຊີບ 100
ຍາຍ 100
ນິກ 100
▁69 100
▁78 100
▁DJ 100
▁EA 100
▁OD 100
▁ap 100
▁cỡ 100
▁ga 100
▁kê 100
▁lẻ 100
▁Đồ 100
ends 100
gram 100
tery 100
ບນັດ 100
▁(13 100
▁210 100
▁AST 100
▁Cre 100
▁Cấu 100
▁McK 100
▁Scr 100
▁Ter 100
▁Upd 100
▁ser 100
▁tim 100
▁ປິດ 100
▁ຮຽນ 100
entai 100
oster 100
urity 100
ທິບາຍ 100
▁2500 100
▁Bước 100
▁Deut 100
▁HDPE 100
▁Jing 100
▁Phạm 100
▁Teen 100
▁Tháp 100
▁chim 100
▁giày 100
▁khảo 100
▁phức 100
▁sung 100
▁ໃຫຍ່ 100
arinet 100
ລົງທຶນ 100
▁Media 100
▁Varic 100
▁Width 100
▁ngành 100
▁ngược 100
່ອງທ່ຽວ 100
▁Studio 100
▁online 100
▁ຮູ້ສຶກ 100
▁October 100
▁ຕາຕະລາງ 100
▁McKnight 100
▁solenoid 100
▁Changzhou 100
▁Generator 100
▁Varicella 100
); 100
57 100
AW 100
On 100
ih 100
nd 100
ía 100
ệm 100
KGS 100
UST 100
eal 100
hab 100
iki 100
lon 100
off 100
par 100
yan 100
ຊົມ 100
ດິນ 100
ີໂທ 100
ົ່ມ 100
່ຽງ 100
▁49 100
▁DI 100
▁Da 100
▁Kỹ 100
▁ms 100
▁nợ 100
▁px 100
▁★★ 100
84.2 100
itor 100
oint 100
site 100
urga 100
ຄະເນ 100
▁(30 100
▁145 100
▁225 100
▁Bat 100
▁Bắt 100
▁Cắt 100
▁Dec 100
▁Det 100
▁Ele 100
▁Equ 100
▁Hàn 100
▁Rec 100
▁chở 100
▁lắm 100
▁lặp 100
▁mac 100
▁nho 100
▁vòi 100
▁đấy 100
▁ກອນ 100
▁ພໍ່ 100
ERIES 100
ຢູ່ໃນ 100
ເຂັ້ມ 100
▁2008 100
▁Cert 100
▁Doll 100
▁Game 100
▁Shot 100
▁Show 100
▁Viet 100
▁mini 100
▁mệnh 100
▁thảm 100
ຕິດຕາມ 100
າດຄະເນ 100
ີ່ປຸ່ນ 100
ເຄື່ອນ 100
ໂຄງການ 100
▁3.2.1 100
▁Saint 100
▁chuộc 100
▁huyện 100
▁khoan 100
▁ເຮືອນ 100
,000.00 100
▁Cotton 100
▁Nguyen 100
▁nghiền 100
▁ການປົກ 100
▁ລາຍຊື່ 100
▁Chicken 100
▁ຂັ້ນຕອນ 100
▁ຄໍາສັ່ງ 100
▁ເງິນຝາກ 100
▁ກອງປະຊຸມ 100
▁ສະແຕນເລດ 100
▁ສ້າງຕັ້ງ 100
▁Butterfly 100
ສະຫນັບສະຫນູນ 100
DC 100
Nm 100
TM 100
bu 100
fg 100
tn 100
ຣກ 100
ີຊ 100
ເຜ 100
ớt 100
-08 100
-09 100
.40 100
/12 100
4"> 100
IVE 100
add 100
ele 100
ere 100
etr 100
ida 100
mmx 100
ran 100
urn 100
ສະຫ 100
ສາກ 100
ົ້ມ 100
▁3) 100
▁NW 100
▁Wi 100
▁hạ 100
▁pe 100
▁tủ 100
-311 100
aker 100
cean 100
ming 100
tion 100
unny 100
▁(12 100
▁(3, 100
▁188 100
▁5.5 100
▁Adv 100
▁CBD 100
▁Cnc 100
▁Die 100
▁Lợi 100
▁Rog 100
▁khe 100
▁vốn 100
▁ຄືນ 100
2.168 100
clone 100
ippie 100
iston 100
oress 100
ມໍເຕີ 100
▁ASTM 100
▁Bish 100
▁Call 100
▁Cord 100
▁Kies 100
▁Phúc 100
▁Taff 100
▁Vườn 100
▁Xuất 100
▁chín 100
▁loạn 100
▁mold 100
▁sông 100
▁tầng 100
ການຄ້າ 100
▁Excel 100
▁Metro 100
▁Strip 100
▁Theme 100
▁micro 100
▁ngừng 100
▁phóng 100
▁tuyết 100
▁ບັນຈຸ 100
ສະຫວ່າງ 100
▁Engine 100
▁Webcam 100
▁custom 100
▁nghiêm 100
▁plugin 100
▁ການຈັດ 100
.08.2018 100
ັກໂນໂລຊີ 100
▁3.2.160 100
▁Taffeta 100
▁ກັນນ້ໍາ 100
▁ປະເທດໄທ 100
ເພີ່ມເຕີມ 100
▁ການບັນຈຸ 100
▁Tailoress 100
▁ເພີ່ມເຕີມ 100
eyelashstore 100
▁ທີ່ຢູ່ເວັບໄຊທ໌ 100
56 100
:. 100
AI 100
gn 100
za 100
ấc 100
▁; 100
-13 100
.90 100
/10 100
TER 100
ags 100
car 100
led 100
ດູດ 100
ຫລ່ 100
▁(8 100
▁-1 100
▁Az 100
▁Ta 100
▁bl 100
▁br 100
▁sa 100
▁xả 100
anda 100
anta 100
illa 100
raft 100
điểm 100
ຂື້ນ 100
ລິກາ 100
ເກີດ 100
▁777 100
▁Emb 100
▁Hor 100
▁Lớp 100
▁Mil 100
▁Mới 100
▁Soc 100
▁Sợi 100
▁TKT 100
▁Vua 100
▁bar 100
▁già 100
▁kẹo 100
▁per 100
▁rửa 100
▁ຊອກ 100
▁ຍັງ 100
▁ລິດ 100
▁ຫລື 100
▁ອັນ 100
etter 100
ສະຖານ 100
ສົນໃຈ 100
ັກງານ 100
▁Cand 100
▁Cent 100
▁Nhóm 100
▁Phot 100
▁Ring 100
▁ngựa 100
▁nhạo 100
▁ຊ່ອງ 100
▁ຕື່ມ 100
▁ຕ່ໍາ 100
▁ໂຫລດ 100
Pieces 100
ເມລິກາ 100
▁Basel 100
▁Speed 100
▁chuột 100
▁nylon 100
▁xương 100
ຈໍາເພາະ 100
ວັດສະດຸ 100
▁Burner 100
▁Global 100
▁Office 100
▁2.6.4.1 100
▁Express 100
▁Village 100
▁ເຮັດໃຫ້ 100
▁ລາຍລະອຽດ 100
▁ປະຫວັດສາດ 100
▁Meyelashstore 100
▁ຄ່າໃຊ້ຈ່າຍທັງ 100
03 100
53 100
OG 100
PM 100
UY 100
oe 100
ze 100
▁★ 100
165 100
Mpa 100
day 100
vel 100
ຈອນ 100
ພວກ 100
ົາມ 100
▁87 100
▁ZH 100
▁ax 100
▁ຍາ 100
ktop 100
omas 100
pack 100
ping 100
ບ່ອນ 100
ອະນຸ 100
ະຊົນ 100
▁1.3 100
▁212 100
▁Aqu 100
▁Pot 100
▁Tay 100
▁bậc 100
▁dối 100
▁ráp 100
▁ກໍ່ 100
▁ຍາວ 100
/2019 100
Tiếng 100
cheng 100
▁Fair 100
▁Fran 100
▁Gold 100
▁Link 100
▁Maxi 100
▁Ninj 100
▁Site 100
▁WIFI 100
▁back 100
▁hứng 100
▁lính 100
▁màng 100
▁nhấn 100
▁thuê 100
▁xong 100
ethane 100
intage 100
ipping 100
puchia 100
ຕາເວັນ 100
▁Adele 100
▁Count 100
▁piano 100
▁spark 100
▁trích 100
ຕົວຢ່າງ 100
▁Carton 100
▁Tagged 100
▁ອອກແບບ 100
▁ເດືອນມ 100
ອມພິວເຕີ 100
▁Patrick 100
▁Chemical 100
▁ລະຫັດທົວ 100
▁Campuchia 100
▁ຂໍ້ມູນເກມ 100
▁ຄົນອັບເດດ 100
▁3.2.16084.2 100
,2 100
/3 100
4. 100
AU 100
EX 100
Ex 100
GR 100
UV 100
YD 100
pc 100
ty 100
ùi 100
ẢN 100
.60 100
Các 100
aun 100
emb 100
por 100
spa 100
str 100
uro 100
ຂີ້ 100
ຊີ້ 100
ຊົງ 100
ດາວ 100
ນອກ 100
ບອກ 100
ວາວ 100
ຫມາ 100
ະສີ 100
ັກສ 100
ເຊຍ 100
ເອກ 100
່ວງ 100
▁AR 100
▁Ag 100
▁Ey 100
▁Fe 100
▁GU 100
▁HI 100
▁Im 100
▁Kg 100
▁Mẹ 100
▁NC 100
▁TY 100
▁le 100
▁Đi 100
▁ກູ 100
days 100
ient 100
rain 100
raph 100
tech 100
ການປ 100
ີຣົບ 100
ແກ້ວ 100
▁2.1 100
▁CAN 100
▁Góc 100
▁Gặp 100
▁Lab 100
▁Pil 100
▁Quy 100
▁cọc 100
▁lạm 100
▁ngã 100
▁ngũ 100
▁ປະກ 100
▁ອາຍ 100
▁ເຂດ 100
esser 100
usher 100
▁Apps 100
▁Book 100
▁Cash 100
▁Chai 100
▁Chắc 100
▁Chức 100
▁Hydr 100
▁Khai 100
▁Lòng 100
▁Phim 100
▁Ride 100
▁Vâng 100
▁Xanh 100
▁Xing 100
▁dừng 100
▁lỏng 100
▁răng 100
▁serv 100
▁thải 100
▁ກ້ອງ 100
▁ຊົ່ວ 100
▁ທົ່ວ 100
eboard 100
urgaon 100
ວິດີໂອ 100
ັງກະສີ 100
▁2019. 100
▁Cable 100
▁Cheng 100
▁Ocean 100
▁Thuốc 100
▁trưng 100
▁trống 100
▁ອັດຕາ 100
▁ອາກາດ 100
ກໍ່ສ້າງ 100
ສ່ວນຕົວ 100
▁Dresses 100
▁ຫວຽດນາມ 100
▁ຮູບເງົາ 100
ເກັບຮັກສາ 100
02 100
LA 100
LB 100
OM 100
fa 100
ki 100
oy 100
zo 100
ÂY 100
/01 100
003 100
can 100
fox 100
ica 100
ixi 100
oot 100
tle 100
ưỡi 100
ລໍ້ 100
ອັດ 100
▁1) 100
▁71 100
▁Fu 100
▁GP 100
▁HG 100
▁JP 100
▁Mr 100
▁UP 100
▁Wu 100
▁lỗ 100
▁pl 100
▁tứ 100
▁xu 100
▁ຢາ 100
▁ແຈ 100
.0.3 100
acet 100
emon 100
iệng 100
odel 100
unch 100
ຖ່າຍ 100
ສະນີ 100
ັກຢາ 100
ໄຫລ່ 100
▁20% 100
▁31, 100
▁ANS 100
▁Môn 100
▁Mùa 100
▁SAP 100
▁Trả 100
▁bếp 100
▁bọt 100
▁cốt 100
▁etc 100
▁giỏ 100
▁mưa 100
▁pro 100
▁sáo 100
▁đài 100
▁đốc 100
INGBO 100
eater 100
inder 100
izera 100
ophil 100
ution 100
ປະສົມ 100
ົນເອງ 100
▁Cant 100
▁Feed 100
▁Giai 100
▁Kosh 100
▁Marc 100
▁Mich 100
▁Prov 100
▁Size 100
▁TGGT 100
▁khát 100
▁ngăn 100
▁ການສ 100
▁ຫຼັກ 100
▁ແກ້ວ 100
▁★★★★ 100
design 100
▁Metal 100
▁Multi 100
▁Peach 100
▁Shell 100
▁Thạch 100
▁dress 100
▁hover 100
▁phiền 100
▁trồng 100
▁vuông 100
▁ວັນທີ 100
Unthank 100
ສິ່ງທີ່ 100
▁Galaxy 100
▁Pieces 100
▁Sensor 100
osterone 100
ະລູມິນຽມ 100
ເດັກນ້ອຍ 100
▁192.168 100
▁Jackpot 100
▁youjian 100
▁ເອກະສານ 100
▁ປະເທດຈີນ 100
▁ຊື່ຍີ່ຫໍ້ 100
ເປັນສ່ວນຕົວ 100
▁ການຂົນສົ່ງ 100
▁ການພັດທະນາ 100
▁ແຫຼ່ງຂໍ້ມູນ 100
▁DavidUnthank 100
/- 100
Fi 100
]: 100
ÂU 100
ດູ 100
ນາ 100
-26 100
.70 100
7"> 100
701 100
:06 100
LAN 100
MLE 100
Win 100
aul 100
bul 100
eve 100
ict 100
ili 100
pon 100
ref 100
unt 100
ປົວ 100
ລັບ 100
ີ້ນ 100
ຸ່ງ 100
ເຫດ 100
ແຫນ 100
▁62 100
▁DH 100
▁MD 100
▁Ne 100
▁UL 100
▁hè 100
▁lô 100
▁vĩ 100
▁ອຸ 100
▁ແຫ 100
Liên 100
ailb 100
char 100
face 100
ines 100
list 100
ning 100
ໍ້ໄຟ 100
▁(20 100
▁(40 100
▁304 100
▁Big 100
▁But 100
▁Ghi 100
▁Han 100
▁Hat 100
▁Hợp 100
▁Jul 100
▁Mid 100
▁Qua 100
▁Tim 100
▁cãi 100
▁gấp 100
▁leg 100
▁mài 100
▁pcs 100
▁Đến 100
▁ສາມ 100
annel 100
istan 100
ລະດັບ 100
ແຫນ້ນ 100
▁86-0 100
▁CÔNG 100
▁Form 100
▁Kiến 100
▁Lưới 100
▁Roll 100
▁Tele 100
▁Tiệc 100
▁card 100
▁ngàn 100
▁prot 100
▁đỉnh 100
▁ປ້າຍ 100
▁ຜ່ານ 100
ension 100
ilding 100
ormone 100
ຂະຫຍາຍ 100
ແທ້ຈິງ 100
▁Chain 100
▁Dương 100
▁Vương 100
ບໍ່ແມ່ນ 100
▁Cheats 100
▁Jizera 100
▁Nguyên 100
▁String 100
▁Tesser 100
▁ຄອບຄົວ 100
▁ໂຮງຮຽນ 100
ສະຫນາຈັກ 100
ເຂັ້ມແຂງ 100
▁ເຮັດວຽກ 100
▁Dongguan 100
▁Passport 100
▁Dedusting 100
▁ນັບຕັ້ງແຕ່ 100
3- 100
4- 100
:1 100
AK 100
BF 100
Bộ 100
CI 100
CT 100
SH 100
dB 100
fs 100
lp 100
uo 100
ẫy 100
▁໌ 100
Com 100
jin 100
lad 100
mar 100
obe 100
ove 100
ກະດ 100
ກະທ 100
ມໄຟ 100
ລາສ 100
ວົງ 100
້ວນ 100
ủng 100
▁91 100
▁96 100
▁Bh 100
▁JB 100
▁Lý 100
▁ON 100
▁dã 100
▁dò 100
▁hổ 100
▁ru 100
-300 100
.1.1 100
74-8 100
Book 100
avel 100
ello 100
ener 100
flex 100
olyp 100
port 100
ການທ 100
ອກາດ 100
▁1.8 100
▁APK 100
▁AUD 100
▁Acr 100
▁Cáp 100
▁ITS 100
▁Lot 100
▁Mọi 100
▁Pvc 100
▁Ske 100
▁TOP 100
▁War 100
▁chợ 100
▁lợp 100
▁mag 100
▁rob 100
▁trú 100
▁ຜິດ 100
▁ສົມ 100
▁ໂຄງ 100
▁ໂທຣ 100
Model 100
ORDER 100
alume 100
chiều 100
layer 100
odium 100
razil 100
xiang 100
ຍາຍາມ 100
ທີ່ເຄ 100
▁Bero 100
▁Bánh 100
▁Cann 100
▁Code 100
▁Giám 100
▁Hall 100
▁Prem 100
▁Spot 100
▁Toàn 100
▁chán 100
▁chép 100
▁chặt 100
▁chối 100
▁ninj 100
▁pump 100
▁treo 100
▁ປື້ມ 100
▁ເຈ້ຍ 100
ປະໂຫຍດ 100
▁Chống 100
▁Giống 100
▁KHÔNG 100
▁Print 100
▁Proxy 100
▁RideA 100
▁Sales 100
▁Vinyl 100
▁giọng 100
▁phiêu 100
▁super 100
▁★★★★★ 100
jection 100
▁BORDER 100
▁Nghiên 100
▁Nickel 100
▁double 100
▁ແມ່ຍິງ 100
alvalume 100
▁Acrylic 100
▁Beroean 100
▁Gurgaon 100
▁Pickets 100
▁Scooter 100
▁Youtube 100
▁Province 100
ຮ້ອງສະຫມັກ 100
▁Tesseract 100
▁transposh 100
▁ການຄວບຄຸມ 100
▁ຄວາມສາມາດ 100
▁ເລືອກເອົາ 100
▁ຂະຫນາດບັນຈຸ 100
▁ຂໍ້ມູນຈໍາເພາະ 100
%) 100
08 100
CA 100
LS 100
NO 100
TD 100
TH 100
WG 100
ll 100
ສ້ 100
ừu 100
.80 100
ala 100
aut 100
eel 100
ern 100
esc 100
jet 100
met 100
ums 100
urs 100
ãng 100
ດູນ 100
ທັນ 100
▁AD 100
▁Ax 100
▁CY 100
▁ES 100
▁HO 100
▁Kr 100
▁Ra 100
▁VI 100
▁dr 100
▁gỡ 100
▁tụ 100
▁vỡ 100
▁ຜະ 100
▁ແລ 100
▁≤0 100
arak 100
cast 100
onal 100
play 100
udio 100
ຜ່ອນ 100
ລັອກ 100
▁$1, 100
▁-40 100
▁6.0 100
▁APP 100
▁Apg 100
▁Buy 100
▁Dân 100
▁End 100
▁Hỏi 100
▁Jos 100
▁Nhờ 100
▁Phó 100
▁Put 100
▁Rom 100
▁Thử 100
▁Viv 100
▁kèm 100
▁lều 100
▁nắp 100
▁ລັງ 100
▁ສິນ 100
▁ແດງ 100
▁ໃສ່ 100
12345 100
9001: 100
ກະທົບ 100
ການໂທ 100
ບນ້ໍາ 100
ປະຈໍາ 100
ພິເສດ 100
ັງຈາກ 100
ົວພັນ 100
▁1050 100
▁Buổi 100
▁Drop 100
▁Găng 100
▁Kính 100
▁Quay 100
▁RFID 100
▁Tong 100
▁Trip 100
▁Viện 100
▁Will 100
▁chai 100
▁dính 100
▁giấc 100
▁lặng 100
▁nàng 100
▁tags 100
▁tách 100
▁xinh 100
ທີ່ນີ້ 100
ສໍາຄັນ 100
ອີເມລ໌ 100
ແຮງດັນ 100
▁Organ 100
▁World 100
▁cheat 100
▁phanh 100
▁quyển 100
ຖືກຕ້ອງ 100
▁Canada 100
▁Canton 100
▁County 100
▁NINGBO 100
▁Review 100
▁Rooder 100
▁Tester 100
▁ກໍາລັງ 100
▁ພຣະອົງ 100
▁ພາກຮຽນ 100
▁ຫນ້າຈໍ 100
ateboard 100
ເຄື່ອງມື 100
▁printer 100
▁Skeleton 100
▁Connector 100
▁ລະດັບຄວາມ 100
ໂຮງງານຜະລິດ 100
/8 100
OH 100
RT 100
UP 100
Up 100
iq 100
mi 100
ni 100
oa 100
ແດ 100
-27 100
360 100
Des 100
ama 100
ima 100
ini 100
ouk 100
ulf 100
ຍົກ 100
ແມ່ 100
່ວາ 100
▁DB 100
▁EC 100
▁Of 100
▁Py 100
▁Sy 100
▁cũ 100
▁mê 100
▁tị 100
▁vỏ 100
▁ໃຜ 100
ains 100
ally 100
ants 100
dong 100
iday 100
jing 100
ລະປະ 100
▁0.9 100
▁121 100
▁5.0 100
▁GBP 100
▁Hum 100
▁Kar 100
▁NEW 100
▁Tri 100
▁Tùy 100
▁VIP 100
▁Vir 100
▁acr 100
▁bãi 100
▁bìa 100
▁chó 100
▁coi 100
▁hẹn 100
▁len 100
▁mon 100
▁nhở 100
▁sôi 100
▁tàn 100
▁tốn 100
▁ທີມ 100
▁ບານ 100
▁ມົນ 100
▁ຫມາ 100
Shirt 100
entas 100
ision 100
pping 100
ropyl 100
ບັນຫາ 100
ສະອາດ 100
ເຫຼືອ 100
▁1080 100
▁Back 100
▁Ball 100
▁HBOT 100
▁Kids 100
▁Liệu 100
▁Nhấn 100
▁kiệm 100
▁mach 100
▁mỏng 100
▁trộn 100
▁ຂ້າງ 100
▁ຈ່າຍ 100
change 100
eather 100
ທີ່ເຄຍ 100
▁2018. 100
▁Hydro 100
▁Plate 100
▁Roger 100
▁phỏng 100
▁thoải 100
▁thăng 100
▁trùng 100
▁vương 100
▁ເພີ່ມ 100
ແຫ່ງຊາດ 100
ໃຫ້ເຫັນ 100
▁Motors 100
▁Plasma 100
▁ເຊື່ອມ 100
▁Ceramic 100
▁Cuentas 100
▁Flatbed 100
▁ຊົ່ວໂມງ 100
▁Electron 100
▁ຜູ້ສະຫນອງ 100
▁ໂທຣຫາພວກເຮົາ 100
AE 100
NC 100
PO 100
Sp 100
ຂໍ 100
າຊ 100
”, 100
▁Ư 100
-55 100
-70 100
302 100
307 100
4.5 100
Jar 100
acy 100
ani 100
ham 100
jon 100
ple 100
umm 100
ຂຽວ 100
ຈັນ 100
ບາງ 100
ຜິວ 100
ລິນ 100
ສາມ 100
ເມນ 100
ແຂນ 100
ແປດ 100
ແຮງ 100
▁EM 100
▁HY 100
▁He 100
▁Lễ 100
▁So 100
▁Vị 100
▁mì 100
▁ໄພ 100
abin 100
acqu 100
arat 100
case 100
enue 100
ield 100
qiao 100
ກ່ອງ 100
ຽງໄຮ 100
ເຕັມ 100
▁(11 100
▁Bút 100
▁Bốn 100
▁Căn 100
▁Eva 100
▁Gar 100
▁Lạc 100
▁MAC 100
▁Rem 100
▁Roy 100
▁TCP 100
▁Vol 100
▁WPC 100
▁apk 100
▁bit 100
▁cẩn 100
▁dán 100
▁gặt 100
▁mét 100
▁Đàn 100
▁Đúc 100
▁đúp 100
▁ຍານ 100
▁ທຽນ 100
▁ສາດ 100
▁ໂມງ 100
-1500 100
.2013 100
iller 100
obile 100
ublic 100
ນະສົມ 100
ພາຍໃນ 100
ເດືອນ 100
ເວົ້າ 100
▁Bulk 100
▁Cixi 100
▁Down 100
▁Iron 100
▁Mail 100
▁Penn 100
▁Plug 100
▁Priv 100
▁Tang 100
▁Wood 100
▁huấn 100
▁lùng 100
▁ngân 100
▁nhãn 100
▁type 100
▁ຕ້ານ 100
▁ປຸ່ມ 100
▁ຫມູ່ 100
enturi 100
ilicon 100
ພົວພັນ 100
ິ່ນປົວ 100
▁Azure 100
▁House 100
▁Photo 100
▁State 100
▁Trans 100
▁Tread 100
▁giành 100
▁hoàng 100
▁sướng 100
▁tuyển 100
▁ເບີໂທ 100
ຂອງຂ້ອຍ 100
ຕັ້ງຄ່າ 100
▁Camera 100
▁Flight 100
ນະສົມບັດ 100
ມາດຕະຖານ 100
▁Bowflex 100
▁Display 100
▁Lyophil 100
▁Package 100
▁Vintage 100
▁acrylic 100
▁ເອກະຊົນ 100
▁Pressure 100
▁ຊອບແວທີ່ 100
ອຸດສາຫະກໍາ 100
ໃນປັດຈຸບັນ 100
▁ເຄື່ອງຈັກ 100
▁ເຕັກໂນໂລຊີ 100
▁Lyophilized 100
▁ຈີນຜູ້ຜະລິດ 100
6" 100
6* 100
AB 100
MI 100
UL 100
XD 100
ho 100
hr 100
iu 100
ta 100
ຕໍ 100
ວະ 100
ັສ 100
ủa 100
—— 100
,50 100
128 100
134 100
700 100
990 100
="6 100
For 100
ibr 100
ita 100
ito 100
put 100
rad 100
sen 100
tim 100
win 100
ກ້າ 100
ຄວນ 100
ຈັບ 100
ຈຸດ 100
ບົດ 100
ສວນ 100
ອງໂ 100
ິ້ງ 100
ົ້ວ 100
ແນນ 100
ແອວ 100
ໂພກ 100
▁#4 100
▁$4 100
▁(9 100
▁4) 100
▁84 100
▁93 100
▁CJ 100
▁DA 100
▁EP 100
▁Ev 100
▁II 100
▁Vi 100
▁cờ 100
▁nô 100
▁sk 100
▁tờ 100
▁ưa 100
▁ປາ 100
▁ໂດ 100
▁ໂຕ 100
-150 100
-500 100
1390 100
6113 100
Slot 100
Time 100
edia 100
isha 100
mark 100
ones 100
ovel 100
ນັ່ງ 100
ວິທີ 100
ແຫ້ງ 100
ໄຮໂດ 100
▁(18 100
▁(50 100
▁50% 100
▁Cou 100
▁Dev 100
▁Feb 100
▁Gem 100
▁Hủy 100
▁Kaw 100
▁Kem 100
▁Khe 100
▁MIU 100
▁Pad 100
▁VPN 100
▁Vận 100
▁bữa 100
▁equ 100
▁leo 100
▁lộn 100
▁noi 100
▁rắn 100
▁rỗi 100
▁tạm 100
▁Ánh 100
▁ຊັບ 100
▁ເລກ 100
ected 100
enger 100
stone 100
ຫນຶ່ງ 100
ເຮືອນ 100
▁.... 100
▁0.01 100
▁1100 100
▁1400 100
▁ANSI 100
▁CSGO 100
▁Chen 100
▁Clip 100
▁Coun 100
▁Mand 100
▁Mart 100
▁Mass 100
▁Spin 100
▁Tran 100
▁soạn 100
▁thói 100
▁thầu 100
▁thừa 100
▁trấn 100
▁tươi 100
▁wind 100
▁ປ້ອງ 100
▁ຮ້ານ 100
▁ເທິງ 100
ection 100
ifunct 100
orrent 100
ຈໍາກັດ 100
ຊີ້ວັດ 100
▁Class 100
▁Cryst 100
▁Doanh 100
▁Frank 100
▁Mater 100
▁North 100
▁Pilon 100
▁Promo 100
▁Smith 100
▁Tường 100
▁USMLE 100
▁Views 100
▁cajon 100
▁khủng 100
▁ກາຕູນ 100
itioner 100
ລະຫວ່າງ 100
ອະນຸຍາດ 100
▁Avenue 100
▁Brazil 100
▁Island 100
▁Valent 100
▁ອະໄຫລ່ 100
▁ອິນເດຍ 100
iqdesign 100
▁Company 100
▁Cyclone 100
▁SlotJar 100
▁tattoos 100
▁ສະຊອບແວ 100
▁Exchange 100
▁ທໍາມະຊາດ 100
▁ປະສົບການ 100
▁Injection 100
▁ໂດຍທົ່ວໄປ 100
refinecolor 100
▁ການຄາດຄະເນ 100
▁2.6.4.16113 100
▁Instrumental 100
▁ການຊໍາລະເງິນ 100
▁ຕິດຕໍ່ພວກເຮົາ 100
Ar 100
LD 100
PR 100
mq 100
nb 100
sy 100
uc 100
ùm 100
▁າ 100
▁ໆ 100
▁ໍ 100
-36 100
112 100
232 100
ERY 100
Máy 100
ety 100
gin 100
ild 100
ona 100
rpm 100
ule 100
uộm 100
wen 100
yds 100
ຫມີ 100
ເທີ 100
ແຜນ 100
▁89 100
▁=> 100
▁SI 100
▁XU 100
▁ZY 100
▁tà 100
▁ແຟ 100
="10 100
ONDA 100
acen 100
ebob 100
enna 100
isco 100
izza 100
xbet 100
ນິທິ 100
ວນີ້ 100
ະນິດ 100
ເຄມີ 100
ໄຟລ໌ 100
▁(36 100
▁+/- 100
▁0.7 100
▁11. 100
▁139 100
▁218 100
▁420 100
▁Ave 100
▁Bus 100
▁Cây 100
▁Del 100
▁Fit 100
▁Hou 100
▁Jai 100
▁Lat 100
▁Lee 100
▁Leg 100
▁Mas 100
▁Mer 100
▁Nơi 100
▁RSS 100
▁Run 100
▁Rất 100
▁Sle 100
▁Syn 100
▁Tit 100
▁Tor 100
▁Vân 100
▁giơ 100
▁hái 100
▁lin 100
▁mãn 100
▁sót 100
▁zlp 100
▁đốt 100
▁đồi 100
▁ທອງ 100
▁ພົບ 100
▁ວາງ 100
▁ເຫລ 100
▁ເອງ 100
▁ແຮງ 100
Point 100
amber 100
asaki 100
axoph 100
sting 100
ກະບອກ 100
ປະມານ 100
ແຫນ່ງ 100
▁0.00 100
▁6063 100
▁Bull 100
▁Diễn 100
▁Edge 100
▁File 100
▁Jiao 100
▁Nhấp 100
▁Rich 100
▁Sáng 100
▁TGJS 100
▁West 100
▁Xiao 100
▁Xuân 100
▁cưới 100
▁khen 100
▁lồng 100
▁Điển 100
▁ກ່ອນ 100
▁ງ່າຍ 100
▁ທ້າຍ 100
▁ນໍ້າ 100
▁ປ່ອຍ 100
▁ເກີດ 100
▁ເຄືອ 100
eptide 100
ບ່ງປັນ 100
ອັນດັບ 100
▁Color 100
▁Money 100
▁Robot 100
▁Sound 100
▁chủng 100
▁ຕ່າງໆ 100
▁ໂມດູນ 100
acquard 100
ongebob 100
ເງິນຂອງ 100
ໍາແຫນ່ງ 100
▁Chuyên 100
▁Hippie 100
▁Huawei 100
▁Joseph 100
▁Magnet 100
▁Marcie 100
▁Pallet 100
▁SERIES 100
▁oxford 100
▁ສໍາຄັນ 100
.07.2018 100
ailbreak 100
axophone 100
essenger 100
▁Premium 100
▁Resorts 100
▁Saracen 100
▁Trading 100
▁ຄວາມຖີ່ 100
ເລີ່ມຕົ້ນ 100
▁86-755-2 100
▁Fittings 100
▁ການຕິດຕັ້ງ 100
▁ຄວາມຫນາແຫນ້ນ 100
", 100
', 100
AF 100
HC 100
MB 100
ti 100
ÁY 100
ກ້ 100
-5) 100
118 100
260 100
30, 100
949 100
EAT 100
exe 100
rol 100
uff 100
vas 100
ưởi 100
ຕູ້ 100
ພັບ 100
ຟອມ 100
ສົດ 100
ຸຂະ 100
ເກດ 100
▁CW 100
▁DV 100
▁JS 100
▁JT 100
▁MY 100
▁SJ 100
▁Vợ 100
▁ar 100
▁or 100
▁sn 100
▁ໂຊ 100
▁ໄຂ 100
2000 100
Kelo 100
abol 100
acle 100
flon 100
hong 100
lymp 100
utor 100
wind 100
ຫນົດ 100
ຫລາຍ 100
ຫົ່ມ 100
ະນຸດ 100
ເລັກ 100
ເຮົາ 100
ໂຫຼດ 100
▁(15 100
▁(51 100
▁175 100
▁195 100
▁2.3 100
▁2.4 100
▁2.8 100
▁205 100
▁330 100
▁574 100
▁630 100
▁7.5 100
▁Bab 100
▁Bãi 100
▁Chó 100
▁DRK 100
▁Hel 100
▁Nan 100
▁Ros 100
▁Ton 100
▁bọc 100
▁cừu 100
▁dis 100
▁dâm 100
▁dập 100
▁huy 100
▁môn 100
▁mùi 100
▁mắn 100
▁quỉ 100
▁sen 100
▁tần 100
▁vây 100
▁vẹn 100
▁xóm 100
▁đeo 100
▁ຈອງ 100
▁ດັບ 100
▁ລົມ 100
▁ສອນ 100
▁ສະຖ 100
-1000 100
.2019 100
/2018 100
amine 100
apter 100
aulic 100
falls 100
ongee 100
ບາຍດີ 100
ສະຕິກ 100
ໍາລອງ 100
▁CANN 100
▁ITIL 100
▁Ninh 100
▁Teng 100
▁Truy 100
▁With 100
▁chạm 100
▁giặt 100
▁hand 100
▁hằng 100
▁nghề 100
▁phẫu 100
▁tiềm 100
▁tịnh 100
▁viễn 100
▁xoắn 100
▁điệu 100
▁ກິລາ 100
ທົນທານ 100
ແລະການ 100
▁2019, 100
▁7.4.7 100
▁Enter 100
▁Girls 100
▁Horiz 100
▁Istan 100
▁Olymp 100
▁Shirt 100
▁Sihan 100
▁chừng 100
▁nhuộm 100
▁ປະທານ 100
▁ອາຄານ 100
▁ແກ້ໄຂ 100
ດໍາເນີນ 100
▁ComPro 100
▁Geocon 100
▁Letter 100
▁Odisha 100
▁Piston 100
▁Shovel 100
▁Spring 100
▁Thomas 100
▁hentai 100
▁nghiện 100
▁pallet 100
▁Limited 100
▁Trailer 100
▁ພັດທະນາ 100
▁Istanbul 100
▁Kawasaki 100
▁SoftKelo 100
ຂະຫນາດໃຫຍ່ 100
ໃຫ້ພວກເຮົາ 100
▁Marketing 100
▁Mountains 100
▁ຕົວຊີ້ວັດ 100
ທີ່ດີທີ່ສຸດ 100
ເງິນຂອງບັນທຶກ 100
De 100
HP 100
KV 100
RA 100
ci 100
js 100
yb 100
ຍກ 100
ພູ 100
ộm 100
--- 100
136 100
170 100
235 100
240 100
410 100
?”. 100
Box 100
aga 100
axi 100
bao 100
eek 100
men 100
row 100
tek 100
tám 100
yle 100
ກຸນ 100
ດອກ 100
ທັບ 100
ພົບ 100
ຢາກ 100
ສູບ 100
ເຊລ 100
ເວນ 100
ỗng 100
▁$1 100
▁(+ 100
▁(7 100
▁5) 100
▁94 100
▁gà 100
▁vẽ 100
▁Đa 100
▁Đề 100
▁ຕໍ 100
7574 100
airs 100
aver 100
iler 100
ngth 100
ຕລາຍ 100
ນຸ່ງ 100
ຫຍັດ 100
ຫນັງ 100
ແລະສ 100
▁000 100
▁128 100
▁14: 100
▁15% 100
▁15: 100
▁16: 100
▁185 100
▁365 100
▁8.9 100
▁Cái 100
▁Ess 100
▁Fax 100
▁Jog 100
▁Jun 100
▁Ken 100
▁Lor 100
▁Mem 100
▁Nhĩ 100
▁Sep 100
▁She 100
▁Sok 100
▁Tel 100
▁Trở 100
▁Tối 100
▁Wol 100
▁ham 100
▁hào 100
▁lam 100
▁lốp 100
▁men 100
▁sấy 100
▁đói 100
▁ຂັບ 100
▁ດຽວ 100
▁ຟັງ 100
▁ຫັດ 100
▁ເມວ 100
▁ໂຣກ 100
actor 100
apore 100
embly 100
erved 100
eware 100
iness 100
olley 100
ridge 100
ຕ່ອງໂ 100
▁Bank 100
▁Demo 100
▁From 100
▁HÀNG 100
▁Join 100
▁Over 100
▁Patt 100
▁Volt 100
▁Wave 100
▁Yang 100
▁axit 100
▁bass 100
▁giấu 100
▁matt 100
▁ninh 100
▁trộm 100
▁ກູໂກ 100
▁ຢ່າລ 100
▁ຫນູນ 100
▁ເຕົາ 100
▁ເຢັນ 100
▁ແຂວງ 100
angers 100
iverse 100
yptocr 100
ຈໍາລອງ 100
ຸຂະພາບ 100
▁Artie 100
▁Block 100
▁Grade 100
▁Music 100
▁Phong 100
▁Screw 100
▁Sheng 100
▁Trade 100
▁Ultra 100
▁XNUMX 100
▁duyệt 100
▁huyết 100
▁insul 100
ຕ່ອງໂສ້ 100
ພຣະຄຣິດ 100
ອັນຕລາຍ 100
ະນັກງານ 100
▁86-755 100
▁Candle 100
▁Jacket 100
▁Jaishi 100
▁Pongee 100
▁Zipper 100
▁carbon 100
▁truyện 100
ropylene 100
ຄຸນນະພາບ 100
▁Control 100
▁Desktop 100
▁Eyelash 100
▁ຂາຍສົ່ງ 100
▁ທຸລະກິດ 100
▁ນ້ໍາມັນ 100
▁Solenoid 100
▁download 100
▁ການແກ້ໄຂ 100
▁Songjiang 100
▁ທ່ານສາມາດ 100
▁Production 100
▁ຄຸນນະສົມບັດ 100
▁ນ້ໍາຫນັກຂອງ 100
▁ວິທະຍາໄລຂອງ 100
!” 100
8" 100
Co 100
DE 100
GL 100
GN 100
HH 100
PT 100
RI 100
íp 100
ຂາ 100
ນ້ 100
ວ່ 100
ẢI 100
ằn 100
ỡi 100
”? 100
-35 100
.25 100
122 100
2"> 100
99€ 100
ART 100
ITE 100
SPY 100
for 100
mil 100
ກູ້ 100
ຍືດ 100
ພີກ 100
ສັບ 100
ຫາກ 100
ຫີນ 100
ແຕກ 100
▁#7 100
▁77 100
▁CU 100
▁GD 100
▁KI 100
▁LR 100
▁LS 100
▁PO 100
▁SW 100
▁Ub 100
▁bo 100
▁bờ 100
▁cỏ 100
▁lũ 100
▁mu 100
▁mờ 100
▁nổ 100
▁om 100
▁ro 100
▁tú 100
▁ໄຊ 100
ides 100
oung 100
ward 100
ຄ້າຍ 100
ລ້ອມ 100
ອາຍຸ 100
ື້ອຍ 100
ົ່ານ 100
ເນີດ 100
ເມີນ 100
ແກັສ 100
້ວາງ 100
▁(33 100
▁186 100
▁260 100
▁760 100
▁Chế 100
▁Dut 100
▁Gần 100
▁KYD 100
▁LAS 100
▁Lap 100
▁Lay 100
▁Lev 100
▁Los 100
▁PJS 100
▁SMD 100
▁Thổ 100
▁Toy 100
▁Trẻ 100
▁XML 100
▁XPE 100
▁Yin 100
▁dọc 100
▁gọn 100
▁lad 100
▁nêu 100
▁nảy 100
▁thả 100
▁đãi 100
▁ງາມ 100
▁ຍິງ 100
▁ດອກ 100
▁ອີກ 100
/2016 100
Tháng 100
adise 100
aging 100
aking 100
ality 100
osite 100
ກປ່ຽນ 100
ກໍາມະ 100
ທີ່ດີ 100
ເລເຊີ 100
▁Bóng 100
▁Dưới 100
▁Hiển 100
▁Land 100
▁Make 100
▁Note 100
▁Phật 100
▁Pipe 100
▁Qing 100
▁Rose 100
▁Siêu 100
▁Stan 100
▁Time 100
▁Tinh 100
▁Type 100
▁chat 100
▁chìm 100
▁comp 100
▁ghép 100
▁hiến 100
▁khía 100
▁khải 100
▁kịch 100
▁ngon 100
▁ngẫu 100
▁ngọt 100
▁thảy 100
▁thỏa 100
▁tiếc 100
▁ກ່າວ 100
▁ຄັ້ງ 100
▁ຫນັບ 100
▁ເຕັມ 100
▁≤200 100
edding 100
iscuss 100
online 100
ubarak 100
umatic 100
ພີກເຊລ 100
ອກນ້ໍາ 100
ໍລະກົດ 100
▁Admin 100
▁Brass 100
▁Khark 100
▁Linen 100
▁Mixer 100
▁Study 100
▁hydro 100
▁pixel 100
▁robot 100
▁ພາຍໃນ 100
▁ໂຄມໄຟ 100
ຄວາມຄິດ 100
▁Truyền 100
▁Trưởng 100
▁Turkey 100
▁ກວດສອບ 100
▁ລາຍການ 100
▁ໂຮງແຮມ 100
▁Bearing 100
▁Channel 100
▁Impulse 100
▁Molding 100
▁ການບໍລິ 100
▁ຂອງທ່ານ 100
▁ສະບາຍດີ 100
▁ສັງກະສີ 100
▁Paradise 100
▁Sihanouk 100
▁Supplier 100
▁Whatsapp 100
▁clarinet 100
▁container 100
▁ຄອມພິວເຕີ 100
▁ການກໍ່ສ້າງ 100
▁ປະສິດທິພາບ 100
▁ການຝຶກອົບຮົມ 100
▁ສູງສຸດທີ່ເຄຍ 100
04 100
Dr 100
LM 100
OX 100
Or 100
To 100
di 100
me 100
my 100
pt 100
sa 100
tụ 100
ໄມ 100
ໍກ 100
ẻo 100
-29 100
-45 100
.04 100
.16 100
/60 100
1.0 100
140 100
230 100
310 100
801 100
888 100
:51 100
AND 100
EST 100
IAN 100
IDE 100
atr 100
ced 100
fer 100
irc 100
kok 100
ຈິດ 100
ຍາກ 100
ນອນ 100
ືອດ 100
ເຂດ 100
ỳnh 100
▁*) 100
▁IC 100
▁MC 100
▁Mo 100
▁NZ 100
▁Ol 100
▁Tế 100
▁XS 100
▁YJ 100
▁Yi 100
▁Yu 100
▁mg 100
▁op 100
OTOR 100
Site 100
aven 100
chen 100
gang 100
idge 100
iles 100
item 100
rist 100
ural 100
ກ່ວາ 100
ຢ້ຽມ 100
ະສາດ 100
່ນອນ 100
▁(86 100
▁1-2 100
▁122 100
▁480 100
▁Bel 100
▁CAD 100
▁Chí 100
▁DNS 100
▁Get 100
▁Gun 100
▁HCL 100
▁Ham 100
▁Laz 100
▁Lựa 100
▁MUM 100
▁Mov 100
▁Quá 100
▁Quỹ 100
▁Rab 100
▁Tex 100
▁Tuỳ 100
▁Xăm 100
▁Yes 100
▁bug 100
▁cat 100
▁chì 100
▁dịp 100
▁hàm 100
▁nit 100
▁non 100
▁ren 100
▁rou 100
▁str 100
▁sub 100
▁sưu 100
▁túc 100
▁đáy 100
▁ກອບ 100
▁ຊອບ 100
▁ຊີ້ 100
▁ດັດ 100
▁ໄວ້ 100
-2000 100
ersey 100
etate 100
imate 100
prise 100
uting 100
ຕ່າງໆ 100
ລົດໄຟ 100
ວັນທີ 100
ື່ສານ 100
ຽວນີ້ 100
ເປືອກ 100
▁0.05 100
▁3500 100
▁9001 100
▁APEC 100
▁Amer 100
▁Belt 100
▁Biểu 100
▁Bệnh 100
▁Cond 100
▁Dung 100
▁Flow 100
▁Gall 100
▁Hero 100
▁Kate 100
▁Khác 100
▁Paul 100
▁Prec 100
▁Shar 100
▁Solo 100
▁Viết 100
▁Wtám 100
▁alto 100
▁găng 100
▁Đúng 100
▁ປະຕິ 100
▁ຫມາກ 100
▁ຫລັງ 100
▁ແທ້ໆ 100
Online 100
amping 100
ຄ້າຍຄື 100
ອັງກິດ 100
ຮັບຮອງ 100
ເລື່ອງ 100
▁Graph 100
▁Share 100
▁White 100
▁huống 100
▁miệng 100
▁ຂ້າພະ 100
▁ປະກາດ 100
▁ມໍເຕີ 100
readbag 100
▁Hoster 100
▁Orange 100
▁ການຕໍ່ 100
▁ຜູ້ຊາຍ 100
▁ຢ່າລືມ 100
ethylene 100
ຊົງກະບອກ 100
ທ່ອງທ່ຽວ 100
ສູ່ລະບົບ 100
▁Crystal 100
▁Service 100
▁Spotify 100
▁ທໍາມະດາ 100
▁ຫ້ອງການ 100
▁Training 100
▁passport 100
▁Coinfalls 100
▁protected 100
▁ລະຫັດສິນຄ້າ 100
▁ສະແດງໃຫ້ເຫັນ 100
▁ສ້າງຕັ້ງຂຶ້ນ 100
▁ຄໍາຮ້ອງສະຫມັກ 100
/7 100
09 100
AA 100
AO 100
EI 100
TP 100
dg 100
kt 100
ຕ໌ 100
ຣດ 100
-57 100
.23 100
002 100
102 100
99% 100
AME 100
BET 100
Cle 100
EEL 100
ERS 100
GHT 100
SQL 100
Tin 100
don 100
hen 100
new 100
odi 100
oga 100
urb 100
wug 100
đun 100
ຊິກ 100
ຍລະ 100
ຍົນ 100
ຕິດ 100
ບອນ 100
ລີ່ 100
ອີ້ 100
ິ້ມ 100
ູ້ນ 100
ເກງ 100
ໂພງ 100
ໄກ່ 100
້າມ 100
▁#, 100
▁97 100
▁CL 100
▁CM 100
▁CV 100
▁CẢ 100
▁EV 100
▁Je 100
▁Ms 100
▁PT 100
▁SC 100
▁TC 100
▁be 100
▁gr 100
▁no 100
▁pu 100
▁sm 100
▁vá 100
▁ຫະ 100
▁ແພ 100
▁ồn 100
andr 100
ette 100
http 100
igin 100
ison 100
ites 100
leti 100
ngày 100
qing 100
rine 100
thon 100
ຊັ່ນ 100
ມະເລ 100
ເຄີຍ 100
▁$50 100
▁(17 100
▁1/2 100
▁21: 100
▁3.1 100
▁686 100
▁Bos 100
▁CIS 100
▁Den 100
▁Dry 100
▁Exp 100
▁GIÁ 100
▁Huệ 100
▁Ign 100
▁Jum 100
▁Lần 100
▁Lập 100
▁Men 100
▁MÁY 100
▁Quê 100
▁TIN 100
▁Tom 100
▁Tần 100
▁báu 100
▁bọn 100
▁chà 100
▁col 100
▁cột 100
▁dọn 100
▁gợi 100
▁jet 100
▁kín 100
▁lau 100
▁sắm 100
▁ກາຍ 100
▁ຄາວ 100
▁ຈັກ 100
▁ດໍາ 100
▁ນາຍ 100
▁ມຸມ 100
▁ເທດ 100
Quick 100
ative 100
email 100
inton 100
otion 100
wugas 100
ອີເມວ 100
▁Alex 100
▁Canh 100
▁Cũng 100
▁Data 100
▁Gear 100
▁Hard 100
▁Lead 100
▁Linh 100
▁MYHH 100
▁Main 100
▁Meta 100
▁ghét 100
▁giục 100
▁lego 100
▁nhằm 100
▁plas 100
▁quot 100
▁Đình 100
▁ຈົ່ງ 100
▁ພ້ອມ 100
▁ສະເຕ 100
▁ອ່ອນ 100
▁ຮ່ວມ 100
▁ເກັບ 100
▁ແຕ່ງ 100
▁ແມັດ 100
icheng 100
inting 100
ivirus 100
umball 100
ກວດສອບ 100
ມະເລັງ 100
ົ້າອີ້ 100
▁+8615 100
▁April 100
▁Cross 100
▁Phiếu 100
▁Voice 100
▁huyền 100
▁servo 100
▁ຊຽງໄຮ 100
shopify 100
ຕ້ານທານ 100
ປ້ອງກັນ 100
ວກເຮົາມ 100
ສົນທະນາ 100
ເດັກຍິງ 100
▁86-311 100
▁Cookie 100
▁Linked 100
▁Marble 100
▁Prepar 100
▁Window 100
▁series 100
▁thuyền 100
▁ກໍລະນີ 100
▁ມົນທົນ 100
▁ສະຖານີ 100
▁ສະເຫນີ 100
ສ້າງຕັ້ງ 100
▁Firefox 100
▁Jiangsu 100
▁Private 100
▁discuss 100
▁spindle 100
▁ຍີ່ປຸ່ນ 100
▁ຕ້ອງການ 100
▁Building 100
▁ລົງທະບຽນ 100
▁Cartridge 100
▁Singapore 100
▁spongebob 100
▁ຕົ້ນສະບັບ 100
▁ອະລູມິນຽມ 100
▁Microfiber 100
▁Waterproof 100
▁ການປິ່ນປົວ 100
▁ເຄື່ອງນຸ່ງ 100
▁ເດືອນກໍລະກົດ 100
▁cryptocurrency 100
06 100
:: 100
Hg 100
RH 100
ba 100
hy 100
ny 100
ÀY 100
ຕຸ 100
ພີ 100
ủi 100
-24 100
/05 100
123 100
234 100
3.5 100
303 100
320 100
420 100
886 100
:05 100
:53 100
Búp 100
ENT 100
INA 100
Ind 100
eko 100
oma 100
udd 100
uxi 100
ຈິນ 100
ຊອບ 100
ຍົມ 100
ດານ 100
ລໍາ 100
ຫາວ 100
ອິນ 100
າກິ 100
ເຈີ 100
▁8. 100
▁Hạ 100
▁Ky 100
▁LO 100
▁Oh 100
▁Pa 100
▁QC 100
▁Tỷ 100
▁Vu 100
▁Xả 100
▁lụ 100
▁ml 100
▁nụ 100
▁tw 100
▁tớ 100
▁up 100
▁xạ 100
▁Đà 100
▁ຄູ 100
▁ທິ 100
,500 100
3.70 100
77-6 100
ETAL 100
Mình 100
Tech 100
apol 100
aron 100
ense 100
erig 100
ging 100
iant 100
idad 100
last 100
rost 100
umma 100
ກິລາ 100
▁*** 100
▁10. 100
▁340 100
▁440 100
▁5.1 100
▁Bơm 100
▁DXF 100
▁Dom 100
▁Dầu 100
▁Dệt 100
▁ECO 100
▁Fle 100
▁Giu 100
▁Hui 100
▁IEC 100
▁NBR 100
▁Nex 100
▁PPS 100
▁Pcb 100
▁Saw 100
▁Thí 100
▁Trị 100
▁Tàu 100
▁UAE 100
▁Vấn 100
▁bạo 100
▁cản 100
▁des 100
▁fil 100
▁gía 100
▁mat 100
▁ong 100
▁res 100
▁thở 100
▁ướt 100
▁ຕົກ 100
▁ມັກ 100
▁ແຂນ 100
China 100
ander 100
ction 100
minal 100
namfg 100
ondon 100
sheng 100
ຈະກໍາ 100
ໍາລົງ 100
▁1250 100
▁Biển 100
▁East 100
▁Lãnh 100
▁Ming 100
▁Nhìn 100
▁Real 100
▁Sign 100
▁Tape 100
▁Thậm 100
▁Tuần 100
▁Wash 100
▁Yong 100
▁blog 100
▁chúc 100
▁cảng 100
▁kênh 100
▁miêu 100
▁phím 100
▁spin 100
▁thấu 100
▁thắc 100
▁trạm 100
▁vang 100
▁xứng 100
▁điên 100
▁ນ້ອຍ 100
▁ສະມາ 100
▁ເກີບ 100
ograph 100
ຂຶ້ນໄປ 100
ຄວາມໄວ 100
ປະຫຍັດ 100
ັບປິ້ງ 100
່ຽວຊານ 100
▁Lucks 100
▁Night 100
▁Texas 100
▁Tweet 100
▁Twill 100
▁Young 100
▁cương 100
▁nhàng 100
▁screw 100
hatsapp 100
niverse 100
ສຸດທ້າຍ 100
▁123... 100
▁Forums 100
▁Friday 100
▁Thread 100
▁acerig 100
▁cookie 100
▁ການນໍາ 100
▁ພຽງແຕ່ 100
.09.2018 100
cription 100
neumatic 100
▁Browser 100
▁Kharkiv 100
▁Mubarak 100
▁ບໍ່ແມ່ນ 100
▁ສ້າງແບບ 100
▁Machines 100
▁ສະເຕນເລດ 100
▁Hydraulic 100
▁ເຂົ້າຮ່ວມ 100
ັບປິ້ງມໍເຕີ 100
▁ຫງວນລິຂະສິດ 100
▁Sihanoukville 100
▁ສ້າງແບບຈໍາລອງ 100
." 100
AV 100
IU 100
hi 100
si 100
ບາ 100
!!! 100
.86 100
01, 100
010 100
225 100
229 100
280 100
333 100
605 100
:57 100
Biz 100
ESS 100
Min 100
arr 100
ben 100
bro 100
bug 100
ega 100
fan 100
ira 100
jie 100
kin 100
oen 100
oor 100
rey 100
war 100
ຄົງ 100
ທາດ 100
ບວນ 100
ມາດ 100
ຫາຍ 100
ິມະ 100
ຸດທ 100
▁2- 100
▁KD 100
▁KG 100
▁Kể 100
▁RI 100
▁SL 100
▁Sĩ 100
▁Tủ 100
▁Xu 100
▁ab 100
▁ko 100
▁nề 100
▁ລີ 100
1-99 100
book 100
eing 100
epad 100
info 100
ippi 100
ogen 100
osph 100
untu 100
xian 100
ລຸ້ນ 100
ແຂ່ງ 100
▁'01 100
▁(19 100
▁0.4 100
▁2.7 100
▁4.6 100
▁680 100
▁690 100
▁7,5 100
▁90% 100
▁99, 100
▁AMP 100
▁Bol 100
▁Bot 100
▁Bọt 100
▁Cấp 100
▁Fer 100
▁Flo 100
▁Fri 100
▁IPv 100
▁Ice 100
▁Jar 100
▁Job 100
▁KTM 100
▁Lib 100
▁Lit 100
▁MOQ 100
▁Mah 100
▁Moz 100
▁Môi 100
▁Nev 100
▁Oxy 100
▁Phí 100
▁Tác 100
▁bớt 100
▁dại 100
▁dốc 100
▁kẹp 100
▁mar 100
▁ray 100
▁tỏa 100
▁Đài 100
▁đập 100
▁ຈົດ 100
▁ພັບ 100
/2015 100
Trang 100
aysia 100
elect 100
ening 100
izing 100
owder 100
ລິນຍາ 100
ັງຄານ 100
າຊາກິ 100
າດຊາຍ 100
ີດີໂອ 100
ເຊື້ອ 100
▁(3.5 100
▁Anal 100
▁Bing 100
▁Curl 100
▁Dùng 100
▁Ever 100
▁Gang 100
▁Gióp 100
▁HDMI 100
▁Hiểu 100
▁Inch 100
▁Khám 100
▁Loan 100
▁Name 100
▁SPMK 100
▁Sept 100
▁Spec 100
▁Team 100
▁Thai 100
▁Trực 100
▁châm 100
▁chổi 100
▁giàu 100
▁hoạn 100
▁long 100
▁mult 100
▁quán 100
▁ຈຶ່ງ 100
Static 100
acetam 100
ithium 100
ຍລະມັນ 100
ຕະຫຼອດ 100
ບໍ່ໄດ້ 100
ລູກຄ້າ 100
▁2018, 100
▁Autom 100
▁Intel 100
▁Lamin 100
▁Point 100
▁Satin 100
▁forex 100
▁tráng 100
▁ປະຈໍາ 100
Cleaner 100
issippi 100
ກໍາຫນົດ 100
ຫຸ້ມຂອງ 100
ອະທິບາຍ 100
ຸດທະສາດ 100
▁100000 100
▁Castle 100
▁Disney 100
▁Khuyến 100
▁Marvel 100
▁Meleti 100
▁Oracle 100
▁Relays 100
▁Sodium 100
▁Switch 100
▁Temper 100
▁Ubuntu 100
▁Ukrain 100
▁cheats 100
▁thoảng 100
▁ຈໍາກັດ 100
/01/2017 100
ະນະກໍາມະ 100
▁Bonuses 100
▁Hormone 100
▁Michael 100
▁machine 100
▁ຄໍາເຫັນ 100
▁ບ່ອນທີ່ 100
▁ປັບແຕ່ງ 100
▁ພວກເຂົາ 100
▁ພາກສ່ວນ 100
▁ມູນນິທິ 100
▁ໂຄງສ້າງ 100
androlone 100
ification 100
ຄວາມສະອາດ 100
▁Assembly 100
▁Dreadbag 100
▁Knitting 100
▁Metrobus 100
▁Recovery 100
▁Reserved 100
▁Tengzhou 100
▁ການເຄືອບ 100
▁ຄາວາຊາກິ 100
▁ອາເມລິກາ 100
▁Pneumatic 100
▁PocketWin 100
▁Valentine 100
▁ການທົດສອບ 100
▁ການປັບປຸງ 100
▁ຄວາມໄວການ 100
ifunctional 100
ໂທລະສັບມືຖື 100
▁Electronic 100
▁hoverboard 100
▁ຊື່ຂອງທ່ານ 100
▁Mississippi 100
▁ຄວາມຕ້ານທານ 100
▁ຕິດຕັ້ງຜ່ານ 100
▁ປະຫວັດສາດຂອງ 100
▁ຢ່າລືມກ່ຽວກັບ 100
................ 100
") 100
,1 100
.: 100
/6 100
AH 100
Al 100
BA 100
Cr 100
EA 100
Fl 100
It 100
KA 100
MW 100
RE 100
TR 100
TY 100
mẹ 100
tt 100
ọa 100
.65 100
.91 100
114 100
132 100
2-2 100
202 100
40, 100
414 100
608 100
757 100
Cam 100
Lao 100
Ltd 100
PRO 100
Tôi 100
VID 100
Xem 100
aya 100
eda 100
ena 100
ght 100
ika 100
jar 100
pha 100
ste 100
use 100
ướp 100
ຍອດ 100
ດຽວ 100
ຕັນ 100
ຕົງ 100
ພຶດ 100
ມື້ 100
ສີດ 100
ັກຊ 100
ເບີ 100
ເອດ 100
ແລນ 100
▁#3 100
▁#9 100
▁BC 100
▁Cố 100
▁HZ 100
▁Ke 100
▁Lê 100
▁OK 100
▁Ul 100
▁mb 100
▁mũ 100
▁mộ 100
▁nở 100
▁Đo 100
Land 100
avan 100
esis 100
icon 100
iron 100
lace 100
ທາລະ 100
ຫວັນ 100
ີຊ່າ 100
ຶກສາ 100
ຸມພາ 100
▁+34 100
▁102 100
▁118 100
▁12. 100
▁3.3 100
▁3.7 100
▁Add 100
▁Bet 100
▁Bìa 100
▁CSG 100
▁Cai 100
▁Che 100
▁Cur 100
▁Dải 100
▁FCC 100
▁Fan 100
▁GET 100
▁Giữ 100
▁Hom 100
▁LLC 100
▁Lou 100
▁Nac 100
▁Nắc 100
▁Opp 100
▁Suy 100
▁Sân 100
▁Tas 100
▁UPS 100
▁Unl 100
▁Yan 100
▁cắp 100
▁dao 100
▁gai 100
▁kem 100
▁lâm 100
▁mèo 100
▁mũi 100
▁mệt 100
▁mọc 100
▁ntụ 100
▁rèn 100
▁săn 100
▁tit 100
▁túy 100
▁đan 100
▁đấm 100
▁ຈິງ 100
▁ມາດ 100
Chúng 100
epher 100
ering 100
erson 100
house 100
ility 100
owers 100
tical 100
ustin 100
າກບອນ 100
ີນ້ໍາ 100
ົດລອງ 100
▁-... 100
▁2007 100
▁8000 100
▁Face 100
▁Heng 100
▁Kênh 100
▁Nozz 100
▁Oeko 100
▁PCBA 100
▁Rome 100
▁Saga 100
▁Sale 100
▁Side 100
▁Unit 100
▁York 100
▁bead 100
▁coff 100
▁dust 100
▁liền 100
▁làng 100
▁lưng 100
▁lệch 100
▁prev 100
▁quét 100
▁quận 100
▁đàng 100
▁ນ້ອງ 100
▁ສະພາ 100
▁ຫນົນ 100
▁ອະນາ 100
▁ເກມອ 100
2.7574 100
ONDALE 100
itemap 100
ondale 100
teroid 100
ຊານຕົງ 100
ລາງວັນ 100
ອັງຄານ 100
ໄປສະນີ 100
▁3.0.5 100
▁Angel 100
▁Chips 100
▁Flute 100
▁Found 100
▁Laura 100
▁Longs 100
▁PROMO 100
▁Plain 100
▁Price 100
▁Relay 100
▁Santa 100
▁Space 100
▁Staff 100
▁Watch 100
▁block 100
▁flash 100
▁huỳnh 100
▁photo 100
▁ປະຊຸມ 100
ization 100
ກຸນເງິນ 100
ກໍາເນີດ 100
ທະຍາສາດ 100
ຫມາະສົມ 100
ແລະຄວາມ 100
▁Emboss 100
▁Floral 100
▁Rocker 100
▁Roller 100
▁Soccer 100
▁Teflon 100
▁Vivlon 100
▁WeChat 100
▁ກໍານົດ 100
▁ຂະຫຍາຍ 100
▁ປະໂຫຍດ 100
▁ອັງກິດ 100
otropics 100
teknamfg 100
▁Chamber 100
▁Cordura 100
▁GoQuick 100
▁Koshibo 100
▁Ninjago 100
▁Powered 100
▁Surface 100
▁William 100
▁ປ້ອງກັນ 100
▁ລັກສະນະ 100
▁ຫົວຫນ້າ 100
ທີ່ແທ້ຈິງ 100
ເຄື່ອງຈັກ 100
▁Inverter 100
▁Security 100
▁Strength 100
▁Ultimate 100
▁ເຄືອຂ່າຍ 100
3.702.7574 100
▁Extrusion 100
▁Streaming 100
▁Unlimited 100
▁ການລົງທຶນ 100
▁ຄວາມປອດໄພ 100
▁ຜົນປະໂຫຍດ 100
▁CANNONDALE 100
▁Cannondale 100
▁Enterprise 100
▁Nootropics 100
▁ສົ່ງອີເມລ໌ 100
ສະພາບອາກາດໃນ 100
▁ຮູບຊົງກະບອກ 100
▁ການເຊື່ອມຕໍ່ 100
▁ມົນທົນຊານຕົງ 100
▁ສະພາບອາກາດໃນ 100
/€ 100
2- 100
3" 100
7% 100
:> 100
DN 100
NT 100
PL 100
SE 100
fe 100
gr 100
ks 100
sl 100
zm 100
ແສ 100
ໃຜ 100
ໄດ 100
▁á 100
-33 100
/19 100
039 100
115 100
145 100
23) 100
3"> 100
840 100
:30 100
PCS 100
ayo 100
cow 100
fsx 100
gro 100
ird 100
lit 100
mmy 100
ror 100
uto 100
you 100
yun 100
zer 100
ກອງ 100
ຈານ 100
ຍໍາ 100
ທຽບ 100
ບູນ 100
ປິດ 100
ພັດ 100
ຟັງ 100
ເປົ 100
ໄຫມ 100
▁#2 100
▁AF 100
▁CK 100
▁Cá 100
▁Cổ 100
▁DD 100
▁DO 100
▁Kẻ 100
▁LF 100
▁WM 100
▁dư 100
▁is 100
▁vờ 100
▁Đá 100
▁ຖະ 100
▁ໂກ 100
-888 100
-900 100
3000 100
33"> 100
71"> 100
="16 100
Bags 100
adel 100
alon 100
berg 100
chat 100
html 100
icks 100
ozer 100
pert 100
star 100
ucks 100
vard 100
wall 100
wing 100
ກໍລະ 100
ຈາລະ 100
ຕາລີ 100
ປື້ມ 100
ເລິກ 100
▁(28 100
▁(3) 100
▁(5) 100
▁114 100
▁116 100
▁167 100
▁2,5 100
▁203 100
▁64, 100
▁850 100
▁CIF 100
▁CMC 100
▁Cel 100
▁Cát 100
▁Deb 100
▁Far 100
▁Hạt 100
▁Jew 100
▁Lạp 100
▁Mad 100
▁Này 100
▁Pop 100
▁QUY 100
▁Ret 100
▁SPY 100
▁SQL 100
▁SXL 100
▁Ten 100
▁Tru 100
▁Wal 100
▁Zur 100
▁cre 100
▁cận 100
▁dàn 100
▁kil 100
▁lôi 100
▁off 100
▁pad 100
▁quạ 100
▁sex 100
▁sim 100
▁sét 100
▁sọc 100
▁ung 100
▁đậm 100
▁ຂຸດ 100
▁ທາດ 100
▁ນວນ 100
▁ສົດ 100
▁ເສຍ 100
▁ແປງ 100
-21-5 100
="1.1 100
Order 100
andex 100
eight 100
luoro 100
quito 100
tháng 100
ຄູ່ມື 100
ພະຈິກ 100
ິຖຸນາ 100
ໂບນັດ 100
▁1220 100
▁9:00 100
▁Band 100
▁Buck 100
▁CYFL 100
▁Conc 100
▁Cosm 100
▁Disp 100
▁Fort 100
▁Guan 100
▁Hiến 100
▁Hồng 100
▁Lang 100
▁Nhập 100
▁Nâng 100
▁Refr 100
▁Răng 100
▁Sock 100
▁Yiwu 100
▁báng 100
▁chậm 100
▁cược 100
▁phạt 100
▁súng 100
▁tháo 100
▁thêu 100
▁tưới 100
▁ương 100
▁ການໂ 100
▁ມ້ວນ 100
▁ສັ່ງ 100
Script 100
bright 100
ຄໍາວ່າ 100
ຜິດຊອບ 100
ໂຮງຮຽນ 100
▁86-05 100
▁91-99 100
▁Cisco 100
▁Clamp 100
▁Crypt 100
▁Hoàng 100
▁James 100
▁Janne 100
▁Pixel 100
▁Rover 100
▁Track 100
▁Zheng 100
▁ninja 100
▁ຂອບໃຈ 100
▁ບລັອກ 100
▁ຢູ່ໃນ 100
▁ອື່ນໆ 100
2018-01 100
oraemon 100
ປະຈຸບັນ 100
ສະຫະລັດ 100
ສໍາຫລັບ 100
ແລກປ່ຽນ 100
▁(2019) 100
▁86-769 100
▁Corpor 100
▁Giường 100
▁Linton 100
▁Master 100
▁Moscow 100
▁Payson 100
▁Safety 100
▁Travel 100
▁Zurich 100
▁crypto 100
▁ວັນສຸກ 100
▁ຫມໍ້ໄຟ 100
ຜົນກະທົບ 100
ລົງທະບຽນ 100
ອຸນຫະພູມ 100
▁Bangkok 100
▁Notepad 100
▁Ukraina 100
▁ຕ່ໍາສຸດ 100
▁ອາບນ້ໍາ 100
▁Comments 100
▁Deduster 100
▁Material 100
▁ການສຶກສາ 100
▁ຄວາມຮ້ອນ 100
▁ວັນອາທິດ 100
▁ເວັບໄຊຕ໌ 100
▁ເສື້ອຜ້າ 100
ຂະຫນາດນ້ອຍ 100
▁Container 100
▁Guangdong 100
▁Machining 100
▁galvalume 100
▁ການໂຄສະນາ 100
▁ຄໍາແນະນໍາ 100
▁ຕົວຂຶ້ນໄປ 100
▁Customized 100
▁ການບໍລິໂພກ 100
▁ເດືອນກຸມພາ 100
▁Conditioner 100
▁ຈັດພີມມາໂດຍ 100
▁MobileCasino 100
▁Testosterone 100
▁ຕິດຕໍ່ພົວພັນ 100
/2 100
2" 100
3% 100
BM 100
BX 100
GG 100
HG 100
HY 100
Pl 100
TE 100
TL 100
gm 100
gu 100
ns 100
so 100
tg 100
ແມ 100
ộp 100
-0) 100
-48 100
-66 100
-76 100
.02 100
005 100
111 100
121 100
126 100
138 100
2.0 100
365 100
450 100
866 100
:07 100
:08 100
Con 100
Một 100
Ray 100
aba 100
aps 100
azụ 100
bow 100
dig 100
imb 100
isk 100
izh 100
lar 100
lim 100
lut 100
mAh 100
roz 100
tec 100
uel 100
ven 100
ÁCH 100
ຄັບ 100
ຊຽນ 100
ທິນ 100
ນາງ 100
ບຽບ 100
ພືດ 100
ລິບ 100
ອີກ 100
ເກີ 100
ໄຫຼ 100
▁(* 100
▁++ 100
▁79 100
▁81 100
▁DP 100
▁Dễ 100
▁FP 100
▁GJ 100
▁HT 100
▁LD 100
▁Lò 100
▁Mi 100
▁Ok 100
▁Ti 100
▁Us 100
▁ZM 100
▁gõ 100
▁mL 100
▁má 100
▁mỡ 100
▁ĐÁ 100
▁Đô 100
▁ນຸ 100
-240 100
1500 100
6789 100
Fort 100
IRTS 100
Link 100
ONUS 100
Test 100
aber 100
akes 100
lica 100
oven 100
phin 100
ters 100
unds 100
unes 100
user 100
wood 100
ງ່າຍ 100
ບ້ານ 100
ຫລັງ 100
ເທິງ 100
້ນີ້ 100
▁(%) 100
▁155 100
▁20. 100
▁215 100
▁25% 100
▁270 100
▁3.2 100
▁415 100
▁755 100
▁ALL 100
▁Alb 100
▁Bạc 100
▁CEE 100
▁Cut 100
▁EXW 100
▁FAC 100
▁GSM 100
▁Hun 100
▁KCN 100
▁Kon 100
▁Lắp 100
▁PAY 100
▁Pyr 100
▁Ren 100
▁SEO 100
▁Sửa 100
▁TED 100
▁THI 100
▁Tâm 100
▁URL 100
▁Vig 100
▁béo 100
▁bắn 100
▁côn 100
▁dãy 100
▁gom 100
▁gũi 100
▁kép 100
▁mạo 100
▁mỏi 100
▁nad 100
▁nứt 100
▁rác 100
▁thổ 100
▁top 100
▁xót 100
▁Đêm 100
▁đua 100
▁ກິດ 100
▁ຊາວ 100
▁ຕາຍ 100
▁ຕົນ 100
▁ປອກ 100
▁ຢືນ 100
▁ເພິ 100
▁ໂບດ 100
:86-0 100
caser 100
entic 100
iforn 100
oline 100
under 100
ustry 100
ທໍາມະ 100
ລະສານ 100
ສະກົດ 100
ເນື້ອ 100
ເພີ່ມ 100
▁$100 100
▁0.75 100
▁100, 100
▁Baby 100
▁Body 100
▁COIN 100
▁CPLA 100
▁Cams 100
▁Chăm 100
▁Cảng 100
▁Espa 100
▁Hose 100
▁LIVE 100
▁Lift 100
▁Lĩnh 100
▁Semi 100
▁Silk 100
▁Snow 100
▁Tank 100
▁Thức 100
▁Wuxi 100
▁Xiam 100
▁cướp 100
▁file 100
▁giọt 100
▁hang 100
▁hiệp 100
▁luân 100
▁mmHg 100
▁sưởi 100
▁tent 100
▁thuế 100
▁trân 100
▁xích 100
▁ມືຖື 100
▁ອາຍຸ 100
extile 100
fabric 100
loride 100
odcast 100
ການຈັດ 100
ຕົນເອງ 100
ລາຍງານ 100
ຫນ້າຈໍ 100
ໄປບ່ອນ 100
▁2018: 100
▁89.00 100
▁BONUS 100
▁Check 100
▁Clash 100
▁Deutz 100
▁Match 100
▁Niger 100
▁Paper 100
▁Rosin 100
▁Sarah 100
▁Start 100
▁Tower 100
▁Tuyết 100
▁sonic 100
▁sương 100
▁ພະອົງ 100
▁ພິເສດ 100
▁ມະນຸດ 100
Android 100
caserin 100
ersburg 100
ifornia 100
ບໍລິສຸດ 100
ພວກເຂົາ 100
ພຶດສະພາ 100
ເງິນຝາກ 100
ເອກະສານ 100
ແມ່ນຍໍາ 100
▁August 100
▁Rights 100
▁School 100
▁coffee 100
▁ວັນຈັນ 100
▁Battery 100
▁Deutsch 100
▁Hosting 100
▁PRChina 100
▁Program 100
▁ກໍ່ສ້າງ 100
▁ດາວໂຫຼດ 100
▁ບໍລິເວນ 100
▁ພະຍາຍາມ 100
▁ເດັກຍິງ 100
▁ແລະຂ້ອຍ 100
ublicidad 100
▁Industry 100
▁Jiaozhou 100
▁ທໍ່ເຫຼັກ 100
ການກັ່ນຕອງ 100
ຂອງພຣະຄຣິດ 100
ໍາລົງຊີວິດ 100
▁86-574-86 100
▁Antivirus 100
▁Certified 100
▁Downlight 100
▁Halloween 100
▁Jailbreak 100
▁Precision 100
▁ຄຸນປະຫຍັດ 100
▁ລະຫັດເງິນ 100
▁ວັນອັງຄານ 100
▁California 100
▁Petersburg 100
▁SharePoint 100
▁ການປົກຫຸ້ມຂອງ 100
▁91-993.702.7574 100
,, 100
05 100
CW 100
FA 100
FG 100
GI 100
HO 100
PK 100
UK 100
bi 100
ea 100
hz 100
pi 100
ÂN 100
ກູ 100
ຄວ 100
ຸບ 100
ໂຟ 100
ễn 100
!”. 100
-2, 100
-75 100
-89 100
.14 100
.18 100
.85 100
/06 100
016 100
15) 100
204 100
21) 100
222 100
25, 100
285 100
304 100
399 100
856 100
Fun 100
MPA 100
SON 100
Van 100
Web 100
asy 100
cnc 100
fit 100
hol 100
iev 100
ism 100
ius 100
iễm 100
sam 100
ຂັນ 100
ທັດ 100
ບາດ 100
ປອງ 100
ມວນ 100
ແດນ 100
ໂຕຣ 100
ໄຫວ 100
▁83 100
▁9. 100
▁<5 100
▁AO 100
▁Au 100
▁DF 100
▁EU 100
▁KN 100
▁OR 100
▁QQ 100
▁Sứ 100
▁Uy 100
▁XP 100
▁cú 100
▁iT 100
▁kn 100
▁kì 100
▁kệ 100
▁pc 100
▁rơ 100
▁rỡ 100
▁sl 100
▁vả 100
▁âu 100
▁ôm 100
▁Ưu 100
▁ຄະ 100
▁ດາ 100
▁ເຍ 100
▁ແວ 100
0000 100
1200 100
2017 100
="24 100
BRID 100
agon 100
amas 100
ared 100
back 100
bide 100
coco 100
cret 100
hình 100
ican 100
iece 100
ishi 100
onda 100
ongo 100
ured 100
urop 100
utch 100
well 100
ກ່ຽວ 100
ຂັ້ນ 100
ຂ້າງ 100
ຝ້າຍ 100
ວິຊາ 100
ສັ້ນ 100
ຫລັກ 100
ຫາວິ 100
ະນາຍ 100
ເຄືອ 100
▁!!! 100
▁(14 100
▁(45 100
▁737 100
▁980 100
▁>>> 100
▁AIR 100
▁AUT 100
▁Ash 100
▁Bên 100
▁CPA 100
▁CRM 100
▁Ear 100
▁Fas 100
▁Fis 100
▁Fol 100
▁Gab 100
▁Jia 100
▁NAS 100
▁NGH 100
▁Nut 100
▁OFF 100
▁Raz 100
▁SEN 100
▁Sho 100
▁TSJ 100
▁Veg 100
▁Vis 100
▁bag 100
▁bận 100
▁cor 100
▁ctn 100
▁dia 100
▁dịu 100
▁dồi 100
▁gen 100
▁nấu 100
▁sam 100
▁tây 100
▁tẩy 100
▁vay 100
▁vội 100
▁xưa 100
▁đệm 100
▁ຂວດ 100
▁ຍາດ 100
▁ນອກ 100
▁ປວດ 100
▁ລືມ 100
▁ອັບ 100
-3000 100
.0.30 100
chang 100
dozer 100
eller 100
inger 100
không 100
ombie 100
ruary 100
thers 100
ຖະກິດ 100
ເຊືອກ 100
ເຕັ້ນ 100
ເສື້ອ 100
▁$500 100
▁0.07 100
▁9000 100
▁Bolt 100
▁Bond 100
▁Caps 100
▁Cour 100
▁Disc 100
▁Diêu 100
▁Food 100
▁GAME 100
▁Jess 100
▁Phản 100
▁Pill 100
▁Rack 100
▁Rule 100
▁Thủy 100
▁Tiện 100
▁Tray 100
▁Tích 100
▁WLAN 100
▁biện 100
▁csgo 100
▁khao 100
▁ngừa 100
▁sửng 100
▁đuối 100
▁ຕະຫຼ 100
▁ຫນົມ 100
▁ເຄີຍ 100
▁ເວັບ 100
▁ໂທລະ 100
asonic 100
ending 100
opping 100
rading 100
utions 100
ຈາລະນາ 100
ຜູ້ໃຊ້ 100
ແນນສຽງ 100
ໂຮງແຮມ 100
ໃຊ້ວຽກ 100
▁20000 100
▁COVID 100
▁Chuẩn 100
▁Coins 100
▁Estar 100
▁Grand 100
▁Hacks 100
▁Parts 100
▁Putin 100
▁Spark 100
▁Suite 100
▁Therm 100
▁Villa 100
▁khuất 100
▁thiệt 100
▁ສັນຍາ 100
▁ເທື່ອ 100
▁ເລກທີ 100
▁ໂບນັດ 100
ensions 100
ຢຍລະມັນ 100
ແຕກຕ່າງ 100
▁10.000 100
▁Canvas 100
▁HYBRID 100
▁Merced 100
▁Nguyễn 100
▁Royale 100
▁Screen 100
▁Thưởng 100
▁Virgin 100
▁plasma 100
▁vector 100
▁ຄໍາຕອບ 100
▁ລົດຈັກ 100
▁ສະຫນາມ 100
▁ເລື່ອນ 100
▁ເອີຣົບ 100
essional 100
ະນາຍຄວາມ 100
▁Charger 100
▁Edition 100
▁Rangers 100
▁Silicon 100
▁gumball 100
▁jackpot 100
▁sitemap 100
▁ຂໍ້ຄວາມ 100
ຄືນໄປບ່ອນ 100
▁JanneAir 100
▁Malaysia 100
▁Mosquito 100
▁Messenger 100
▁ການຈັດການ 100
▁ການເຊື່ອມ 100
▁Galvanized 100
▁Skateboard 100
▁ການກັ່ນຕອງ 100
▁ການຕັ້ງຄ່າ 100
▁ການປົກປ້ອງ 100
▁ບົດຄວາມທີ່ 100
▁ປື້ມບັນທຶກ 100
▁ຄຸນນະພາບສູງ 100
▁ແຮງດັນໄຟຟ້າ 100
▁ເຕັບປິ້ງມໍເຕີ 100
/9 100
1. 100
9% 100
CK 100
EG 100
KM 100
OK 100
RB 100
bl 100
nt 100
ím 100
ຊູ 100
ລ້ 100
ແຄ 100
ẹt 100
ợn 100
-47 100
-8) 100
.11 100
.28 100
.34 100
.42 100
004 100
1,5 100
155 100
163 100
227 100
290 100
355 100
514 100
630 100
850 100
909 100
:02 100
CHO 100
CSA 100
GHz 100
IDS 100
JIA 100
ONE 100
OOD 100
avi 100
red 100
rox 100
uki 100
wir 100
yin 100
ມັກ 100
ມຸງ 100
ສູ້ 100
ຮອບ 100
ະຕິ 100
ານາ 100
່າກ 100
້າວ 100
▁"( 100
▁$0 100
▁82 100
▁AN 100
▁Ah 100
▁Cả 100
▁GE 100
▁JG 100
▁JH 100
▁LG 100
▁Mu 100
▁Mạ 100
▁PV 100
▁RJ 100
▁Xã 100
▁sô 100
▁vã 100
▁ái 100
▁ốc 100
-120 100
.1.2 100
111, 100
163. 100
2016 100
EATS 100
Port 100
Spot 100
avor 100
ners 100
pull 100
visa 100
ຊະນະ 100
ຕຸລາ 100
ຣັ່ງ 100
ສິ້ນ 100
ອາໄສ 100
ອື່ນ 100
າມັນ 100
ົດສະ 100
ເທີງ 100
ເນັດ 100
ເສີນ 100
ເສົາ 100
ເອັນ 100
ແທ້ໆ 100
▁03: 100
▁310 100
▁Ank 100
▁Apk 100
▁Bak 100
▁CES 100
▁Cyp 100
▁DHL 100
▁Hán 100
▁Hữu 100
▁Lối 100
▁NFC 100
▁Oil 100
▁Phổ 100
▁Pul 100
▁Raw 100
▁SEA 100
▁SMT 100
▁Son 100
▁Trợ 100
▁Xếp 100
▁bối 100
▁lận 100
▁lật 100
▁lốc 100
▁man 100
▁ngu 100
▁rel 100
▁rãi 100
▁rực 100
▁scr 100
▁thự 100
▁váy 100
▁wit 100
▁ĐÂU 100
▁đắp 100
▁ຂີ້ 100
▁ຍາກ 100
▁ບາບ 100
▁ພາດ 100
▁ລອງ 100
▁້ໍາ 100
.2017 100
16949 100
ATION 100
activ 100
anced 100
istic 100
ixels 100
lobal 100
odeon 100
ource 100
urner 100
yster 100
ປະທານ 100
ມີແສງ 100
ສີຂາວ 100
ສຸດທິ 100
ຫນ່ວຍ 100
ຫນ່າງ 100
ຫນ່າຍ 100
ໍານາດ 100
▁1547 100
▁4500 100
▁6061 100
▁Diam 100
▁ECHO 100
▁Fast 100
▁Lite 100
▁Logo 100
▁ROHS 100
▁Roof 100
▁Trục 100
▁Tỉnh 100
▁Zeal 100
▁chặn 100
▁giãn 100
▁khuy 100
▁kiềm 100
▁ngợi 100
▁nhịn 100
▁nồng 100
▁para 100
▁song 100
▁tháp 100
▁thổi 100
▁trưa 100
▁xoáy 100
▁ທະເລ 100
▁ທຸກໆ 100
▁ສະຖາ 100
▁ຫຼ້າ 100
▁ຮ່າງ 100
▁ເຄັດ 100
.0.180 100
/2019) 100
Design 100
Trader 100
apolis 100
ground 100
iation 100
izerou 100
ທີ່ຢູ່ 100
ສູນເສຍ 100
ສົມບັດ 100
ຸ້ມຄອງ 100
▁0.868 100
▁Austr 100
▁Huang 100
▁JBoss 100
▁Jumma 100
▁Ngoại 100
▁Quick 100
▁Shock 100
▁Thống 100
▁Xiang 100
▁eBook 100
▁hoảng 100
▁nghèo 100
▁nhuận 100
▁pizza 100
▁polyp 100
▁viếng 100
▁ສີຂຽວ 100
▁ເຊື່ອ 100
▁ເພິ່ນ 100
ຊ່ຽວຊານ 100
ດາວໂຫລດ 100
ດູດຝຸ່ນ 100
ພື້ນຖານ 100
ຫວຽດນາມ 100
▁86-532 100
▁Advent 100
▁Boeing 100
▁CHEATS 100
▁Canber 100
▁Decker 100
▁Fabric 100
▁Nozzle 100
▁Outlet 100
▁Rabies 100
▁Wallet 100
▁Xiamen 100
▁equina 100
▁khoảnh 100
▁roller 100
▁ທຽນຈິນ 100
▁ຜູ້ຂຽນ 100
▁ລູກຄ້າ 100
▁ສາຍແອວ 100
▁ຫົວພິມ 100
▁ອັບເດດ 100
▁ເພື່ອນ 100
▁ແນ່ນອນ 100
ເຄືອຂ່າຍ 100
▁Fitness 100
▁Friends 100
▁Grating 100
▁Harvard 100
▁Horizon 100
▁Jizerou 100
▁Stretch 100
▁Voltage 100
▁Wolford 100
▁Zealand 100
▁virtual 100
▁ຄວາມຮູ້ 100
▁ປະລິນຍາ 100
▁ສໍາຫລັບ 100
ເຂົ້າຮ່ວມ 100
▁February 100
▁roulette 100
▁ດັ່ງນັ້ນ 100
▁ນັ້ນແມ່ນ 100
▁ພະນັກງານ 100
▁ເກົ້າອີ້ 100
▁ໄລຍະເວລາ 100
ດໍາເນີນງານ 100
ຫາວິທະຍາໄລ 100
▁Solutions 100
▁butterfly 100
▁omniverse 100
▁ຄວາມໄວສູງ 100
▁ຄະນະກໍາມະ 100
▁JavaScript 100
▁Lorcaserin 100
▁galvanized 100
▁ຂະຫນາດກ່ອງ 100
▁ຂະຫນາດໃຫຍ່ 100
▁ປີສ້າງຕັ້ງ 100
ຄວາມອາດສາມາດ 100
▁Corporation 100
▁Nickelodeon 100
▁ຈັດພີມມາສຸດ 100
▁ສາດສະຫນາຈັກ 100
▁ເດືອນມິຖຸນາ 100
Ad 100
EY 100
FD 100
IE 100
QC 100
Re 100
Sc 100
fb 100
ja 100
mV 100
px 100
sd 100
vo 100
ÀO 100
éc 100
ໄອ 100
ẤP 100
ặm 100
ỷu 100
-31 100
-74 100
.26 100
/20 100
/25 100
12) 100
15, 100
166 100
169 100
209 100
210 100
28) 100
330 100
393 100
5"> 100
550 100
7.5 100
74) 100
752 100
758 100
805 100
98% 100
:56 100
:58 100
="8 100
ICE 100
MHz 100
Tex 100
The 100
Xin 100
bor 100
cho 100
cil 100
cle 100
dBm 100
ece 100
hui 100
iễu 100
lbs 100
lue 100
omp 100
rat 100
rel 100
try 100
uru 100
ươm 100
ກົນ 100
ດິດ 100
ຖ້າ 100
ບັງ 100
ຣິກ 100
ລາດ 100
ລ່າ 100
ວິນ 100
ເພງ 100
ເມດ 100
ແພງ 100
້າທ 100
▁", 100
▁Af 100
▁Bí 100
▁Ca 100
▁Cà 100
▁Dy 100
▁FM 100
▁LU 100
▁Om 100
▁Rõ 100
▁TD 100
▁Ty 100
▁UC 100
▁VK 100
▁VM 100
▁VS 100
▁YM 100
▁av 100
▁cu 100
▁dì 100
▁eo 100
▁ep 100
▁hà 100
▁hô 100
▁li 100
▁lỡ 100
▁nạ 100
▁sê 100
▁uế 100
▁êm 100
▁ĐƯ 100
▁ສື 100
▁ອິ 100
▁ແດ 100
▁ແອ 100
▁ໄຮ 100
-125 100
-220 100
.0.0 100
2004 100
XBET 100
afer 100
appy 100
avas 100
gory 100
hatr 100
ista 100
ival 100
izab 100
izit 100
loro 100
made 100
meng 100
olin 100
onel 100
onge 100
oose 100
ords 100
phot 100
quir 100
rill 100
room 100
undg 100
ying 100
zuki 100
ຂ້ອງ 100
ດ່ວນ 100
ທະນະ 100
ປຸ່ມ 100
ຼລິກ 100
ເຫມີ 100
▁(24 100
▁(4) 100
▁(60 100
▁1.9 100
▁137 100
▁156 100
▁158 100
▁3/4 100
▁40, 100
▁550 100
▁6.5 100
▁70% 100
▁ATM 100
▁Bác 100
▁CTC 100
▁Cfb 100
▁Chì 100
▁DWG 100
▁Dat 100
▁Dol 100
▁Gao 100
▁HRC 100
▁Hen 100
▁Loa 100
▁NZD 100
▁PLT 100
▁PST 100
▁Quả 100
▁Rap 100
▁Rup 100
▁SPC 100
▁Tóm 100
▁TẢI 100
▁Ven 100
▁Vui 100
▁Wik 100
▁Won 100
▁Xám 100
▁Yue 100
▁ZLP 100
▁bổn 100
▁cấm 100
▁div 100
▁góa 100
▁gạt 100
▁gấu 100
▁gậy 100
▁hỗn 100
▁khứ 100
▁mel 100
▁nát 100
▁nét 100
▁reg 100
▁say 100
▁sụp 100
▁tem 100
▁thơ 100
▁thợ 100
▁tệp 100
▁vắc 100
▁xao 100
▁zip 100
▁đắn 100
▁ກະຕ 100
▁ຂົນ 100
▁ດູດ 100
▁ຕຽງ 100
▁ບິນ 100
▁ສັງ 100
▁ແກ້ 100
333]: 100
="0.8 100
@163. 100
Forex 100
Haber 100
Người 100
XNUMX 100
addle 100
ayuan 100
ether 100
idget 100
oenix 100
oreal 100
times 100
trong 100
ulong 100
ກັນຍາ 100
ທັນວາ 100
ສາກົນ 100
ະລຸນາ 100
ື້ນີ້ 100
ເຊື່ອ 100
ເຕືອນ 100
ໂອກາດ 100
▁0.35 100
▁0001 100
▁3,0% 100
▁ASME 100
▁Acid 100
▁Benz 100
▁Fans 100
▁Feat 100
▁Girl 100
▁Giúp 100
▁Glas 100
▁HTML 100
▁Khởi 100
▁Lazy 100
▁Moto 100
▁Ngôn 100
▁Remo 100
▁Sống 100
▁Tren 100
▁Xian 100
▁Yoga 100
▁alfa 100
▁binh 100
▁bạch 100
▁chip 100
▁chìa 100
▁city 100
▁phái 100
▁trơn 100
▁trầm 100
▁trốn 100
▁ຝ້າຍ 100
▁ລັອກ 100
▁ຮົ້ວ 100
▁ຮ້ອງ 100
▁ເສົາ 100
▁ໂດລາ 100
bugpot 100
ipment 100
ກໍາລັງ 100
ປະກະຕິ 100
ພຽງແຕ່ 100
ມື້ນີ້ 100
ໂມຊັ່ນ 100
▁Auger 100
▁CHINA 100
▁Drive 100
▁Harem 100
▁LASER 100
▁Patti 100
▁River 100
▁Seoul 100
▁Shaft 100
▁Stone 100
▁Swing 100
▁Xiong 100
▁buông 100
▁games 100
▁khiêu 100
▁khiếp 100
▁lamin 100
▁nhiễm 100
▁nướng 100
▁punch 100
▁thỉnh 100
▁trứng 100
▁ຈຸດເດ 100
▁ສີແດງ 100
▁ອີເມລ 100
-07-201 100
izabeth 100
lasting 100
uddhatr 100
unction 100
ລັກສະນະ 100
ສົ່ງອອກ 100
ເຕີເນັດ 100
▁Fisayo 100
▁Indian 100
▁Jogger 100
▁Khoảng 100
▁Lining 100
▁London 100
▁Reader 100
▁Themes 100
▁Update 100
▁ຜູ້ທີ່ 100
▁ມີຄວາມ 100
▁ສະນັ້ນ 100
▁ຫນັງສື 100
▁ເຫດຜົນ 100
039333]: 100
osilicon 100
shipping 100
ວິທະຍາໄລ 100
ເກີດຂື້ນ 100
ໄຮໂດຼລິກ 100
▁Comment 100
▁Network 100
▁Quality 100
▁Shepher 100
▁Starter 100
▁Stepper 100
▁Tianjin 100
▁Trimmer 100
▁ມັນແມ່ນ 100
▁ລາຄາຖືກ 100
▁ຫຼ້າສຸດ 100
▁ອະທິບາຍ 100
="0.833"> 100
avascript 100
▁86-574-6 100
▁Canberra 100
▁Ignition 100
▁Jacquard 100
▁Mercedes 100
▁Printing 100
▁ການຜະລິດ 100
▁ການເຂົ້າ 100
▁ຕໍາແຫນ່ງ 100
▁ປອກເປືອກ 100
▁Bulldozer 100
▁Composite 100
▁Elizabeth 100
▁bugbugpot 100
▁ການຮັບຮອງ 100
▁ໄຟອັນຕລາຍ 100
uddhatrends 100
▁0086-574-8 100
▁ເດືອນກັນຍາ 100
▁ເດືອນພະຈິກ 100
▁ແສງສະຫວ່າງ 100
▁ເດືອນພຶດສະພາ 100
▁Organosilicon 100
▁ສໍາລັບເດັກຍິງ 100
▁ເຄື່ອງນຸ່ງຫົ່ມ 100
▁Multifunctional 100
▁ຄວາມເປັນສ່ວນຕົວ 100
▁ຕົວຂຶ້ນໄປຈໍານວນ 100
$1 100
AG 100
KN 100
Na 100
PY 100
TV 100
hu 100
qi 100
íu 100
ຈິ 100
ຊະ 100
ຍຸ 100
-7) 100
-88 100
-98 100
.19 100
.24 100
.45 100
/32 100
104 100
129 100
18: 100
195 100
245 100
282 100
3.0 100
33, 100
40) 100
756 100
995 100
:52 100
ERT 100
ICK 100
IFA 100
Man 100
Max 100
PPT 100
RAR 100
afe 100
bay 100
cus 100
ees 100
eme 100
eon 100
ior 100
low 100
opy 100
osp 100
ovo 100
rob 100
tai 100
ten 100
ຍິນ 100
ນເນ 100
ພຽງ 100
ຢືມ 100
ລາມ 100
ສອນ 100
ຫມໍ 100
ຫລື 100
ຫົນ 100
ະສິ 100
ິຕິ 100
ເຫຍ 100
ແວດ 100
ແຮ່ 100
ໂຄງ 100
▁$5 100
▁AV 100
▁GL 100
▁GM 100
▁GR 100
▁HJ 100
▁MU 100
▁Na 100
▁Nữ 100
▁RD 100
▁RM 100
▁SG 100
▁SY 100
▁VC 100
▁WP 100
▁mỹ 100
▁tỉ 100
▁wh 100
▁ຕີ 100
▁ໄມ 100
Form 100
anol 100
anth 100
bags 100
cess 100
clog 100
elin 100
flat 100
heng 100
ibal 100
inth 100
look 100
ours 100
plor 100
quin 100
razy 100
rodu 100
ship 100
stru 100
talk 100
test 100
uter 100
wear 100
ຊ່ວຍ 100
ນເນີ 100
ອ່ອນ 100
ເທຣດ 100
▁$10 100
▁020 100
▁1.4 100
▁151 100
▁3.4 100
▁575 100
▁610 100
▁Arr 100
▁BMP 100
▁Bre 100
▁Bug 100
▁CAR 100
▁CAT 100
▁CPU 100
▁CSS 100
▁Chữ 100
▁Duy 100
▁FDA 100
▁Hal 100
▁Hex 100
▁Hầu 100
▁Kap 100
▁Kẽm 100
▁LST 100
▁Lip 100
▁Low 100
▁Lốp 100
▁Lớn 100
▁Mex 100
▁Mun 100
▁NCS 100
▁Pur 100
▁RAM 100
▁Sat 100
▁SẢN 100
▁Wel 100
▁Wen 100
▁bik 100
▁bầy 100
▁bẫy 100
▁dải 100
▁gay 100
▁hoà 100
▁nhé 100
▁oem 100
▁phô 100
▁rau 100
▁rpm 100
▁rắc 100
▁rộn 100
▁san 100
▁ten 100
▁ກິນ 100
▁ກົມ 100
▁ຍົນ 100
▁ຖັງ 100
▁ບັບ 100
▁ປອດ 100
▁ປາກ 100
▁ປຸກ 100
▁ພຽງ 100
▁ສັບ 100
▁ອອນ 100
▁ອະນ 100
▁ເສດ 100
akarn 100
china 100
ching 100
elfie 100
imber 100
mania 100
meter 100
onent 100
oshop 100
rozen 100
undsv 100
width 100
ຂາຍໃນ 100
ນິຍົມ 100
ປະມວນ 100
ສະກັດ 100
ັກສູດ 100
ຽບທຽບ 100
▁0,5% 100
▁3200 100
▁5588 100
▁Circ 100
▁Coff 100
▁Cổng 100
▁Dian 100
▁Dino 100
▁Encr 100
▁Film 100
▁Fold 100
▁Golf 100
▁Gong 100
▁Good 100
▁HPLC 100
▁Hiệp 100
▁Josh 100
▁Lady 100
▁Màng 100
▁Para 100
▁Pass 100
▁Pupp 100
▁Russ 100
▁Sexy 100
▁Sòng 100
▁Taxi 100
▁Trao 100
▁Vịnh 100
▁XUẤT 100
▁cake 100
▁chùm 100
▁cong 100
▁khói 100
▁khốn 100
▁kids 100
▁lũng 100
▁lưỡi 100
▁nitơ 100
▁pháo 100
▁quái 100
▁rung 100
▁rừng 100
▁thun 100
▁Đoàn 100
▁đinh 100
▁đống 100
▁ຖິ້ມ 100
▁ປ່ອງ 100
▁ຢ້ານ 100
▁ຫວັງ 100
▁ເກາະ 100
▁ໂຫຼດ 100
clogic 100
icator 100
loader 100
ugated 100
ushion 100
ຄອບຄົວ 100
ຄໍາຖາມ 100
ພາກຮຽນ 100
ລາຍການ 100
ຫົວຂໍ້ 100
ເຫຍື້ອ 100
ເຫລືອງ 100
ເອີຣົບ 100
້ວາງໃຈ 100
▁Activ 100
▁Adobe 100
▁Angle 100
▁Bosun 100
▁Brand 100
▁Canon 100
▁Codes 100
▁Cyber 100
▁Ether 100
▁Filed 100
▁Front 100
▁Green 100
▁Input 100
▁Lotus 100
▁MOTOR 100
▁Mario 100
▁Meter 100
▁Nexus 100
▁Nhiệm 100
▁Peter 100
▁Pharm 100
▁Quart 100
▁Randy 100
▁Solid 100
▁Stick 100
▁Upper 100
▁Vegas 100
▁clamp 100
▁elect 100
▁mFort 100
▁ngạch 100
▁thạch 100
▁trăng 100
▁vinyl 100
▁ການກະ 100
▁ນະຄອນ 100
▁ຫນ້ອຍ 100
▁ໃນການ 100
ຕາຕະລາງ 100
ນີ້ແມ່ນ 100
ນ້ໍາມັນ 100
ປະເທດໄທ 100
ພື້ນທີ່ 100
ຫ້ອງການ 100
ແຂ່ງຂັນ 100
ແວດລ້ອມ 100
▁0755-2 100
▁Applic 100
▁Button 100
▁Client 100
▁Coupon 100
▁Duster 100
▁Equina 100
▁Intell 100
▁Jersey 100
▁Keygen 100
▁Laptop 100
▁Market 100
▁Martin 100
▁Phosph 100
▁Plugin 100
▁Sealed 100
▁Sleeve 100
▁Taslan 100
▁ການຄ້າ 100
▁ຄວບຄຸມ 100
▁ຕົ້ນຕໍ 100
▁ທໍາອິດ 100
▁ອອກຈາກ 100
▁ອະນາໄມ 100
inthians 100
ປະມວນຜົນ 100
ຜູ້ເຂົ້າ 100
ສະກົດຈິດ 100
▁Acetate 100
▁Austral 100
▁Medical 100
▁Mozilla 100
▁Nigeria 100
▁Profile 100
▁Slotjar 100
▁Trolley 100
▁Webcams 100
▁rikoooo 100
▁ດໍາເນີນ 100
▁ປະຕິທິນ 100
▁ພື້ນຖານ 100
▁ລາຄາຂາຍ 100
▁ຫຼັງຈາກ 100
▁ຮ່າງກາຍ 100
▁ແບ່ງປັນ 100
ທົນທານຕໍ່ 100
▁80.0.180 100
▁Hangzhou 100
▁LinkedIn 100
▁Magnetic 100
▁RayHaber 100
▁Shepherd 100
▁Shopping 100
▁Snapchat 100
▁Stepping 100
▁Threaded 100
▁mFortune 100
▁ກິດຈະກໍາ 100
▁ລະບົບການ 100
:86-0755-2 100
ຂອງບໍລິສັດ 100
▁Component 100
▁Guangzhou 100
▁Litbright 100
▁Packaging 100
▁September 100
▁Zhongshan 100
▁ເດືອນມີນາ 100
▁Foundation 100
▁Industries 100
▁MetaTrader 100
▁ການເຮັດວຽກ 100
▁Corinthians 100
▁ດໍາລົງຊີວິດ 100
▁ນະໂຍບາຍຄວາມ 100
▁ບົດຄວາມຕໍ່ໄປ 100
▁ມະຫາວິທະຍາໄລ 100
▁ລະບົບຕ່ອງໂສ້ 100
▁polypropylene 100
▁ເປັນຫຍັງເລືອກ 100
▁ພັດທະນາການຜະລິດ 100
07 100
4" 100
BB 100
BK 100
CF 100
FI 100
HI 100
HQ 100
SW 100
WW 100
YS 100
ga 100
jo 100
no 100
ຄູ 100
ປູ 100
ện 100
,5% 100
-28 100
-32 100
-4) 100
-58 100
.13 100
.31 100
.72 100
.74 100
007 100
008 100
014 100
019 100
152 100
19) 100
213 100
219 100
313 100
325 100
44) 100
60, 100
905 100
955 100
:38 100
:59 100
ALL 100
ASH 100
ASS 100
CCA 100
ERN 100
Khi 100
OSH 100
PAL 100
Sol 100
ado 100
agm 100
aic 100
aid 100
ait 100
ato 100
beh 100
gow 100
hon 100
iva 100
ket 100
los 100
orp 100
pad 100
phr 100
rar 100
rif 100
rot 100
saw 100
ugu 100
vis 100
xml 100
ຈະສ 100
ຊວງ 100
ຕີນ 100
ທູບ 100
ທຽມ 100
ພະນ 100
ວຽນ 100
ສິກ 100
ຮອດ 100
ເນຍ 100
ໃກ້ 100
▁$2 100
▁5% 100
▁73 100
▁74 100
▁<0 100
▁<6 100
▁BT 100
▁Bề 100
▁CI 100
▁Cọ 100
▁KO 100
▁LI 100
▁Ni 100
▁Sẽ 100
▁bã 100
▁fr 100
▁hi 100
▁hư 100
▁ip 100
▁lê 100
▁pp 100
▁rỉ 100
▁wr 100
▁ຊູ 100
▁ໄກ 100
!!!! 100
36"> 100
69"> 100
="17 100
Drop 100
ECOV 100
EJIA 100
Espa 100
INCE 100
Mark 100
View 100
ades 100
atte 100
comb 100
door 100
elle 100
etra 100
hoặc 100
icol 100
inek 100
odeg 100
orge 100
oric 100
phia 100
puff 100
stop 100
tics 100
unge 100
ກາເຟ 100
ກ່າວ 100
ຄວ້າ 100
ທໍານ 100
ມ້ວນ 100
ລ້ຽງ 100
ອ້າງ 100
ເຕີ້ 100
ເມສາ 100
ໂດລາ 100
ໃນປີ 100
▁(64 100
▁-25 100
▁061 100
▁127 100
▁2-8 100
▁235 100
▁245 100
▁3.6 100
▁40% 100
▁530 100
▁635 100
▁Ali 100
▁Are 100
▁Bio 100
▁Ble 100
▁CCN 100
▁Cad 100
▁CẢM 100
▁Dia 100
▁FOR 100
▁Fei 100
▁Ghé 100
▁Gấp 100
▁Kéo 100
▁LÀM 100
▁Lấy 100
▁Mol 100
▁Nau 100
▁Pak 100
▁Pas 100
▁Phu 100
▁Rig 100
▁Sal 100
▁Sus 100
▁TPR 100
▁Tad 100
▁Vai 100
▁Vim 100
▁bực 100
▁cốc 100
▁cục 100
▁dép 100
▁hẹp 100
▁lúa 100
▁lăm 100
▁lụa 100
▁ném 100
▁pen 100
▁set 100
▁sop 100
▁squ 100
▁sốc 100
▁tre 100
▁tím 100
▁tựa 100
▁vun 100
▁vân 100
▁Đan 100
▁Đứa 100
▁đáo 100
▁ກາວ 100
▁ຈິກ 100
▁ຈົນ 100
▁ນອນ 100
▁ສິບ 100
▁ສີ່ 100
▁ຫານ 100
▁ຫ້າ 100
▁ແດ່ 100
▁ໃຕ້ 100
-1200 100
-1530 100
-2016 100
-21-6 100
9001, 100
arium 100
aving 100
cloud 100
droxy 100
earch 100
ifier 100
itian 100
reenh 100
watch 100
zania 100
ສະມາດ 100
ູ້ນໍາ 100
ເຊັ່ນ 100
▁0.02 100
▁0.45 100
▁12.5 100
▁146* 100
▁2.0% 100
▁2021 100
▁2300 100
▁2400 100
▁3600 100
▁5.50 100
▁Anch 100
▁Biên 100
▁Bông 100
▁Cell 100
▁Chaw 100
▁Comm 100
▁Core 100
▁DRCW 100
▁Dụng 100
▁Eric 100
▁Foot 100
▁Gian 100
▁Gift 100
▁Gram 100
▁Grow 100
▁JACK 100
▁Lamp 100
▁Mary 100
▁Mike 100
▁PART 100
▁Phẩm 100
▁Quân 100
▁Shut 100
▁Spir 100
▁Vlad 100
▁bolt 100
▁cart 100
▁chẩn 100
▁cool 100
▁dâng 100
▁giam 100
▁giãi 100
▁giỏi 100
▁gạch 100
▁khái 100
▁liều 100
▁lướt 100
▁ngón 100
▁ngục 100
▁nhạy 100
▁prof 100
▁rơle 100
▁size 100
▁tàng 100
▁vành 100
▁xoay 100
▁Đáng 100
▁ເຮືອ 100
▁ແຂ່ງ 100
▁ແຈ້ງ 100
▁ແຟັກ 100
▁ໂທຫາ 100
▁ໃນປີ 100
atural 100
ensile 100
ooster 100
ortele 100
phragm 100
ຄົ້ນຫາ 100
ຈັດການ 100
ຢູ່ທີ່ 100
ລາສສິກ 100
ສົມບູນ 100
ຫົນທາງ 100
ະສິກໍາ 100
ໂຕຣນິກ 100
▁0.867 100
▁30000 100
▁50/60 100
▁50000 100
▁86-13 100
▁Adder 100
▁Alpha 100
▁Audio 100
▁Break 100
▁Broad 100
▁Capac 100
▁Click 100
▁Georg 100
▁Honda 100
▁Honey 100
▁Jerry 100
▁Nhanh 100
▁Patch 100
▁Plush 100
▁Rally 100
▁Sling 100
▁Soken 100
▁TRUST 100
▁Thích 100
▁Trách 100
▁Tuyển 100
▁flute 100
▁khuỷu 100
▁sight 100
▁titan 100
▁water 100
▁ຊອກຫາ 100
ECOVERY 100
odegrad 100
youtube 100
ຖ່າຍຮູບ 100
ທະນະທໍາ 100
ເມີນຜົນ 100
ໃຫມ່ຂອງ 100
▁43.0.2 100
▁Dollar 100
▁Greenh 100
▁Iphone 100
▁Others 100
▁Oxygen 100
▁PAYPAL 100
▁Random 100
▁Sponge 100
▁Suzuki 100
▁Transp 100
▁WinRAR 100
▁iTunes 100
▁khoang 100
▁ngưỡng 100
▁ດຽວນີ້ 100
▁ສະຫມັກ 100
▁ແບບຟອມ 100
SlotSite 100
adelphia 100
cryptocr 100
izitinek 100
ກ່ຽວຂ້ອງ 100
ພາດສະຕິກ 100
ວາງສະແດງ 100
▁0086-13 100
▁Caravan 100
▁Colonel 100
▁Contact 100
▁Modular 100
▁Project 100
▁Remover 100
▁Thunder 100
▁Venturi 100
▁website 100
▁ຂ່າວສານ 100
▁ຂ້ອຍບໍ່ 100
▁ຊື່ເຄມີ 100
▁ປົກກະຕິ 100
▁ຫມາຍເຫດ 100
clogiccom 100
ຄຣິດສະມາດ 100
ຄົນອັບເດດ 100
▁FaceTime 100
▁November 100
▁ນັກສຶກສາ 100
▁ອົງປະກອບ 100
ຫນ້າທໍາອິດ 100
ເລັກໂຕຣນິກ 100
▁Chawakarn 100
▁Discovery 100
▁saxophone 100
▁ຂະຫນາດຂອງ 100
▁ຄຸນສົມບັດ 100
▁ຜົນໄດ້ຮັບ 100
▁ລະຫັດຜ່ານ 100
▁ໃບອະນຸຍາດ 100
:86-0755-28 100
apublicidad 100
odegradable 100
ສາດສະຫນາຈັກ 100
▁Extensions 100
▁VirtualBox 100
▁insulation 100
▁microfiber 100
▁ການແກ້ໄຂໃນ 100
▁ຂອງພວກເຮົາ 100
............ 100
▁TopSlotSite 100
▁trclogiccom 100
▁ອຸປະກອນເສີມ 100
▁Buddhatrends 100
▁Philadelphia 100
▁ລະດັບຄວາມສູງ 100
izitinekortele 100
ແລະຄວາມຕ້ອງການ 100
▁ນ້ໍາຫນັກສຸດທິ 100
▁ອັບເດດຫຼ້າສຸດ 100
▁ບົດຄວາມທີ່ຜ່ານ 100
BT 100
FT 100
GM 100
GP 100
HT 100
KO 100
RN 100
RP 100
TO 100
cz 100
eh 100
je 100
mh 100
qq 100
xx 100
ຈມ 100
ແຊ 100
່ຍ 100
ớc 100
ụt 100
-83 100
-9) 100
.27 100
.75 100
.77 100
/08 100
013 100
127 100
20) 100
206 100
255 100
404 100
408 100
50) 100
705 100
707 100
750 100
804 100
994 100
:09 100
:50 100
ECT 100
FCL 100
Get 100
ITS 100
NET 100
UNG 100
apt 100
chi 100
edi 100
egu 100
mas 100
mic 100
mmX 100
olv 100
oob 100
ova 100
trl 100
uda 100
uko 100
zhu 100
ກອບ 100
ຂັດ 100
ທອງ 100
ນເດ 100
ບຸນ 100
ປາກ 100
ປິນ 100
ຟລີ 100
ສີ່ 100
ແກ້ 100
ແຍກ 100
▁#1 100
▁// 100
▁8) 100
▁BK 100
▁BV 100
▁Bé 100
▁Dư 100
▁Hm 100
▁Iv 100
▁NP 100
▁OM 100
▁PI 100
▁Rh 100
▁SX 100
▁Sô 100
▁UH 100
▁WJ 100
▁XX 100
▁ZD 100
▁af 100
▁tơ 100
▁uy 100
▁vú 100
▁xà 100
▁ám 100
▁ຈໍ 100
▁ດູ 100
▁ແຄ 100
▁ແມ 100
▁ủy 100
-250 100
-380 100
015@ 100
Fran 100
Tiến 100
Wave 100
agle 100
anel 100
anes 100
atri 100
auge 100
ault 100
cing 100
comm 100
ebar 100
enny 100
ests 100
lose 100
loth 100
nhai 100
ront 100
uric 100
utan 100
ກິ່ງ 100
ຄັ້ງ 100
ຈມຕີ 100
ຈຶ່ງ 100
ຊິ້ນ 100
ດັ່ງ 100
ປ້າຍ 100
ຫລາດ 100
ະການ 100
ຸມັດ 100
ເຈ້ຍ 100
ເທົາ 100
ເບີກ 100
▁0-5 100
▁148 100
▁192 100
▁22: 100
▁325 100
▁334 100
▁390 100
▁5.2 100
▁518 100
▁720 100
▁780 100
▁8.8 100
▁950 100
▁99% 100
▁Abs 100
▁Bad 100
▁Bor 100
▁Bức 100
▁CÁC 100
▁DIY 100
▁DMD 100
▁EEC 100
▁FRP 100
▁Fog 100
▁Giỏ 100
▁Her 100
▁Hub 100
▁Huy 100
▁Khí 100
▁Kun 100
▁Lug 100
▁Lâm 100
▁Nav 100
▁Nit 100
▁Ram 100
▁STE 100
▁Sắp 100
▁TEM 100
▁Tầm 100
▁VCI 100
▁VPS 100
▁WCB 100
▁Wan 100
▁Xác 100
▁bội 100
▁cấy 100
▁cởi 100
▁gạo 100
▁gập 100
▁gối 100
▁har 100
▁keo 100
▁key 100
▁lát 100
▁par 100
▁pcb 100
▁quỹ 100
▁rad 100
▁ste 100
▁súc 100
▁trễ 100
▁vấp 100
▁vất 100
▁xâm 100
▁xóa 100
▁Đảm 100
▁Đầm 100
▁Đột 100
▁ຊາດ 100
▁ຍອດ 100
▁ທິດ 100
▁ນົກ 100
▁ປັນ 100
▁ພືດ 100
▁ສາກ 100
▁ຫມໍ 100
89.00 100
="1.2 100
Adele 100
Flare 100
Không 100
abase 100
aller 100
alves 100
aruto 100
eroon 100
field 100
haber 100
hours 100
ibaba 100
ining 100
ordan 100
oshan 100
paper 100
pport 100
tdown 100
ປະດັບ 100
ພະນັນ 100
ເທົ່າ 100
ແລະສີ 100
▁(1,0 100
▁10.1 100
▁1280 100
▁1550 100
▁1950 100
▁Acer 100
▁Aich 100
▁Biến 100
▁Carl 100
▁Cass 100
▁Dept 100
▁Door 100
▁Duty 100
▁FIFA 100
▁FXCC 100
▁Fish 100
▁Ford 100
▁Giày 100
▁Hill 100
▁Hung 100
▁Info 100
▁Insp 100
▁Khăn 100
▁MACH 100
▁MPPT 100
▁Nema 100
▁Nhạc 100
▁Qian 100
▁TCCA 100
▁Toán 100
▁Whit 100
▁Wifi 100
▁WinM 100
▁chốc 100
▁dũng 100
▁hoãn 100
▁hoại 100
▁khéo 100
▁mill 100
▁măng 100
▁ngơi 100
▁nhấp 100
▁nhịp 100
▁ofer 100
▁over 100
▁roll 100
▁rách 100
▁snow 100
▁stud 100
▁tart 100
▁thẩm 100
▁tiệc 100
▁đoạt 100
▁ຍື່ນ 100
▁ດ້ານ 100
▁ທະນາ 100
▁ລຸ້ນ 100
▁ແຂ້ວ 100
▁ແຕ້ມ 100
▁ແຫ່ງ 100
307302 100
acelet 100
lastic 100
otland 100
ottery 100
plorer 100
setnet 100
ຈະເປັນ 100
ເອັນຊີ 100
ໂຮງງານ 100
▁(866) 100
▁2017. 100
▁Chrom 100
▁Crazy 100
▁Hoang 100
▁Holms 100
▁Jumbo 100
▁Magic 100
▁Mahar 100
▁Maria 100
▁Minne 100
▁Monop 100
▁Ninja 100
▁Posts 100
▁Razor 100
▁Shack 100
▁Templ 100
▁Times 100
▁Turbo 100
▁brush 100
▁phụng 100
▁relay 100
▁tuyên 100
▁twill 100
▁ກະດານ 100
▁ທະຫານ 100
▁ບັນດາ 100
▁ປະມານ 100
▁ສັກຢາ 100
▁ສິດທິ 100
▁ອົງສາ 100
atrader 100
duction 100
enolone 100
ography 100
ຄໍາສັ່ງ 100
ຮູບເງົາ 100
ເຂົ້າໃຈ 100
▁Airbus 100
▁Berlin 100
▁Buckle 100
▁Chuyện 100
▁Expert 100
▁Mexico 100
▁Module 100
▁Munich 100
▁Pusher 100
▁Resort 100
▁Robert 100
▁Summer 100
▁Supply 100
▁Vladim 100
▁ກະລຸນາ 100
▁ປັບປຸງ 100
▁ລໍາໂພງ 100
▁ສິນຄ້າ 100
▁ໂຮງງານ 100
▁ໃນໄລຍະ 100
elerator 100
otrading 100
uancheng 100
undsvall 100
ຄວາມເຢັນ 100
ວກເຮົາມີ 100
▁0086-15 100
▁Adapter 100
▁Advance 100
▁Charles 100
▁Classic 100
▁Extract 100
▁Fenghua 100
▁Glasgow 100
▁Graphic 100
▁Optical 100
▁TRUSTED 100
▁Website 100
▁Wedding 100
▁Zhenhai 100
▁trailer 100
▁venturi 100
▁ກາງແຈ້ງ 100
▁ຄລາສສິກ 100
▁ຄວາມສຸກ 100
▁ຈົດຫມາຍ 100
▁ສະຖາບັນ 100
▁ສະມາຊິກ 100
▁ຮູບຮ່າງ 100
photoreal 100
ຊອບແວຫຼາຍ 100
▁0086-574 100
▁American 100
▁Globalso 100
▁Intellig 100
▁Stamping 100
▁Tanzania 100
▁beadlock 100
▁citycoco 100
▁ພິຈາລະນາ 100
ສໍາເລັດຂອງ 100
▁Extension 100
▁Protector 100
▁Websetnet 100
▁ການສະເຫນີ 100
▁ຄວາມລະອຽດ 100
▁ຊ່ວຍເຫຼືອ 100
▁CloudFlare 100
▁Controller 100
▁Metatrader 100
▁Soundcloud 100
▁ອິນເຕີເນັດ 100
▁ເດືອນທັນວາ 100
ການຝຶກອົບຮົມ 100
ດ້ານຜົນກະທົບ 100
▁Colonelwing 100
▁Minneapolis 100
▁polyethylene 100
▁ການນໍາສະເຫນີ 100
▁ຈໍານວນຜູ້ເຂົ້າ 100
▁ເບິ່ງຊອບແວຫຼາຍ 100
"] 100
-> 100
Bo 100
CR 100
DB 100
NE 100
SG 100
Us 100
XI 100
xt 100
ÀI 100
òm 100
ýt 100
ຄໍ 100
ຖບ 100
▁q 100
-34 100
-37 100
-56 100
-6) 100
-92 100
.39 100
.55 100
.98 100
10- 100
116 100
159 100
17, 100
20, 100
205 100
231 100
308 100
319 100
326 100
356 100
728 100
75) 100
8"> 100
8-1 100
8.8 100
90) 100
99, 100
998 100
ARE 100
ATE 100
Cân 100
LES 100
Nhà 100
ORK 100
ORT 100
OWN 100
Out 100
Sec 100
YRT 100
ams 100
aus 100
chn 100
cut 100
dam 100
emy 100
ful 100
gov 100
hrs 100
iOS 100
icy 100
ilt 100
kia 100
mVp 100
ofa 100
oxy 100
rui 100
run 100
tes 100
tin 100
ubs 100
val 100
với 100
ylv 100
ກອນ 100
ຂອບ 100
ຊວນ 100
ຕຽງ 100
ທີມ 100
ອາງ 100
ອີງ 100
ິຈິ 100
ີເມ 100
ົ່ນ 100
ແກນ 100
ແກະ 100
ແນກ 100
່ອມ 100
ếch 100
▁-> 100
▁BB 100
▁CX 100
▁DG 100
▁Dj 100
▁FD 100
▁GA 100
▁GT 100
▁HC 100
▁IB 100
▁IV 100
▁KJ 100
▁Pt 100
▁Rơ 100
▁SM 100
▁Tv 100
▁Ut 100
▁XM 100
▁ev 100
▁fo 100
▁mỏ 100
▁os 100
▁ws 100
▁óc 100
▁ôn 100
▁ໂຟ 100
-0.6 100
-10) 100
-180 100
.500 100
1100 100
37"> 100
67"> 100
73"> 100
="3. 100
Braz 100
EMIC 100
GEAR 100
High 100
LINE 100
PPER 100
acer 100
ason 100
bang 100
digy 100
emen 100
etic 100
fect 100
flow 100
iful 100
igan 100
imum 100
ique 100
kins 100
mesh 100
news 100
odia 100
onav 100
ream 100
rule 100
uary 100
ways 100
ylum 100
ômét 100
ຊື່ອ 100
ປະຊາ 100
ຢ້ານ 100
ລີ່ຍ 100
ລ້າງ 100
ຫຍິບ 100
ຮ້າຍ 100
ື້ອງ 100
ເກົາ 100
ເວັບ 100
ໂປໂລ 100
▁#10 100
▁$20 100
▁132 100
▁138 100
▁3,5 100
▁3.8 100
▁430 100
▁5,5 100
▁5.3 100
▁6,5 100
▁80% 100
▁9.6 100
▁960 100
▁AWS 100
▁Abu 100
▁Arc 100
▁Aud 100
▁Bed 100
▁Bob 100
▁Bụi 100
▁CWS 100
▁Don 100
▁DÂY 100
▁EFL 100
▁ESD 100
▁Env 100
▁FMS 100
▁Fai 100
▁Fed 100
▁Fun 100
▁GJJ 100
▁Hóa 100
▁JPG 100
▁Jud 100
▁Len 100
▁Lim 100
▁Lov 100
▁Luc 100
▁Lôn 100
▁Mei 100
▁Mất 100
▁NHI 100
▁NYE 100
▁Pic 100
▁Rez 100
▁Rio 100
▁Rub 100
▁Rug 100
▁SAE 100
▁Sai 100
▁Sir 100
▁Tie 100
▁Vài 100
▁Wax 100
▁Yun 100
▁bấy 100
▁bẩy 100
▁bắc 100
▁bốc 100
▁day 100
▁dec 100
▁dặm 100
▁dội 100
▁hét 100
▁log 100
▁lõi 100
▁max 100
▁nhi 100
▁nón 100
▁quê 100
▁tọa 100
▁voi 100
▁Đạo 100
▁ກົກ 100
▁ດົນ 100
▁ທົບ 100
▁ບອກ 100
▁ບາຍ 100
▁ຟ້າ 100
▁ມັງ 100
▁ລວດ 100
▁ສອບ 100
▁ແຂງ 100
▁ແນະ 100
▁ໄຫຼ 100
-2009 100
-6000 100
="1.4 100
Class 100
Cloud 100
Falls 100
aight 100
ample 100
ashfl 100
burgh 100
ccion 100
eedle 100
eland 100
ellow 100
games 100
gmail 100
ipple 100
otein 100
other 100
shirt 100
utsch 100
water 100
woven 100
ກວດກາ 100
ຄອນເທ 100
ຊີບໃນ 100
ປະລາດ 100
ສັກຢາ 100
ສີດໍາ 100
ຫນຸ່ມ 100
ິງຕັນ 100
ໂດເມນ 100
▁2800 100
▁4800 100
▁5.00 100
▁Actu 100
▁Arab 100
▁Axis 100
▁BLDC 100
▁Bldg 100
▁Chan 100
▁Chim 100
▁Cạnh 100
▁Diff 100
▁Disk 100
▁EPDM 100
▁Fang 100
▁Fest 100
▁Gard 100
▁Heat 100
▁HÀNH 100
▁Ital 100
▁Moon 100
▁Nông 100
▁Plan 100
▁Rain 100
▁RoHS 100
▁Shim 100
▁TGGD 100
▁TSJS 100
▁Tiết 100
▁Tuân 100
▁Xbox 100
▁Xung 100
▁buýt 100
▁bênh 100
▁bụng 100
▁chay 100
▁corr 100
▁dược 100
▁hard 100
▁hell 100
▁hước 100
▁muộn 100
▁ngắt 100
▁nhăn 100
▁ruột 100
▁rãnh 100
▁show 100
▁thắt 100
▁vồng 100
▁đằng 100
▁đụng 100
▁ຂ້ອງ 100
▁ຖ່ານ 100
▁ຫມວກ 100
▁ຫມຶກ 100
▁ອ້າຍ 100
▁ຮ້າຍ 100
▁ເພາະ 100
▁ເຫນີ 100
EJIANG 100
aratus 100
eshine 100
estane 100
ipedia 100
ipstop 100
leated 100
ometer 100
usheng 100
ການຊື້ 100
ກໍລະນີ 100
ຄາສິໂນ 100
ດອກໄມ້ 100
ທາລະນະ 100
ທີ່ບໍ່ 100
ທໍານຽມ 100
ບວນການ 100
ລາຍຊື່ 100
ສໍາອາງ 100
ານາຈັກ 100
ເສລີ່ຍ 100
▁+8618 100
▁----- 100
▁17:00 100
▁2013, 100
▁50-60 100
▁Bingo 100
▁Brown 100
▁Champ 100
▁Clean 100
▁Franc 100
▁Gương 100
▁Henry 100
▁Lathe 100
▁Liang 100
▁MySQL 100
▁Nauki 100
▁Ngươi 100
▁Penny 100
▁Quang 100
▁Rayon 100
▁Spect 100
▁TRANG 100
▁Tutor 100
▁Vimeo 100
▁chiếm 100
▁pulse 100
▁silic 100
▁thung 100
▁xưởng 100
▁ກໍາໄລ 100
▁ຄວາມຊ 100
▁ທີ່ມີ 100
▁ຫນຸ່ມ 100
▁ອາຊຽນ 100
▁ເນື້ອ 100
▁ໂອກາດ 100
2020-03 100
Lottery 100
ategory 100
cciones 100
ichrist 100
ຄວາມຫນາ 100
ປັບແຕ່ງ 100
ສຸຂະພາບ 100
▁$89.00 100
▁(5-10) 100
▁86-757 100
▁Anchor 100
▁Charge 100
▁Columb 100
▁Corner 100
▁Cosmos 100
▁Gaming 100
▁Hashfl 100
▁Heroes 100
▁Jordan 100
▁Methyl 100
▁Nevada 100
▁Pepper 100
▁Python 100
▁Schuko 100
▁Valves 100
▁harley 100
▁jacket 100
▁khuynh 100
▁khuyết 100
▁pixels 100
▁ກາງເກງ 100
▁ການຕອບ 100
▁ຄໍາສັບ 100
▁ໄວລຸ້ນ 100
.09.2013 100
ທໍາມະຊາດ 100
ສະກັດຈາກ 100
ົດສະຕາລີ 100
ເຫມາະສົມ 100
▁Cleaner 100
▁Coating 100
▁Houston 100
▁Jiulong 100
▁Kitchen 100
▁Pattern 100
▁Podcast 100
▁Replica 100
▁Rotator 100
▁Tianept 100
▁bassoon 100
▁kilômét 100
▁reprodu 100
▁ຄວາມງາມ 100
▁ດູດຝຸ່ນ 100
▁ທະນາຄານ 100
▁ເງິນກູ້ 100
▁ເຕົາອົບ 100
ການທົດສອບ 100
ຄອນເທນເນີ 100
ເຄື່ອງພິມ 100
▁Adventus 100
▁Bearings 100
▁Business 100
▁Cameroon 100
▁Detector 100
▁Featured 100
▁Fenglong 100
▁Terminal 100
▁Virginia 100
▁ZHEJIANG 100
▁ທາງເລືອກ 100
▁ສິດທິພາບ 100
ຄວາມກົດດັນ 100
ປະຕິບັດການ 100
ປະສິດທິພາບ 100
▁Australia 100
▁Chengyang 100
▁CoinFalls 100
▁Countdown 100
▁Hashflare 100
▁Hongwugas 100
▁Monoplace 100
▁Photoshop 100
▁Technical 100
▁Transposh 100
▁Wordpress 100
▁ຄ່າທໍານຽມ 100
▁ໄດ້ຕະຫຼອດ 100
▁Greenhouse 100
▁ຂໍ້ກໍາຫນົດ 100
▁ລາຄາປະກະຕິ 100
▁ລາຄາເສລີ່ຍ 100
▁ວັດທະນະທໍາ 100
ເຮັດຄວາມເຢັນ 100
▁Instruments 100
▁ຄວາມແມ່ນຍໍາ 100
▁ວິທີການສ້າງ 100
▁ສິດທິພາບສູງ 100
▁Professional 100
▁ກັບຄືນໄປບ່ອນ 100
▁ຄວາມເຂັ້ມແຂງ 100
▁ໃບຢັ້ງຢືນການ 100
▁ເຂົ້າສູ່ລະບົບ 100
▁ເງິນຝາກຄໍາວ່າ 100
▁Cryptocurrency 100
▁ຄວາມສາມາດໃນການ 100
.’ 100
6- 100
Ba 100
Op 100
SM 100
Si 100
XE 100
cu 100
gg 100
gl 100
kn 100
rs 100
vv 100
zi 100
ÀN 100
ês 100
ĩu 100
ກີ 100
ພໍ 100
ຢູ 100
ຣາ 100
ວີ 100
ໂຊ 100
-87 100
/03 100
01) 100
011 100
10) 100
108 100
131 100
198 100
284 100
3-2 100
306 100
33. 100
35, 100
366 100
4.2 100
41) 100
443 100
45) 100
485 100
6.5 100
603 100
772 100
802 100
806 100
88. 100
90% 100
902 100
980 100
:03 100
:04 100
ACH 100
ATA 100
Col 100
ECH 100
ECO 100
ISO 100
Mon 100
PCV 100
POT 100
RPM 100
VDC 100
aux 100
bie 100
but 100
che 100
eer 100
err 100
ewe 100
fid 100
fil 100
gie 100
ibe 100
icr 100
idi 100
ocs 100
olf 100
oug 100
shu 100
uli 100
ÀNH 100
ດິບ 100
ດຶງ 100
ພຸດ 100
ມຸມ 100
ີນິ 100
ຽວກ 100
ເຈຍ 100
ເຈນ 100
ແຜ່ 100
ẵng 100
▁#8 100
▁'* 100
▁** 100
▁:) 100
▁Aj 100
▁BP 100
▁Bể 100
▁DW 100
▁GF 100
▁HE 100
▁HK 100
▁JF 100
▁LP 100
▁MK 100
▁MN 100
▁NF 100
▁NV 100
▁RT 100
▁Vô 100
▁XE 100
▁hr 100
▁hố 100
▁jw 100
▁ok 100
▁rc 100
▁si 100
▁sỹ 100
▁us 100
▁uv 100
▁vỗ 100
▁đà 100
▁ຈຸ 100
▁ຊາ 100
▁ໂພ 100
-002 100
-360 100
-738 100
3.40 100
4000 100
:86- 100
ache 100
afil 100
ahoo 100
aked 100
arge 100
atar 100
atiu 100
away 100
body 100
chin 100
eral 100
gant 100
gles 100
habi 100
ibon 100
mill 100
ocus 100
oman 100
otal 100
rice 100
rink 100
urai 100
uyao 100
ysis 100
ຊ່ອງ 100
ພລາສ 100
ລາມິ 100
ສະຫຼ 100
ະພາດ 100
ີເມວ 100
ເຊັນ 100
ເຊີຍ 100
ເພັດ 100
ເລີກ 100
▁(16 100
▁(22 100
▁(29 100
▁(76 100
▁0-4 100
▁025 100
▁086 100
▁107 100
▁117 100
▁152 100
▁159 100
▁165 100
▁189 100
▁20' 100
▁21. 100
▁290 100
▁3-4 100
▁3-8 100
▁303 100
▁311 100
▁447 100
▁45, 100
▁460 100
▁520 100
▁525 100
▁580 100
▁6.1 100
▁98% 100
▁ACC 100
▁ATA 100
▁Blo 100
▁Bra 100
▁Bát 100
▁CAO 100
▁Cin 100
▁Cậu 100
▁Cặp 100
▁DMC 100
▁DVR 100
▁Def 100
▁Dur 100
▁Dyn 100
▁Dấu 100
▁Fir 100
▁Fut 100
▁Gam 100
▁Gel 100
▁Hắn 100
▁IAA 100
▁ICO 100
▁IPG 100
▁JPY 100
▁Kev 100
▁Kid 100
▁Kop 100
▁Lai 100
▁Lub 100
▁Lun 100
▁Mực 100
▁NHÀ 100
▁Nên 100
▁Nền 100
▁Ped 100
▁Pig 100
▁Que 100
▁SEK 100
▁Sin 100
▁Sky 100
▁Sắt 100
▁TRƯ 100
▁Thi 100
▁Tod 100
▁Tắt 100
▁Vac 100
▁Vel 100
▁Vil 100
▁Vít 100
▁XHY 100
▁YES 100
▁aut 100
▁bia 100
▁csg 100
▁cắn 100
▁dẹp 100
▁lbs 100
▁lây 100
▁mol 100
▁nhã 100
▁nom 100
▁not 100
▁năn 100
▁nạp 100
▁nếp 100
▁nệm 100
▁pip 100
▁tab 100
▁tag 100
▁ván 100
▁xám 100
▁xốp 100
▁ຄົງ 100
▁ຈັບ 100
▁ຊົນ 100
▁ຍອມ 100
▁ນາມ 100
▁ຜັກ 100
▁ຜິວ 100
▁ຝຶກ 100
▁ພວງ 100
▁ຟລີ 100
▁ມິນ 100
▁ມຸງ 100
▁ລົບ 100
▁ສາວ 100
▁ເຕີ 100
▁ແຜ່ 100
▁ໂຊກ 100
▁ໂຕນ 100
-2013 100
-3015 100
-9033 100
/2020 100
1,000 100
769-8 100
Những 100
PCVET 100
Shell 100
achin 100
acing 100
acket 100
actiC 100
echat 100
erine 100
ictor 100
ikora 100
names 100
onald 100
order 100
ottle 100
riend 100
rifug 100
uking 100
uteng 100
verin 100
ກາຕູນ 100
ຊະນິດ 100
ທິການ 100
ປຶກສາ 100
ຝຣັ່ງ 100
ລະບຽບ 100
ົ່ງຫຍ 100
ຽວກັນ 100
ເກົ່າ 100
ເຊົ່າ 100
ເຊົ້າ 100
▁---- 100
▁1548 100
▁1914 100
▁2001 100
▁2100 100
▁8:30 100
▁Base 100
▁Bath 100
▁Beau 100
▁Boom 100
▁Bulb 100
▁CTNS 100
▁Chúc 100
▁Club 100
▁Coat 100
▁Coca 100
▁Dail 100
▁Dash 100
▁Dual 100
▁Dyed 100
▁Ease 100
▁Euro 100
▁Falk 100
▁Foil 100
▁Gate 100
▁Give 100
▁Hans 100
▁Hood 100
▁Jane 100
▁Jeff 100
▁Jomo 100
▁Kang 100
▁Lace 100
▁Load 100
▁Mont 100
▁Muốn 100
▁Mạch 100
▁NGÀY 100
▁Nghị 100
▁PPGI 100
▁Ping 100
▁Root 100
▁Stop 100
▁Ther 100
▁Trạm 100
▁Twin 100
▁Wang 100
▁Xinh 100
▁chải 100
▁cont 100
▁demo 100
▁hiếm 100
▁hung 100
▁hãng 100
▁khoẻ 100
▁khôi 100
▁muối 100
▁mãnh 100
▁ngạo 100
▁ngợp 100
▁nhọc 100
▁nắng 100
▁phot 100
▁star 100
▁test 100
▁thuỷ 100
▁thơm 100
▁thạo 100
▁thầm 100
▁trào 100
▁tube 100
▁wiki 100
▁điềm 100
▁ຊະນະ 100
▁ຍ່າງ 100
▁ທ່ຽວ 100
▁ນັ່ງ 100
▁ຫິມະ 100
▁ອະນຸ 100
▁ຮ່ອງ 100
▁ເຂັມ 100
▁ເພັດ 100
▁ເລີຍ 100
▁ແລ່ນ 100
▁ແຫ້ງ 100
-18:00 100
-738-5 100
Player 100
Sample 100
anoate 100
asives 100
atcher 100
aville 100
bridge 100
engers 100
ington 100
ission 100
ithuan 100
mobile 100
orning 100
ousine 100
ການພິມ 100
ຂັບລົດ 100
ຄອມພິວ 100
ຕົ້ນຕໍ 100
ປັບປຸງ 100
ພູເຂົາ 100
ລັດເຊຍ 100
ລ່າສັດ 100
ຫມໍ້ໄຟ 100
ຫາກວ່າ 100
ຮ່ວມມື 100
ັກກິ່ງ 100
ີນິເຈີ 100
ົ່ານີ້ 100
ໂດຍກົງ 100
ໃຊ້ໄດ້ 100
▁1,000 100
▁15000 100
▁2020, 100
▁86-15 100
▁Cabin 100
▁Chima 100
▁Cloth 100
▁Cobit 100
▁Crate 100
▁Dhabi 100
▁Final 100
▁Focus 100
▁Human 100
▁Jewel 100
▁Kenya 100
▁Khổng 100
▁Logic 100
▁Louis 100
▁METAL 100
▁Matiu 100
▁Matte 100
▁Medic 100
▁Panda 100
▁Sonic 100
▁Trust 100
▁Trịnh 100
▁Worth 100
▁Yuyao 100
▁chiết 100
▁giáng 100
▁holog 100
▁luồng 100
▁ngưng 100
▁siêng 100
▁smart 100
▁spool 100
▁thịnh 100
▁trinh 100
▁virus 100
▁ພະຍາດ 100
▁ຫມັ້ນ 100
▁ອະພາດ 100
▁ເຊົ່າ 100
athable 100
charger 100
ibrator 100
olypden 100
ຄຸນະພາບ 100
ຜູ້ໃຫຍ່ 100
ລາມິເຕີ 100
ຮ່າງກາຍ 100
ົ້າຫມາຍ 100
▁8.2.35 100
▁Bucket 100
▁Domain 100
▁Editor 100
▁Handle 100
▁JobDes 100
▁Kaplan 100
▁Kosher 100
▁Marine 100
▁Meihua 100
▁Option 100
▁PRINCE 100
▁Photos 100
▁Sketch 100
▁Sports 100
▁Taylor 100
▁choáng 100
▁filter 100
▁webcam 100
▁zombie 100
▁ຕົນເອງ 100
▁ທອງແດງ 100
▁ທີ່ພັກ 100
▁ນໍາທິດ 100
▁ວັນພຸດ 100
▁ສູນເສຍ 100
▁ຮຽນຮູ້ 100
▁ເຫດການ 100
,000,000 100
actiCool 100
urethane 100
ຊື່ອີເມວ 100
ປະເພດຂອງ 100
ລາຍລະອຽດ 100
ແມ່ນຫຍັງ 100
▁Bracket 100
▁Carbide 100
▁Chengdu 100
▁Diamond 100
▁Electro 100
▁Element 100
▁Holding 100
▁JACKPOT 100
▁NCPCVET 100
▁Partner 100
▁Rolling 100
▁Russell 100
▁Textile 100
▁Vietnam 100
▁Webtalk 100
▁lithium 100
▁nghiêng 100
▁stretch 100
▁ການສ້າງ 100
▁ວັນເສົາ 100
▁ສຸດທ້າຍ 100
▁ອາຍແກັສ 100
▁ແຂ່ງລົດ 100
ການນໍາໃຊ້ 100
ເຄື່ອງຕັດ 100
ເຄື່ອນໄຫວ 100
ໄດ້ຮັບການ 100
▁0086-311 100
▁Bracelet 100
▁Explorer 100
▁Handmade 100
▁Solution 100
▁Telegram 100
▁Vladimir 100
▁Woodwind 100
▁Zhongtai 100
▁ຈຸດເດືອດ 100
▁ບ່ອນນັ່ງ 100
▁ສະພາແຫ່ງ 100
▁ອະພາດເມນ 100
ຄອມພິວເຕີ້ 100
▁Apparatus 100
▁Cambridge 100
▁Catalogue 100
▁Guangming 100
▁Powerpuff 100
▁ຂໍ້ກໍານົດ 100
▁ຊື່ຜູ້ໃຊ້ 100
▁ບົດລາຍງານ 100
▁ເດືອນຕຸລາ 100
▁ເລີ່ມຕົ້ນ 100
▁ແສງຕາເວັນ 100
▁ໂລຫະປະສົມ 100
ບາຍຄວາມຮ້ອນ 100
▁corrugated 100
▁ການຕໍ່ຕ້ານ 100
▁ຂະຫນາດນ້ອຍ 100
▁ແນວຄວາມຄິດ 100
ການເກັບຮັກສາ 100
▁Application 100
▁ຜະລິດແນນສຽງ 100
▁ສານສະກັດຈາກ 100
▁HBOTteknamfg 100
▁Intelligence 100
▁ການເກັບຮັກສາ 100
▁ທໍາຄວາມສະອາດ 100
▁ເຮັດໃຫ້ມີແສງ 100
criptionSample 100
▁reproducciones 100
%; 100
') 100
,4 100
2: 100
4? 100
DU 100
FO 100
HX 100
My 100
Ni 100
WE 100
XP 100
cf 100
eu 100
kV 100
lm 100
lr 100
rx 100
uv 100
ຕມ 100
ທໍ 100
ໃຊ 100
ໄຈ 100
ợt 100
-3) 100
-46 100
.17 100
.22 100
/09 100
/13 100
/16 100
017 100
12, 100
133 100
16, 100
185 100
239 100
247 100
334 100
336 100
344 100
650 100
66" 100
67" 100
678 100
692 100
763 100
773 100
777 100
781 100
80, 100
809 100
86) 100
885 100
92" 100
98, 100
:01 100
:37 100
="7 100
="9 100
AMP 100
Bus 100
Bắt 100
FTA 100
GSI 100
HAN 100
Hub 100
INS 100
Kgs 100
NRL 100
Off 100
PER 100
RON 100
Ser 100
TLE 100
Thứ 100
aza 100
bin 100
boy 100
buy 100
ely 100
gar 100
ges 100
gon 100
hex 100
igz 100
ils 100
max 100
một 100
nal 100
nov 100
obo 100
olo 100
pes 100
psi 100
ret 100
tit 100
uls 100
unk 100
êsP 100
đại 100
ươn 100
ຈຽງ 100
ຕານ 100
ຕິນ 100
ຖີບ 100
ປານ 100
ມ້າ 100
ລັງ 100
ຫຼີ 100
ຶ້ມ 100
ເຫນ 100
ແກມ 100
ແທກ 100
▁$3 100
▁(° 100
▁(“ 100
▁+0 100
▁0- 100
▁AK 100
▁GO 100
▁Ga 100
▁IU 100
▁KB 100
▁Ki 100
▁MM 100
▁RK 100
▁TE 100
▁Ts 100
▁VA 100
▁WA 100
▁ZR 100
▁au 100
▁id 100
▁kw 100
▁mò 100
▁rồ 100
▁vé 100
▁£, 100
▁ກິ 100
▁ນ້ 100
▁ພູ 100
-2.5 100
-400 100
-860 100
.815 100
.889 100
1111 100
39"> 100
???? 100
FLIP 100
INST 100
Ital 100
____ 100
arus 100
avar 100
cher 100
edit 100
endy 100
etts 100
ever 100
flix 100
head 100
iana 100
kers 100
kytn 100
lang 100
lian 100
link 100
omet 100
omic 100
onto 100
ough 100
roof 100
tons 100
unde 100
urne 100
uộng 100
ການໂ 100
ດື່ມ 100
ດ້າຍ 100
ປະຕິ 100
ມາໄລ 100
ສະຫມ 100
ຫມູ່ 100
ົ່າກ 100
ເກາະ 100
ເກີນ 100
ເກີບ 100
ເຂັມ 100
ເຜີຍ 100
ເສັງ 100
▁#12 100
▁(23 100
▁04: 100
▁1-6 100
▁1.7 100
▁13. 100
▁153 100
▁157 100
▁164 100
▁173 100
▁176 100
▁183 100
▁19. 100
▁193 100
▁198 100
▁204 100
▁213 100
▁25! 100
▁265 100
▁30- 100
▁317 100
▁4.4 100
▁4.8 100
▁6.9 100
▁776 100
▁8.0 100
▁926 100
▁::: 100
▁ATY 100
▁Bei 100
▁Bin 100
▁Bir 100
▁Bấy 100
▁CCC 100
▁COL 100
▁Cab 100
▁Cám 100
▁Cột 100
▁Dam 100
▁Dan 100
▁Dẫn 100
▁Giê 100
▁Giả 100
▁Gon 100
▁Guy 100
▁HBX 100
▁HOT 100
▁How 100
▁Hẳn 100
▁III 100
▁Ins 100
▁JIS 100
▁Jay 100
▁Jim 100
▁Las 100
▁MDF 100
▁Maj 100
▁Nic 100
▁Nào 100
▁Oem 100
▁Rau 100
▁Rui 100
▁SFP 100
▁Spy 100
▁Tam 100
▁Tar 100
▁Thú 100
▁Tol 100
▁WEF 100
▁aas 100
▁acc 100
▁ant 100
▁bóp 100
▁bôi 100
▁bưu 100
▁bẩn 100
▁củi 100
▁dâu 100
▁fre 100
▁gas 100
▁hex 100
▁hoạ 100
▁hòm 100
▁hận 100
▁kèn 100
▁lol 100
▁mạn 100
▁neo 100
▁nài 100
▁nồi 100
▁oct 100
▁pdf 100
▁quỳ 100
▁rot 100
▁run 100
▁she 100
▁sầu 100
▁tam 100
▁táo 100
▁tóm 100
▁tấu 100
▁tụi 100
▁Đất 100
▁Đầy 100
▁ກຽມ 100
▁ຄອມ 100
▁ຄັນ 100
▁ຄ້າ 100
▁ຈິດ 100
▁ດິນ 100
▁ທວນ 100
▁ທົນ 100
▁ພີ່ 100
▁ມີດ 100
▁ສີດ 100
▁ສູ່ 100
▁ສົງ 100
▁ຫາຍ 100
▁ຮອບ 100
▁ເບີ 100
▁ເຫຼ 100
▁ແກນ 100
▁ໂກນ 100
61000 100
86055 100
="1.3 100
Cheng 100
achus 100
aisDe 100
ament 100
bodia 100
craft 100
elded 100
emake 100
ffeta 100
iable 100
ingle 100
ogram 100
oking 100
onsin 100
ortop 100
otype 100
qiang 100
uster 100
ດົນຕີ 100
ປະທັບ 100
ລະພາບ 100
ສະວິດ 100
ສີຟ້າ 100
ຫນ້ອຍ 100
ເປົ່າ 100
▁(107 100
▁(200 100
▁0574 100
▁13.6 100
▁1994 100
▁2002 100
▁2003 100
▁2600 100
▁4.37 100
▁9.99 100
▁Anim 100
▁Anod 100
▁Area 100
▁BOOD 100
▁Bass 100
▁Boot 100
▁Bung 100
▁Chip 100
▁Chạy 100
▁Cảnh 100
▁Easy 100
▁FAQs 100
▁Fuse 100
▁GDPR 100
▁INOX 100
▁Khái 100
▁Lily 100
▁Midd 100
▁NGAY 100
▁Next 100
▁Nide 100
▁Niềm 100
▁Nẵng 100
▁Rods 100
▁Shop 100
▁Suốt 100
▁TGSI 100
▁Teac 100
▁Tenn 100
▁Thịt 100
▁Thỏa 100
▁Tuổi 100
▁Vert 100
▁Vùng 100
▁Zeng 100
▁Zhou 100
▁appr 100
▁bùng 100
▁flex 100
▁gián 100
▁hero 100
▁khoe 100
▁kiêu 100
▁lang 100
▁muôn 100
▁play 100
▁sườn 100
▁sắng 100
▁trật 100
▁vạch 100
▁xiết 100
▁xăng 100
▁đấng 100
▁đẳng 100
▁ຄລິບ 100
▁ຊ້ໍາ 100
▁ປະຊາ 100
▁ສັ້ນ 100
▁ສໍານ 100
▁ຫມັກ 100
▁ຮຸ້ນ 100
▁ເຈາະ 100
▁ເຕັກ 100
▁ເມລິ 100
▁ເລັດ 100
Chương 100
Direct 100
acking 100
asting 100
bolone 100
convey 100
edical 100
ersion 100
ionate 100
iscuit 100
lulose 100
methyl 100
netron 100
olPort 100
ration 100
rictly 100
uguêsP 100
ຄົງທີ່ 100
ດຽວກັນ 100
ທົດລອງ 100
ທົດສອບ 100
ບໍ່ແຮ່ 100
ຜິດພາດ 100
ວ່າມັນ 100
ສະຖານີ 100
ສັງຄົມ 100
ສື່ສານ 100
ິຈິຕອນ 100
ຸ່ນຍົນ 100
ເບື້ອງ 100
ເລື່ອນ 100
ເອດເອດ 100
▁0086- 100
▁1-888 100
▁19:00 100
▁3,00€ 100
▁8.2.3 100
▁Blade 100
▁Botan 100
▁Braun 100
▁Child 100
▁Diode 100
▁Dường 100
▁EVFTA 100
▁Ester 100
▁Guard 100
▁Insul 100
▁Label 100
▁Layer 100
▁Loose 100
▁Modem 100
▁Oxide 100
▁Punch 100
▁Rapid 100
▁Rotor 100
▁STAND 100
▁Scott 100
▁Servo 100
▁Sites 100
▁Solar 100
▁Spool 100
▁Story 100
▁Style 100
▁Surin 100
▁THÀNH 100
▁Thuộc 100
▁Trượt 100
▁Wafer 100
▁buồng 100
▁cross 100
▁cưỡng 100
▁khẳng 100
▁mixer 100
▁nương 100
▁pitch 100
▁thiệp 100
▁trừng 100
▁ວີຊ່າ 100
▁ສະພາບ 100
atalyst 100
enticed 100
ication 100
ickness 100
kytnice 100
yanuric 100
ylvania 100
ກາງແຈ້ງ 100
ກາຍເປັນ 100
ການເງິນ 100
ຫຼັງຈາກ 100
ອະນຸມັດ 100
ອາຍແກັສ 100
ເຫັນໄດ້ 100
ແບ່ງປັນ 100
ໄຮໂດລິກ 100
▁0086-0 100
▁44.0.2 100
▁50,000 100
▁Bonded 100
▁Chiang 100
▁Clutch 100
▁DryAir 100
▁EaseUS 100
▁Essent 100
▁Feeder 100
▁Hentai 100
▁Huaxin 100
▁Hunter 100
▁Lounge 100
▁Needle 100
▁Nights 100
▁Oyster 100
▁Phường 100
▁Prince 100
▁Raycus 100
▁Search 100
▁Sheets 100
▁Stefan 100
▁Sublim 100
▁Truyện 100
▁Xiaomi 100
▁aasraw 100
▁asylum 100
▁nghênh 100
▁trương 100
▁violin 100
▁ການພິມ 100
▁ທົ່ວໄປ 100
▁ຢູ່ທູບ 100
▁ສະຫນອງ 100
▁ສີນ້ໍາ 100
▁ອໍານາດ 100
51486055 100
ສະຖານທີ່ 100
▁86-21-5 100
▁Airpull 100
▁Angeles 100
▁Cookies 100
▁January 100
▁Laotian 100
▁Longyou 100
▁Monitor 100
▁Netflix 100
▁Richina 100
▁STEPPER 100
▁Scratch 100
▁Spindle 100
▁Striped 100
▁Updated 100
▁Yinzhou 100
▁bitcoin 100
▁ninjago 100
▁peptide 100
▁samurai 100
▁steroid 100
▁taffeta 100
▁ການຄົ້ນ 100
▁ຂາຍຮ້ອນ 100
▁ຕາຫນ່າງ 100
▁ມັນເປັນ 100
▁ສຸຂະພາບ 100
▁ຫມາຍເລກ 100
▁ອັບໂຫລດ 100
▁ເຄັດລັບ 100
achusetts 100
ຄວາມປອດໄພ 100
ຫນ້າສົນໃຈ 100
ໃນປະຈຸບັນ 100
ໃບຢັ້ງຢືນ 100
▁Anderson 100
▁Avengers 100
▁COINFLIP 100
▁Diffuser 100
▁Flexible 100
▁Freemake 100
▁Scotland 100
▁Stanford 100
▁ຄວາມເບີກ 100
▁ຍຸດທະສາດ 100
▁ເຢຍລະມັນ 100
▁ເສັ້ນທາງ 100
▁ໃຊ້ລະຫັດ 100
aisDeutsch 100
ການຕິດຕັ້ງ 100
ຄົ້ນບໍ່ແຮ່ 100
ແສງສະຫວ່າງ 100
ໃຫ້ບໍລິການ 100
▁2016-2017 100
▁Rokytnice 100
▁Saxophone 100
▁collector 100
▁magnetron 100
▁ການຕະຫຼາດ 100
▁ການສື່ສານ 100
▁ພວກເຮົາມີ 100
▁ສະກຸນເງິນ 100
▁ຮັບຜິດຊອບ 100
▁ແຮງດັນສູງ 100
conveyortop 100
▁Management 100
▁PowerShell 100
▁Tianeptine 100
▁blockchain 100
▁javascript 100
▁ຄໍາອະທິບາຍ 100
▁ແມ່ນຫຍັງຄື 100
olPortuguêsP 100
▁EnglishEspa 100
▁PlayLottery 100
▁apprenticed 100
▁ກ່ອນຫນ້ານີ້ 100
▁ຂໍຂອບໃຈທ່ານ 100
▁ຄວາມບໍລິສຸດ 100
▁ໂທຫາພວກເຮົາ 100
▁ຄວາມໄວສູງສຸດ 100
▁ຖະຫນົນຫົນທາງ 100
▁Biodegradable 100
▁Certification 100
▁ວິທີການຕິດຕັ້ງ 100
▁MobileCasinoFun 100
!" 100
%. 100
1" 100
1% 100
?’ 100
Dv 100
GA 100
JH 100
Pr 100
SC 100
Su 100
Vì 100
YZ 100
ZY 100
dy 100
mx 100
sj 100
số 100
wo 100
yc 100
ງ່ 100
ຜີ 100
ຟູ 100
ລຸ 100
ຮູ 100
ẢO 100
-84 100
/15 100
00, 100
006 100
109 100
11, 100
139 100
151 100
153 100
167 100
18) 100
265 100
269 100
293 100
315 100
354 100
358 100
401 100
406 100
409 100
436 100
510 100
531 100
609 100
708 100
716 100
807 100
85" 100
855 100
868 100
:10 100
:26 100
:54 100
Bay 100
Cập 100
HFC 100
INO 100
OWH 100
Pay 100
Piv 100
VER 100
VPN 100
ami 100
apy 100
atu 100
cfu 100
fig 100
gal 100
hau 100
hot 100
inn 100
jan 100
lov 100
mao 100
nan 100
nhe 100
nic 100
ohm 100
oke 100
ori 100
pat 100
plc 100
ral 100
rss 100
urt 100
usk 100
vid 100
xyz 100
ượn 100
ຄາດ 100
ຄາມ 100
ຈາຍ 100
ຊອກ 100
ຊິດ 100
ຜັກ 100
ຜັດ 100
ລານ 100
ລິດ 100
ົາກ 100
ເຕະ 100
ເວີ 100
ໂດດ 100
້ວງ 100
▁$6 100
▁BF 100
▁Bổ 100
▁Cụ 100
▁DL 100
▁HW 100
▁IR 100
▁KW 100
▁LƯ 100
▁MF 100
▁Ny 100
▁Pp 100
▁RA 100
▁SR 100
▁TA 100
▁WW 100
▁Zi 100
▁dĩ 100
▁km 100
▁rễ 100
▁tạ 100
▁đố 100
▁ຂາ 100
▁ພີ 100
▁ຟໍ 100
▁ຫຍ 100
▁ເຜ 100
▁ức 100
-130 100
01"> 100
1234 100
1300 100
1400 100
1600 100
2015 100
2055 100
34"> 100
:100 100
="15 100
Card 100
Cast 100
Disk 100
Gram 100
Info 100
OCON 100
OWER 100
Plus 100
Viet 100
Việt 100
Zhen 100
agen 100
alin 100
anti 100
band 100
bank 100
bert 100
brid 100
down 100
edge 100
elen 100
elop 100
essa 100
esun 100
eton 100
held 100
iety 100
ikov 100
ious 100
isoc 100
kang 100
onia 100
oons 100
ores 100
othy 100
otta 100
pers 100
phen 100
real 100
rier 100
roin 100
role 100
slot 100
sych 100
thew 100
ulph 100
vert 100
wang 100
xing 100
yong 100
zzer 100
ກເກດ 100
ກ່ອນ 100
ດູແລ 100
ທະເລ 100
ສະມາ 100
ເຕົາ 100
▁$54 100
▁'', 100
▁1,0 100
▁1,7 100
▁131 100
▁136 100
▁147 100
▁16. 100
▁16/ 100
▁17' 100
▁224 100
▁228 100
▁254 100
▁256 100
▁4.2 100
▁422 100
▁560 100
▁595 100
▁6.7 100
▁8.1 100
▁8.5 100
▁890 100
▁992 100
▁BBQ 100
▁BTC 100
▁Bia 100
▁Bru 100
▁CFR 100
▁CPT 100
▁Chú 100
▁CẤP 100
▁Cực 100
▁DNA 100
▁Dar 100
▁EST 100
▁GMT 100
▁GUI 100
▁Gối 100
▁Hết 100
▁Ill 100
▁Keo 100
▁Kne 100
▁LEE 100
▁Leo 100
▁Lót 100
▁Mak 100
▁Meg 100
▁Mấy 100
▁Mức 100
▁NOW 100
▁Nap 100
▁Nom 100
▁OSP 100
▁PHP 100
▁PNG 100
▁POL 100
▁PSI 100
▁Phù 100
▁Phố 100
▁Pud 100
▁RAD 100
▁RCA 100
▁Rib 100
▁SET 100
▁Sig 100
▁Sup 100
▁Syr 100
▁Sáo 100
▁Sạc 100
▁THE 100
▁TUV 100
▁Tek 100
▁Tho 100
▁Thơ 100
▁Tre 100
▁Trụ 100
▁Tóc 100
▁Tôn 100
▁VAT 100
▁Vắc 100
▁Wig 100
▁ago 100
▁ang 100
▁ans 100
▁cối 100
▁cụm 100
▁doc 100
▁dám 100
▁dạn 100
▁eng 100
▁gam 100
▁gãy 100
▁hân 100
▁imp 100
▁khố 100
▁léo 100
▁lọt 100
▁mốc 100
▁nến 100
▁oán 100
▁thọ 100
▁tuy 100
▁tỏi 100
▁vặt 100
▁xộn 100
▁Đĩa 100
▁Đổi 100
▁ຈື່ 100
▁ຊຕມ 100
▁ບຸກ 100
▁ຝາກ 100
▁ສາງ 100
▁ຫັນ 100
▁ຮອງ 100
▁ແຕກ 100
▁ແທນ 100
▁ໃກ້ 100
3033. 100
="1.9 100
="2.0 100
Piece 100
Slots 100
Thiết 100
achel 100
admin 100
akers 100
aniel 100
brane 100
conia 100
ctile 100
ebies 100
emesh 100
ental 100
etime 100
iesel 100
ittle 100
iture 100
itute 100
lines 100
merce 100
obita 100
piece 100
tings 100
unnel 100
words 100
ກະທູ້ 100
ຍາກອນ 100
ຖະບານ 100
ທິຖານ 100
ປະສົງ 100
ລິເມດ 100
ວຍງາມ 100
ສັນຍາ 100
ສີແດງ 100
ຫຼີ້ນ 100
ອາຊີບ 100
ອາດຈະ 100
ັກຊີນ 100
ັກສອນ 100
າດການ 100
ືອບິນ 100
ເດັ່ນ 100
ໂດລິກ 100
ໂຟນເດ 100
້າທາຍ 100
▁(1,5 100
▁(1,6 100
▁10.5 100
▁100! 100
▁2.11 100
▁86-3 100
▁APIC 100
▁Asph 100
▁Beam 100
▁Bots 100
▁Bush 100
▁Cath 100
▁Chưa 100
▁Càng 100
▁Dành 100
▁Dược 100
▁Ener 100
▁Engr 100
▁Fram 100
▁Gems 100
▁Hits 100
▁Hole 100
▁Just 100
▁KHÁC 100
▁Kure 100
▁Lake 100
▁Lanc 100
▁Laun 100
▁Lear 100
▁Loop 100
▁Mega 100
▁NHÂN 100
▁PPGL 100
▁Pham 100
▁Porn 100
▁Rộng 100
▁Sher 100
▁Siem 100
▁Ster 100
▁Subs 100
▁TEMP 100
▁Tent 100
▁Thạc 100
▁Tips 100
▁Trận 100
▁Vành 100
▁Wisc 100
▁bách 100
▁bích 100
▁bổng 100
▁chục 100
▁cúng 100
▁dinh 100
▁head 100
▁iron 100
▁khoá 100
▁khúc 100
▁lash 100
▁lily 100
▁loan 100
▁lánh 100
▁mail 100
▁ngần 100
▁ngọc 100
▁nhám 100
▁post 100
▁quấy 100
▁sand 100
▁soft 100
▁ĐÁNG 100
▁Đảng 100
▁ກ້າວ 100
▁ຊ່ອຍ 100
▁ຍິ່ງ 100
▁ຍ້ອນ 100
▁ຖ່ອມ 100
▁ລິ້ງ 100
▁ຫນາມ 100
▁ຫຼຸດ 100
▁ອ້າງ 100
▁ເຊີນ 100
▁ເວທີ 100
▁ແກ່ນ 100
▁≤0.5 100
OWHEEL 100
Thượng 100
active 100
bourne 100
coiler 100
denone 100
master 100
namese 100
rosion 100
ກະດ້າງ 100
ການຂອງ 100
ງານທໍາ 100
ທຸກຄົນ 100
ບຸກຄົນ 100
ພາຍໃຕ້ 100
ສະຫງວນ 100
▁1:500 100
▁2012, 100
▁2020] 100
▁86-18 100
▁Amber 100
▁Armen 100
▁Avast 100
▁Chung 100
▁Chuỗi 100
▁Combo 100
▁Congo 100
▁Deals 100
▁Frost 100
▁Giành 100
▁Giêsu 100
▁Glory 100
▁Gmail 100
▁Great 100
▁LadyL 100
▁Nokia 100
▁Pants 100
▁Polyp 100
▁Princ 100
▁Queen 100
▁Radio 100
▁Steam 100
▁Table 100
▁Tener 100
▁Wuhan 100
▁Xinye 100
▁Yahoo 100
▁Zhang 100
▁after 100
▁favor 100
▁fiber 100
▁inter 100
▁kiêng 100
▁salon 100
▁satin 100
▁short 100
▁steel 100
▁thiêu 100
▁valve 100
▁ກະຊວງ 100
▁ຂໍ້ດີ 100
▁ປະສົມ 100
▁ເຊັ່ນ 100
▁ແນວໃດ 100
ephrine 100
ichloro 100
itation 100
ຂີ້ຝຸ່ນ 100
ຂື້ນໂດຍ 100
ຄວາມຖີ່ 100
ປະລິມານ 100
ປ່ຽນແປງ 100
ຢ້ຽມຊົມ 100
ລາຄາຖືກ 100
ອານາຈັກ 100
ອາບນ້ໍາ 100
▁(2016) 100
▁42.0.2 100
▁Bishop 100
▁Boston 100
▁Broker 100
▁Bungal 100
▁Cinema 100
▁Coffee 100
▁Copper 100
▁Finish 100
▁Fleece 100
▁Folder 100
▁GEOCON 100
▁George 100
▁Hammer 100
▁Heater 100
▁Holder 100
▁Loader 100
▁Odessa 100
▁Palăng 100
▁Powder 100
▁Pudong 100
▁Rating 100
▁Remote 100
▁Rezero 100
▁Rupees 100
▁Spiral 100
▁VMware 100
▁Valley 100
▁Wicker 100
▁Yandex 100
▁cotton 100
▁height 100
▁purity 100
▁pusher 100
▁rotary 100
▁ຊື່ຂອງ 100
▁ຕະຫຼອດ 100
▁ຕົວແບບ 100
▁ທີມງານ 100
▁ພາບລວມ 100
▁ມູນຄ່າ 100
▁ວັນທີ່ 100
▁ວີດີໂອ 100
▁ວົງຈອນ 100
▁ຫາດຊາຍ 100
▁ອົງການ 100
▁ເກມອອນ 100
▁ແຜນການ 100
.12.2018 100
Italiano 100
ithuania 100
wiremesh 100
ຕໍາແຫນ່ງ 100
ທາງອາກາດ 100
ສາທາລະນະ 100
ອາເມລິກາ 100
ເສດຖະກິດ 100
ແມ່ເຫຼັກ 100
▁Antenna 100
▁Archive 100
▁Biscuit 100
▁Connect 100
▁Dolphin 100
▁Drivers 100
▁Feitian 100
▁Florida 100
▁Georgia 100
▁MacBook 100
▁Mounted 100
▁Olympic 100
▁Peptide 100
▁Station 100
▁service 100
▁ກັ່ນຕອງ 100
▁ກ່າວວ່າ 100
▁ຄົ້ນພົບ 100
▁ຍົກເລີກ 100
▁ພວງມາໄລ 100
▁ພື້ນຜິວ 100
▁ຫຼັກຖານ 100
▁ອອກຄວາມ 100
▁ເຂົ້າໃຈ 100
▁ໄຮໂດລິກ 100
igeration 100
ການຊື້ຂາຍ 100
ການປັບປຸງ 100
ຂີ້ເຫຍື້ອ 100
ທີ່ມີຄວາມ 100
▁7773033. 100
▁86-755-8 100
▁992-9033 100
▁Advanced 100
▁Festival 100
▁Giveaway 100
▁Shackles 100
▁ShenZhen 100
▁SnapTube 100
▁Tenerife 100
▁doraemon 100
▁jacquard 100
▁ຈໍາຫນ່າຍ 100
▁ມິນລິເມດ 100
▁ສັນຍາລັກ 100
▁ຫນ້າຫຼັກ 100
▁ເຟີນິເຈີ 100
ເຮັດງານທໍາ 100
▁Honeycomb 100
▁Wisconsin 100
▁Zhongtian 100
▁brushless 100
▁crossbody 100
▁ການສະຫນອງ 100
▁ຂໍ້ສະເຫນີ 100
▁ຖານຂໍ້ມູນ 100
▁ທອງເຫລືອງ 100
▁ພວກເຮົາຈະ 100
▁ວິທະຍາສາດ 100
▁ສະຫນາມບິນ 100
▁ເດືອນເມສາ 100
ichloroisoc 100
luoroethane 100
▁Antichrist 100
▁Nandrolone 100
▁Trenbolone 100
▁ຄວາມຍາວຂອງ 100
▁ຕອບກ່ຽວກັບ 100
▁ພວກເຮົາໄດ້ 100
ຫຼ້າສຸດເມື່ອ 100
ໄດ້ຮັບລາງວັນ 100
▁BestCleaner 100
▁Temperature 100
▁ການຄົ້ນຄວ້າ 100
▁ການສະກົດຈິດ 100
▁ດາວໂຫລດປື້ມ 100
▁ບັນຊີລາຍຊື່ 100
▁ພະລັງງານຂອງ 100
▁ລາຍຊື່ອີເມວ 100
▁ເຄື່ອງປະດັບ 100
ເຂົ້າສູ່ລະບົບ 100
▁ວັນຄຣິດສະມາດ 100
▁Massachusetts 100
▁ຂຸດຄົ້ນບໍ່ແຮ່ 100
▁ອອກຄວາມເຫັນໄດ້ 100
▁ເບິ່ງເພີ່ມເຕີມ 100
▁ສ້າງຕັ້ງຂື້ນໂດຍ 100
($ 100
,6 100
As 100
Ax 100
FE 100
Fe 100
HK 100
JD 100
JT 100
Kg 100
Km 100
QU 100
RU 100
SI 100
Sm 100
Tw 100
UI 100
VM 100
VO 100
YL 100
cd 100
hn 100
sw 100
sự 100
xR 100
ັຍ 100
ເຫ 100
ໂອ 100
ໃຫ 100
ໄບ 100
ịp 100
ịt 100
ụn 100
’; 100
-1, 100
-63 100
-65 100
.0% 100
/07 100
1.2 100
1.6 100
137 100
14' 100
162 100
17" 100
187 100
188 100
190 100
194 100
207 100
216 100
279 100
351 100
352 100
359 100
364 100
50- 100
506 100
555 100
602 100
606 100
641 100
706 100
767 100
852 100
88, 100
883 100
889 100
893 100
958 100
959 100
987 100
:19 100
:28 100
:75 100
Bro 100
CAD 100
CAS 100
CBM 100
Che 100
Dec 100
ERH 100
FCX 100
How 100
ISE 100
ITY 100
KVA 100
Key 100
MAX 100
Pre 100
SEC 100
SiC 100
WEL 100
aum 100
bai 100
bek 100
của 100
def 100
fab 100
hum 100
irl 100
ken 100
lie 100
mah 100
nhà 100
nie 100
nom 100
oan 100
owa 100
ozz 100
pet 100
res 100
rig 100
roc 100
roy 100
sản 100
tex 100
tùy 100
ugh 100
uke 100
ula 100
ves 100
ກາກ 100
ກິນ 100
ຂວາ 100
ຈົກ 100
ຊະນ 100
ຊັບ 100
ດຸນ 100
ຜູກ 100
ພິດ 100
ພໍ່ 100
ຟູກ 100
ມິດ 100
ສູດ 100
ຫລີ 100
ະລື 100
າດາ 100
ິລິ 100
ົວກ 100
ເບກ 100
ໂທດ 100
ໄຂ່ 100
▁"- 100
▁(. 100
▁+, 100
▁-9 100
▁6) 100
▁BA 100
▁Dc 100
▁EL 100
▁GC 100
▁Gy 100
▁IF 100
▁Id 100
▁LX 100
▁NJ 100
▁Pb 100
▁Qi 100
▁RC 100
▁Sở 100
▁TB 100
▁Ze 100
▁ag 100
▁bá 100
▁bẻ 100
▁bế 100
▁cy 100
▁dn 100
▁ft 100
▁hd 100
▁ki 100
▁kề 100
▁mẻ 100
▁mồ 100
▁xé 100
▁xổ 100
▁ÁP 100
▁Ôi 100
▁Đỏ 100
▁đế 100
▁ຖຸ 100
▁ນູ 100
▁ລຸ 100
▁ລໍ 100
▁ໂສ 100
▁€, 100
-160 100
-2.0 100
-865 100
.73. 100
/100 100
1800 100
35"> 100
38"> 100
6000 100
72"> 100
72-2 100
="28 100
="34 100
Cola 100
Công 100
KVAC 100
Lake 100
Mail 100
OGIC 100
adex 100
agne 100
ajon 100
anai 100
arts 100
asht 100
ccst 100
cent 100
chun 100
code 100
cons 100
dney 100
egot 100
elli 100
elly 100
epal 100
esch 100
fann 100
iami 100
icle 100
ipal 100
ists 100
lege 100
mand 100
oles 100
opro 100
orun 100
ovsk 100
qian 100
rael 100
ubei 100
weig 100
ຄ່ໍາ 100
ຍິ່ງ 100
ຍ່າງ 100
ດີຊີ 100
ທ້ອນ 100
ປ່ອຍ 100
ຟຣິກ 100
ຫ່າງ 100
ີນີ້ 100
ເຜົາ 100
ເລີດ 100
ເລ່ຍ 100
ເຮືອ 100
ໄປໃນ 100
▁(55 100
▁(6) 100
▁(85 100
▁--- 100
▁-15 100
▁0,6 100
▁0-6 100
▁021 100
▁085 100
▁1,2 100
▁106 100
▁112 100
▁124 100
▁13) 100
▁144 100
▁16) 100
▁162 100
▁17: 100
▁18. 100
▁2-5 100
▁223 100
▁232 100
▁236 100
▁288 100
▁301 100
▁375 100
▁4.1 100
▁5.8 100
▁50, 100
▁6.6 100
▁615 100
▁617 100
▁660 100
▁915 100
▁999 100
▁Ain 100
▁Aus 100
▁BIG 100
▁BSF 100
▁CMO 100
▁CON 100
▁Cop 100
▁Cub 100
▁CÂU 100
▁DOC 100
▁DST 100
▁Dao 100
▁Dau 100
▁EAS 100
▁ESL 100
▁Eco 100
▁Fib 100
▁Fur 100
▁Gan 100
▁HZM 100
▁Hao 100
▁Hơi 100
▁Hỡi 100
▁IOS 100
▁Inv 100
▁KXD 100
▁Kaz 100
▁Khê 100
▁LIN 100
▁Les 100
▁MEI 100
▁MHz 100
▁Moh 100
▁Mom 100
▁Mot 100
▁Mời 100
▁PLA 100
▁Pac 100
▁Pel 100
▁RBS 100
▁RCO 100
▁RGB 100
▁RPA 100
▁Raj 100
▁Rập 100
▁SIN 100
▁SSL 100
▁Sea 100
▁TRA 100
▁TUY 100
▁Tow 100
▁Tzm 100
▁VAN 100
▁VST 100
▁Vip 100
▁XAU 100
▁XXL 100
▁bai 100
▁bám 100
▁bấm 100
▁cur 100
▁cut 100
▁cúi 100
▁cẩu 100
▁dắt 100
▁gìn 100
▁lon 100
▁lot 100
▁net 100
▁nàn 100
▁pie 100
▁ref 100
▁rod 100
▁rót 100
▁rầu 100
▁rủi 100
▁ske 100
▁slu 100
▁ter 100
▁tom 100
▁tuệ 100
▁tăm 100
▁vác 100
▁Đáp 100
▁Đẩy 100
▁đâm 100
▁đùa 100
▁đục 100
▁Ước 100
▁ຂັດ 100
▁ຊອງ 100
▁ດອນ 100
▁ຕີນ 100
▁ຕຶກ 100
▁ຕື້ 100
▁ຕໍາ 100
▁ທາຍ 100
▁ທຶກ 100
▁ປຸງ 100
▁ຜົມ 100
▁ສຶກ 100
▁ເມຍ 100
▁ເຫມ 100
▁ໂທດ 100
▁ໂຟມ 100
▁ໄກ່ 100
,000+ 100
23100 100
="0.3 100
="0.9 100
AKERS 100
SINST 100
Shang 100
Trans 100
acter 100
adesh 100
aftan 100
agnet 100
alent 100
anger 100
antai 100
arent 100
enery 100
esher 100
extet 100
ibbeh 100
idery 100
iling 100
istry 100
itang 100
ities 100
itive 100
iving 100
izhou 100
matic 100
oming 100
ontal 100
opper 100
pairs 100
scape 100
umblr 100
ກະເປົ 100
ຕາມິນ 100
ຕ້ຕອບ 100
ບດເຕີ 100
ຫົວໃຈ 100
ອນໄລນ 100
ັງກາຍ 100
ເຫນືອ 100
▁'14' 100
▁1.00 100
▁10.0 100
▁101, 100
▁1350 100
▁1650 100
▁2211 100
▁2240 100
▁408, 100
▁AIDS 100
▁Alle 100
▁Axit 100
▁Bleu 100
▁Brag 100
▁Brun 100
▁Cake 100
▁Chao 100
▁Cost 100
▁Draw 100
▁Drum 100
▁Flip 100
▁Gran 100
▁Grid 100
▁Herm 100
▁Icon 100
▁Iowa 100
▁Kand 100
▁Kath 100
▁Khốn 100
▁Kông 100
▁Lean 100
▁Lạnh 100
▁Made 100
▁Mask 100
▁Math 100
▁Meth 100
▁Mobi 100
▁More 100
▁Nano 100
▁Nghi 100
▁Nhẫn 100
▁Radi 100
▁Rail 100
▁SHBC 100
▁Seat 100
▁Suit 100
▁TSJY 100
▁TYPE 100
▁Treo 100
▁Ultr 100
▁Utah 100
▁Wiki 100
▁Yarn 100
▁chèo 100
▁chúa 100
▁chắp 100
▁clip 100
▁extr 100
▁nhục 100
▁niêm 100
▁phay 100
▁phàn 100
▁plug 100
▁quạt 100
▁rack 100
▁ròng 100
▁sofa 100
▁tung 100
▁túng 100
▁volt 100
▁vong 100
▁vắng 100
▁£200 100
▁Đứng 100
▁ຕ້ອນ 100
▁ປຶ້ມ 100
▁ປ່ຽງ 100
▁ຫະລື 100
▁ເກີນ 100
13.889 100
SERIES 100
ainted 100
arator 100
escent 100
fanned 100
filter 100
logics 100
obeaut 100
ongsaw 100
uanjie 100
ydroxy 100
ກາງເກງ 100
ການບິນ 100
ການແພດ 100
ຂອງນັກ 100
ຄວນຮູ້ 100
ຕາຂ່າຍ 100
ຖະຫນົນ 100
ທິດຖານ 100
ທີ່ຂອງ 100
ບັງຄັບ 100
ຜູ້ນໍາ 100
ວິເຄາະ 100
ວີດີໂອ 100
ວົງຈອນ 100
ສວຍງາມ 100
ສະຫນາມ 100
ສໍາພັດ 100
ຫາດຊາຍ 100
ອັກສອນ 100
ຮູ້ວ່າ 100
ຮຽນຮູ້ 100
ເທົ່າກ 100
ເພື່ອນ 100
▁(1000 100
▁1-800 100
▁15479 100
▁16/22 100
▁16000 100
▁2017, 100
▁25-33 100
▁86-20 100
▁9001: 100
▁ACCUR 100
▁Analy 100
▁Anrui 100
▁Cajon 100
▁Chuck 100
▁Crush 100
▁Drick 100
▁Dutou 100
▁Elite 100
▁Embro 100
▁Funny 100
▁Giăng 100
▁Hmoob 100
▁Hubei 100
▁Inlet 100
▁Jimmy 100
▁Khoản 100
▁Kháng 100
▁Labor 100
▁Ladyl 100
▁Maker 100
▁Mason 100
▁Month 100
▁Ngành 100
▁Penns 100
▁RHCSA 100
▁Rigid 100
▁Rikoo 100
▁Riêng 100
▁Rolls 100
▁Round 100
▁Rugby 100
▁Shape 100
▁Spher 100
▁Steph 100
▁Susan 100
▁TRONG 100
▁Tekna 100
▁Thiếu 100
▁Thỉnh 100
▁Toner 100
▁Torch 100
▁Total 100
▁Tuyệt 100
▁UCFCX 100
▁Vigrx 100
▁Wales 100
▁black 100
▁cabin 100
▁cauda 100
▁chước 100
▁khoái 100
▁linen 100
▁nhúng 100
▁peach 100
▁plush 100
▁price 100
▁satch 100
▁shelf 100
▁tenor 100
▁ປະກອບ 100
▁ປະທັບ 100
▁ມີການ 100
▁ຮັກສາ 100
▁ເຊື້ອ 100
OSHIRTS 100
SINSTON 100
anthate 100
eschool 100
igation 100
irconia 100
schweig 100
stepper 100
ຕໍ່ຕ້ານ 100
ທີ່ຂ້ອຍ 100
ສິ້ນສຸດ 100
ອ້າງອີງ 100
▁0577-6 100
▁20-200 100
▁APICMO 100
▁Austin 100
▁Boiler 100
▁Covers 100
▁Energy 100
▁Foshan 100
▁Indoor 100
▁Juteng 100
▁Kaftan 100
▁MEIGHT 100
▁Making 100
▁OSGEAR 100
▁Oliver 100
▁Output 100
▁Patent 100
▁Pellet 100
▁Phuong 100
▁Pillow 100
▁Queens 100
▁Shuang 100
▁Spider 100
▁Sydney 100
▁Teacup 100
▁Towers 100
▁Tribal 100
▁Vector 100
▁Videos 100
▁Wonder 100
▁indoor 100
▁khốicr 100
▁naruto 100
▁powder 100
▁rating 100
▁selfie 100
▁stairs 100
▁ການຊື້ 100
▁ຊິງຕັນ 100
▁ຕາເວັນ 100
▁ຕົວແທນ 100
▁ຜົງດິບ 100
▁ສະຫວັນ 100
▁ແລະທໍ່ 100
▁ໂດຍລວມ 100
.02.2019 100
/05/2017 100
Whatsapp 100
achinery 100
ickercom 100
ironment 100
onavirus 100
urniture 100
ຍຸດທະສາດ 100
ທີ່ມີຢູ່ 100
ບດເຕີລີ່ 100
ບໍ່ມີການ 100
ແລະອື່ນໆ 100
▁Baoding 100
▁Booster 100
▁Camping 100
▁Develop 100
▁Frankie 100
▁Instant 100
▁Jessica 100
▁Jewelry 100
▁Jingmen 100
▁Liangxi 100
▁MACHINE 100
▁Petrole 100
▁Pradesh 100
▁Process 100
▁Telecom 100
▁Toronto 100
▁Torrent 100
▁Tourism 100
▁Updater 100
▁Weather 100
▁Winding 100
▁Workout 100
▁Wuqiang 100
▁Yueqing 100
▁ceramic 100
▁macaron 100
▁trolley 100
▁winding 100
▁wwwccst 100
▁ຄຸນະພາບ 100
▁ສົນທະນາ 100
▁ຫລັກສູດ 100
▁ເງິນສົດ 100
ategories 100
hongwugas 100
ຂັບເຄື່ອນ 100
ຄອມພິວເຕີ 100
ວິທະຍາສາດ 100
ອະລູມິນຽມ 100
▁Actuator 100
▁Colorado 100
▁Computer 100
▁Embossed 100
▁Florence 100
▁Freebies 100
▁Mandarin 100
▁Straight 100
▁Suriname 100
▁Template 100
▁Xinglong 100
▁favorite 100
▁mattress 100
▁molypden 100
▁ທາດເຫຼັກ 100
▁ປັດຈຸບັນ 100
▁ອະທິດຖານ 100
▁ແລະຜະລິດ 100
13.889.815 100
obeautiful 100
ການບໍລິການ 100
ການເດີນທາງ 100
ທຸລະກິດຂອງ 100
ທຸລະກິດທີ່ 100
ົບການສຶກສາ 100
ເປັນຈໍານວນ 100
▁2010-2019 100
▁Auslogics 100
▁Cellulose 100
▁Changfeng 100
▁Christian 100
▁Galvalume 100
▁Institute 100
▁Luancheng 100
▁Maharishi 100
▁Panasonic 100
▁Refresher 100
▁Sundsvall 100
▁Wikipedia 100
▁laminated 100
▁ການຕໍ່ສູ້ 100
▁ຄວາມສົນໃຈ 100
▁ຊື້ຕິດຕາມ 100
▁ທະນາຍຄວາມ 100
▁ທີ່ແທ້ຈິງ 100
▁ພາລາມິເຕີ 100
▁ສະຖານະພາບ 100
▁ເພດຮູບແບບ 100
▁09.08.2018 100
▁POLOSHIRTS 100
▁Prostepper 100
▁ການຄຸ້ມຄອງ 100
▁ຄວາມກະດ້າງ 100
▁ຄວາມສໍາຄັນ 100
▁ຊິງຕັນດີຊີ 100
▁ທີ່ຢູ່ອາໄສ 100
▁ວິທີການຊື້ 100
▁ເຄື່ອງເຮັດ 100
ລະບົບຕ່ອງໂສ້ 100
▁192.168.0.0 100
▁Accelerator 100
▁ການລົງທະບຽນ 100
▁ກ້ອງຖ່າຍຮູບ 100
▁Braunschweig 100
▁Pennsylvania 100
▁ປະເພດທຸລະກິດ 100
▁ປ້ອງກັນປະເທດ 100
▁ອະໄຫລ່ສໍາລັບ 100
▁ຮູບແບບຮູບພາບ 100
cryptocurrency 100
▁Infobeautiful 100
▁ຖົງການກັ່ນຕອງ 100
▁ລະບາຍຄວາມຮ້ອນ 100
▁ເຄື່ອງດູດຝຸ່ນ 100
▁wwwccstickercom 100
▁ວິທະຍາໄລແຫ່ງຊາດ 100
". 100
+3 100
0) 100
1: 100
8- 100
BI 100
Bl 100
Có 100
DR 100
EV 100
GD 100
IK 100
Kw 100
Kế 100
LO 100
MU 100
QM 100
SS 100
Se 100
TI 100
Ta 100
Tu 100
Vo 100
WP 100
XY 100
YK 100
ZZ 100
ae 100
cô 100
db 100
iy 100
lb 100
lô 100
pg 100
tc 100
uw 100
vn 100
wh 100
wl 100
xu 100
zb 100
ກິ 100
ຫູ 100
ແຟ 100
ịn 100
▁à 100
*** 100
,00 100
-0, 100
-1. 100
-72 100
.). 100
.33 100
.48 100
.59 100
.68 100
.76 100
.78 100
012 100
1.9 100
103 100
117 100
13, 100
135 100
156 100
2.5 100
223 100
24) 100
256 100
294 100
298 100
369 100
440 100
449 100
456 100
471 100
508 100
690 100
703 100
787 100
83" 100
869 100
89) 100
99" 100
:16 100
:41 100
ARD 100
Bar 100
Day 100
ESI 100
Fru 100
ISI 100
LIC 100
Mac 100
Mhz 100
OCK 100
OCT 100
One 100
Pai 100
Rep 100
Sur 100
Thể 100
Túi 100
XIN 100
agu 100
aka 100
aud 100
aze 100
bia 100
bot 100
cou 100
cre 100
cyn 100
dge 100
eps 100
fac 100
gic 100
gio 100
ias 100
ief 100
imy 100
irm 100
iro 100
job 100
kyo 100
loy 100
mad 100
mir 100
nel 100
như 100
oad 100
opo 100
sai 100
ths 100
tos 100
uch 100
usa 100
uva 100
wan 100
ydr 100
zhi 100
zzi 100
ຂວດ 100
ຄັດ 100
ດອນ 100
ດາຍ 100
ຕໍາ 100
ບວກ 100
ບາກ 100
ບາບ 100
ບິດ 100
ປັດ 100
ປືນ 100
ປຸກ 100
ປ່າ 100
ຝັງ 100
ມົນ 100
ສົງ 100
ອັບ 100
ເບຍ 100
ເມຍ 100
ແປກ 100
ແມງ 100
ໂຣກ 100
່ຽມ 100
▁") 100
▁&# 100
▁(@ 100
▁-2 100
▁3- 100
▁AJ 100
▁AX 100
▁BO 100
▁BR 100
▁Bỉ 100
▁CÁ 100
▁DK 100
▁EH 100
▁FG 100
▁FT 100
▁Gn 100
▁Ha 100
▁Hd 100
▁IQ 100
▁JA 100
▁Lỗ 100
▁MW 100
▁NE 100
▁NI 100
▁Nụ 100
▁OB 100
▁QF 100
▁RW 100
▁Rw 100
▁Tệ 100
▁XR 100
▁az 100
▁cự 100
▁el 100
▁er 100
▁kỉ 100
▁lờ 100
▁rổ 100
▁xỉ 100
▁£€ 100
▁ຫູ 100
▁ຫໍ 100
▁ແຮ 100
▁–; 100
-30% 100
-350 100
-450 100
-585 100
.00) 100
/180 100
/485 100
1010 100
1119 100
2311 100
2800 100
4450 100
5000 100
66"> 100
68"> 100
Axis 100
Blue 100
Cont 100
Hong 100
JIAN 100
LECT 100
Next 100
Note 100
TERN 100
Type 100
YERH 100
abad 100
achi 100
aire 100
alur 100
anka 100
azam 100
azzo 100
bone 100
card 100
come 100
cont 100
cuss 100
ebug 100
edar 100
eler 100
elta 100
ents 100
etal 100
fors 100
hand 100
hire 100
ices 100
ikes 100
inal 100
inda 100
irty 100
lios 100
love 100
nius 100
odao 100
olar 100
ooby 100
ools 100
orte 100
oufl 100
quan 100
rano 100
riad 100
rise 100
rome 100
sets 100
shir 100
sule 100
time 100
ubba 100
uder 100
ules 100
uxih 100
ກນິກ 100
ກຸ່ມ 100
ກໍາລ 100
ຂ້າມ 100
ຊື່ນ 100
ຊ້ອນ 100
ຍ້າຍ 100
ຕົ້ມ 100
ຖ່ານ 100
ທ້ອງ 100
ນິ້ວ 100
ນໍ້າ 100
ປ່ອງ 100
ພົ່ນ 100
ພ້ອມ 100
ຫນາວ 100
ຫມາກ 100
ຫວັງ 100
ຫະນະ 100
ຫາປາ 100
ຫິມະ 100
ຫຼວດ 100
ຮ້ານ 100
ເບີດ 100
ເລັບ 100
ແຕ້ມ 100
ແອັດ 100
່ງໃສ 100
▁$2, 100
▁$62 100
▁(*) 100
▁(4, 100
▁(8) 100
▁-30 100
▁005 100
▁031 100
▁1/4 100
▁126 100
▁129 100
▁184 100
▁2,0 100
▁219 100
▁222 100
▁238 100
▁3.9 100
▁305 100
▁319 100
▁345 100
▁5.4 100
▁6.4 100
▁641 100
▁7.0 100
▁7.6 100
▁770 100
▁830 100
▁860 100
▁9-1 100
▁990 100
▁ADS 100
▁AFP 100
▁Ads 100
▁Alu 100
▁Api 100
▁Atl 100
▁Côn 100
▁DMF 100
▁DXP 100
▁Dog 100
▁ERW 100
▁ETC 100
▁Esp 100
▁FAN 100
▁FDI 100
▁Fal 100
▁Flu 100
▁Fox 100
▁GWA 100
▁Guo 100
▁HTC 100
▁Hey 100
▁Hit 100
▁Hạn 100
▁Imm 100
▁Joy 100
▁Ker 100
▁Kha 100
▁LTE 100
▁Lỗi 100
▁MAX 100
▁MIL 100
▁MOD 100
▁McG 100
▁Mir 100
▁Nhỏ 100
▁NÀY 100
▁Nén 100
▁Oak 100
▁Osc 100
▁PAR 100
▁PLC 100
▁PVD 100
▁Phê 100
▁Ric 100
▁Rim 100
▁Rửa 100
▁SAR 100
▁SNE 100
▁SPD 100
▁SPR 100
▁SSD 100
▁Sha 100
▁Sid 100
▁Six 100
▁Séc 100
▁Sẵn 100
▁Sốc 100
▁THU 100
▁Tao 100
▁Tap 100
▁Thr 100
▁Tun 100
▁Tết 100
▁Tội 100
▁VAC 100
▁Vòi 100
▁Wil 100
▁Wra 100
▁YJD 100
▁Zip 100
▁art 100
▁blu 100
▁bon 100
▁bắp 100
▁bộc 100
▁cay 100
▁cel 100
▁def 100
▁dẻo 100
▁fly 100
▁gir 100
▁gre 100
▁gật 100
▁hâm 100
▁hải 100
▁lay 100
▁ltd 100
▁lùi 100
▁mưu 100
▁mộc 100
▁ngộ 100
▁out 100
▁pay 100
▁phú 100
▁sec 100
▁tas 100
▁trà 100
▁vặn 100
▁yes 100
▁ĐÂY 100
▁Đám 100
▁Đưa 100
▁đạn 100
▁đậu 100
▁ຄົວ 100
▁ຍຶດ 100
▁ດັງ 100
▁ດຶງ 100
▁ທົວ 100
▁ທ່າ 100
▁ພອນ 100
▁ພິວ 100
▁ລອຍ 100
▁ຫມູ 100
▁ຫົກ 100
▁ເຍຍ 100
▁ເອດ 100
▁ແກ່ 100
▁ໂລຫ 100
,2016 100
-4000 100
16.34 100
40-11 100
="0.2 100
Brazz 100
Break 100
Drive 100
METAL 100
Phòng 100
amide 100
aptor 100
arket 100
assis 100
bella 100
berry 100
crete 100
eguid 100
epona 100
erole 100
esman 100
https 100
idine 100
ifold 100
inson 100
isure 100
lopes 100
lover 100
oform 100
oodle 100
place 100
resso 100
rogen 100
shots 100
sters 100
video 100
visor 100
ybake 100
ກະດານ 100
ຄູປອງ 100
ພະຍາດ 100
ພະຫັດ 100
ຟຣິກາ 100
ມາຈາກ 100
ອດຕັນ 100
ຸກເກີ 100
ົດແທນ 100
ເວັ້ນ 100
ໄຟເບີ 100
▁$499 100
▁(100 100
▁(120 100
▁(130 100
▁(320 100
▁(500 100
▁0.18 100
▁1390 100
▁1960 100
▁1999 100
▁29.4 100
▁3015 100
▁410, 100
▁6500 100
▁BLOG 100
▁Bell 100
▁Binh 100
▁Biết 100
▁Biệt 100
▁Brad 100
▁Bund 100
▁Bust 100
▁CUNG 100
▁Chum 100
▁Chun 100
▁Coal 100
▁Cock 100
▁Cros 100
▁Cuộn 100
▁Ding 100
▁Dome 100
▁HIPS 100
▁Khắc 100
▁Kyiv 100
▁Loài 100
▁Magn 100
▁Midi 100
▁Mode 100
▁Ngôi 100
▁Nhất 100
▁Oppa 100
▁Oree 100
▁Penh 100
▁Pool 100
▁Prim 100
▁Prop 100
▁Rfid 100
▁Robo 100
▁Rượu 100
▁SNMP 100
▁STAR 100
▁Skin 100
▁Slim 100
▁Stor 100
▁Stro 100
▁Tile 100
▁UPVC 100
▁Weif 100
▁Well 100
▁WiFi 100
▁[... 100
▁cage 100
▁canh 100
▁char 100
▁chèn 100
▁chén 100
▁chấn 100
▁chớp 100
▁form 100
▁free 100
▁ghen 100
▁giàn 100
▁here 100
▁hoài 100
▁hplc 100
▁hãnh 100
▁khâu 100
▁khấu 100
▁leat 100
▁lượn 100
▁mens 100
▁menu 100
▁more 100
▁nhắm 100
▁port 100
▁quát 100
▁rail 100
▁shar 100
▁suối 100
▁thâm 100
▁tiễn 100
▁vươn 100
▁with 100
▁your 100
▁điền 100
▁ກວ່າ 100
▁ຄລິກ 100
▁ຖ່າຍ 100
▁ມ່ວນ 100
▁ລຸ່ມ 100
▁ສະຫຼ 100
▁ສະເປ 100
▁ເນີນ 100
▁ເຜີຍ 100
▁ເມັດ 100
▁ໄຟລ໌ 100
▁“... 100
-26.27 100
.0.101 100
/2016/ 100
/25/32 100
678910 100
Fruity 100
Option 100
SHIRTS 100
YERHAU 100
agonal 100
andard 100
arness 100
ductor 100
elling 100
isting 100
leymon 100
osable 100
ublish 100
worker 100
yption 100
ການຂາຍ 100
ຕະຫລາດ 100
ຕໍ່ລອງ 100
ພັດລົມ 100
ພັບໄດ້ 100
ລໍາໂພງ 100
ວິນຍານ 100
ສະຫມຸດ 100
ສະເພາະ 100
ສະເຫມີ 100
ສາຍແອວ 100
ສໍາຜັດ 100
ອອກຈາກ 100
ັດສະນະ 100
ເນື່ອງ 100
▁(1,50 100
▁1.000 100
▁15-20 100
▁2014, 100
▁33467 100
▁72.00 100
▁Adren 100
▁Anime 100
▁Anton 100
▁Award 100
▁Bella 100
▁Booth 100
▁Bruce 100
▁Bursa 100
▁CISSP 100
▁Chlor 100
▁Clark 100
▁Debby 100
▁Floor 100
▁Gyopo 100
▁Hương 100
▁Index 100
▁Jinan 100
▁Molly 100
▁Naked 100
▁Nhiên 100
▁Novos 100
▁Overs 100
▁POWER 100
▁Phnom 100
▁Plaza 100
▁Quyết 100
▁Reply 100
▁Right 100
▁Saver 100
▁Selen 100
▁Shift 100
▁Socks 100
▁Spins 100
▁Spray 100
▁Store 100
▁Synth 100
▁THÔNG 100
▁TRUNG 100
▁Tocyn 100
▁Tokyo 100
▁Truss 100
▁Tuyên 100
▁Unimy 100
▁Xinwu 100
▁lucks 100
▁mario 100
▁ngoái 100
▁phông 100
▁thuần 100
▁trans 100
▁ທັນທີ 100
▁ທີ່ຈະ 100
▁ວາວຜີ 100
▁ສີຟ້າ 100
▁ອາຊີບ 100
,500.00 100
MPlayer 100
climber 100
cussion 100
hotmail 100
ictoria 100
ippines 100
lioside 100
ouflage 100
ylinder 100
ymotion 100
ກົດຫມາຍ 100
ຂໍ້ຄວາມ 100
ຊັ້ນນໍາ 100
ທາງເທີງ 100
ທີ່ແລ້ວ 100
ບົດຄວາມ 100
ບໍລິຫານ 100
ປະຈໍາປີ 100
ປົກປ້ອງ 100
ຜ່ານແດນ 100
ພລາສຕິກ 100
ພະຍາກອນ 100
ພັກຜ່ອນ 100
ລ້ອມຮອບ 100
ສອບເສັງ 100
ສັງກະສີ 100
ຮູບຖ່າຍ 100
ົ່ານັ້ນ 100
ເລິກຂອງ 100
ໂຟນເດີ້ 100
▁10,000 100
▁54.0.2 100
▁86-159 100
▁86-512 100
▁ACCURL 100
▁Aichun 100
▁Backup 100
▁Baiyun 100
▁Canary 100
▁Coated 100
▁Duodao 100
▁Inkjet 100
▁Inspir 100
▁Invent 100
▁Jumper 100
▁Jution 100
▁Keyuda 100
▁Killer 100
▁Ladies 100
▁Linear 100
▁Mosaic 100
▁Movavi 100
▁ONLINE 100
▁Origin 100
▁Panels 100
▁Pyrrol 100
▁Recuva 100
▁Saddle 100
▁Seguid 100
▁Serial 100
▁Shazam 100
▁Welded 100
▁hellip 100
▁hippie 100
▁hovers 100
▁khoáng 100
▁origin 100
▁tagged 100
▁ການປັບ 100
▁ດັດແກ້ 100
▁ດີກວ່າ 100
▁ນັກຮຽນ 100
▁ບົດຮຽນ 100
▁ພາຍນອກ 100
▁ມື້ນີ້ 100
▁ລາຍງານ 100
▁ລົດຖີບ 100
▁ລໍາບາກ 100
▁ອອນໄລນ 100
▁ແມ່ນໃຜ 100
chloride 100
fengyuan 100
iracetam 100
ການສຶກສາ 100
ຊີເອັນຊີ 100
ຍິ່ງໃຫຍ່ 100
ຕົວເລືອກ 100
ທາງລົດໄຟ 100
ທາດເຫຼັກ 100
ສະແຕນເລດ 100
ສົ່ງເສີມ 100
ເງື່ອນໄຂ 100
ເປັນຫຍັງ 100
ໃບຄ້າຍຄື 100
່ວຍເຫຼືອ 100
▁422/485 100
▁59.0.30 100
▁Asphalt 100
▁Capsule 100
▁Catalog 100
▁Collect 100
▁Fusheng 100
▁Genesis 100
▁Ireland 100
▁Palazzo 100
▁Perfect 100
▁Reshine 100
▁Shangke 100
▁Shengyu 100
▁Society 100
▁Songben 100
▁Steroid 100
▁Sweater 100
▁Tensile 100
▁Vilnius 100
▁WebSite 100
▁bending 100
▁melting 100
▁pleated 100
▁wedding 100
▁ການເກັບ 100
▁ຂ້ອຍໄດ້ 100
▁ຕື່ມການ 100
▁ປັກກິ່ງ 100
▁ສິ່ງພິມ 100
▁ສຸກເສີນ 100
▁ເຮືອບິນ 100
▁ແຜ່ນມຸງ 100
.23-26.27 100
unication 100
unnygames 100
urization 100
ການອອກແບບ 100
ກໍາລັງກາຍ 100
ສະກຸນເງິນ 100
ສະລັອດຕິງ 100
ສົມບູນແບບ 100
ແລະຂະຫນາດ 100
ແສງຕາເວັນ 100
ໄຟອັນຕລາຍ 100
▁0086-532 100
▁43.0.244 100
▁Aquarium 100
▁Botanics 100
▁Chloride 100
▁Chunyuan 100
▁Clarinet 100
▁Columbia 100
▁CrushThe 100
▁December 100
▁Doraemon 100
▁Estepona 100
▁Facetime 100
▁Fangqian 100
▁Function 100
▁Ironwork 100
▁KOOWHEEL 100
▁Kopybake 100
▁Launcher 100
▁Longgang 100
▁Macverin 100
▁Marbella 100
▁Membrane 100
▁Pakistan 100
▁Punching 100
▁SNEAKERS 100
▁Shenyong 100
▁Tempered 100
▁Unloader 100
▁WEYERHAU 100
▁WinMount 100
▁conveyor 100
▁hardware 100
▁hologram 100
▁ຂະບວນການ 100
▁ປະເພດຂອງ 100
▁ລາຄາຕ່ໍາ 100
▁ວັນພະຫັດ 100
▁ຫ້ອງນ້ໍາ 100
▁ແມ່ນແລ້ວ 100
▁ໂປໂມຊັ່ນ 100
shirleymon 100
ການວັດສະດຸ 100
ທີ່ໃຊ້ເວລາ 100
▁42.0.2393 100
▁Automatic 100
▁Casserole 100
▁Centrifug 100
▁Embossing 100
▁Equipment 100
▁Laminated 100
▁Landesman 100
▁Melbourne 100
▁MoneyGram 100
▁Regulator 100
▁Slotmatic 100
▁Unimyriad 100
▁Wallpaper 100
▁diaphragm 100
▁messenger 100
▁ການຕິດຕາມ 100
▁ການສູນເສຍ 100
▁ຂັ້ນຕອນທີ 100
▁ຈັດອັນດັບ 100
▁ສໍານັກງານ 100
▁ອົດສະຕາລີ 100
▁ຮູບແບບການ 100
▁ເຊື່ອມຕໍ່ 100
Brazzaville 100
ຕົ້ນກໍາເນີດ 100
ບົບໄຮໂດຼລິກ 100
▁0086-311-8 100
▁Breathable 100
▁Calibrator 100
▁CompanyHub 100
▁Disposable 100
▁Essentials 100
▁Protection 100
▁Queensland 100
▁Seguidores 100
▁SlotFruity 100
▁SoundCloud 100
▁Washington 100
▁background 100
▁ironworker 100
▁originated 100
▁skateboard 100
▁ການສົນທະນາ 100
▁ຊັບໂຟນເດີ້ 100
▁ນໍາທິດສະນີ 100
▁ປະເທດສະວິດ 100
▁ວາວຜີເສື້ອ 100
▁ສີດໍາແລະສີ 100
▁ໃນປັດຈຸບັນ 100
Manufacturer 100
ການເລີ່ມຕົ້ນ 100
▁16/22/25/32 100
▁Transparent 100
▁Xinfengyuan 100
▁ຈໍານວນບັນຈຸ 100
▁ທີ່ຢູ່ອີເມວ 100
▁ເຄື່ອງບັນຈຸ 100
▁............ 100
▁Polyurethane 100
▁Treadclimber 100
▁ການຈັດອັນດັບ 100
▁ຜົນສໍາລັບການ 100
▁ລະຫັດການເງິນ 100
▁ເດືອນທີ່ແລ້ວ 100
▁ເອເລັກໂຕຣນິກ 100
▁Cryptotrading 100
▁ການດໍາເນີນງານ 100
▁ຂະຫນາດທັງຫມົດ 100
▁ຈໍານວນທັງຫມົດ 100
▁ຊື່ຜະລິດຕະພັນ 100
▁ກັບການຝຶກອົບຮົມ 100
▁ຕົ້ນສະບັບສໍາລັບ 100
!, 100
,” 100
7" 100
9" 100
:3 100
=' 100
BD 100
Br 100
DX 100
EF 100
FX 100
Fr 100
GU 100
HV 100
Hu 100
Id 100
JI 100
Le 100
Sử 100
TK 100
UE 100
WA 100
WH 100
Xt 100
Yb 100
có 100
dZ 100
lf 100
oC 100
pv 100
rP 100
rh 100
sn 100
ws 100
zy 100
ÁT 100
ກໍ 100
ທາ 100
ເຢ 100
ໂບ 100
້ໍ 100
*18 100
-2- 100
-38 100
-5, 100
-51 100
-96 100
.57 100
.89 100
024 100
106 100
107 100
11) 100
124 100
16) 100
199 100
208 100
226 100
22: 100
24" 100
249 100
266 100
287 100
297 100
3.6 100
305 100
317 100
357 100
382 100
46, 100
507 100
51" 100
6"> 100
6.0 100
662 100
665 100
675 100
7-4 100
713 100
741 100
884 100
904 100
94, 100
95% 100
956 100
:34 100
ANH 100
ASK 100
Alu 100
Ang 100
BER 100
DER 100
DOC 100
DSM 100
Ele 100
FIB 100
Hãy 100
Imp 100
JOT 100
Koh 100
LEX 100
Làm 100
MAN 100
Mỗi 100
OLD 100
OSS 100
OWO 100
PEX 100
RSS 100
Rob 100
SPP 100
Spy 100
Sản 100
TIA 100
UBE 100
USB 100
VNC 100
Vid 100
WAY 100
ZUK 100
abr 100
alm 100
asa 100
ask 100
avy 100
aww 100
bei 100
bey 100
cal 100
chu 100
cor 100
cyc 100
dao 100
dol 100
dài 100
eak 100
edy 100
eep 100
fam 100
gam 100
goo 100
gre 100
hao 100
ipe 100
kal 100
lox 100
lên 100
map 100
med 100
nik 100
onc 100
ony 100
ppm 100
rac 100
rim 100
rit 100
sky 100
ulu 100
uyu 100
ຂາດ 100
ຄອມ 100
ຄີມ 100
ຄົດ 100
ຈົບ 100
ຊີນ 100
ດັດ 100
ຖັກ 100
ຖັງ 100
ຖຸດ 100
ຖົມ 100
ຖຽງ 100
ປອມ 100
ມາກ 100
ມີດ 100
ລາງ 100
ສະຖ 100
ສາວ 100
ສືບ 100
ຫວງ 100
ຫວດ 100
ຫິນ 100
ີນີ 100
ເລື 100
ໍ່າ 100
ềng 100
”). 100
▁$: 100
▁(" 100
▁*, 100
▁+7 100
▁4- 100
▁=" 100
▁AB 100
▁BE 100
▁Bệ 100
▁Bị 100
▁Dữ 100
▁Ec 100
▁Ek 100
▁FF 100
▁HR 100
▁IS 100
▁KY 100
▁Kỷ 100
▁MZ 100
▁Mĩ 100
▁Og 100
▁QE 100
▁QS 100
▁RP 100
▁TW 100
▁Ug 100
▁Ur 100
▁VR 100
▁Vs 100
▁WU 100
▁YQ 100
▁ZS 100
▁ađ 100
▁bể 100
▁cọ 100
▁dạ 100
▁go 100
▁it 100
▁me 100
▁mo 100
▁ne 100
▁ob 100
▁pF 100
▁rũ 100
▁tò 100
▁zh 100
▁ôi 100
▁đẻ 100
▁ຕູ 100
▁ຝາ 100
▁ຢູ 100
▁ສິ 100
▁ສຸ 100
▁ໂຈ 100
▁ໂຍ 100
▁ໂບ 100
▁ớt 100
)))) 100
-001 100
-1.5 100
-212 100
-217 100
-260 100
-444 100
.00+ 100
172) 100
1808 100
1811 100
2,3, 100
2060 100
2345 100
31-8 100
="12 100
="14 100
="25 100
AMIS 100
DFab 100
DING 100
Fans 100
Good 100
HDBK 100
John 100
Khrs 100
Kích 100
Live 100
Plex 100
ROID 100
ROUP 100
Tags 100
Vero 100
Wire 100
abil 100
addy 100
agas 100
ager 100
aler 100
amed 100
ande 100
anks 100
arep 100
arma 100
ased 100
athe 100
aunt 100
ball 100
bigz 100
cial 100
ckey 100
cuối 100
côla 100
dZBX 100
drop 100
eman 100
epts 100
erox 100
eset 100
fram 100
furt 100
ibir 100
iden 100
idin 100
iled 100
ilun 100
inar 100
iper 100
iter 100
kina 100
lead 100
lene 100
lift 100
mers 100
odes 100
olls 100
omat 100
onze 100
oooo 100
osis 100
oval 100
pler 100
quid 100
rate 100
rial 100
shui 100
slid 100
tong 100
urch 100
ures 100
urok 100
utes 100
uttg 100
xiao 100
ycin 100
ບນ້ໍ 100
ຟື້ນ 100
ສະວະ 100
ັກຊິ 100
ຸດຕິ 100
ົນລະ 100
ເຈາະ 100
ເຊີນ 100
ເມັນ 100
ເຢຊູ 100
ເລີຍ 100
ເວທີ 100
ແກັດ 100
ແຂ້ວ 100
ແຫວງ 100
ໂນ້ມ 100
———— 100
▁$72 100
▁(70 100
▁(90 100
▁-1, 100
▁01, 100
▁070 100
▁09: 100
▁1-3 100
▁113 100
▁13: 100
▁14. 100
▁168 100
▁177 100
▁18: 100
▁196 100
▁19: 100
▁202 100
▁214 100
▁24/ 100
▁255 100
▁285 100
▁312 100
▁321 100
▁323 100
▁33, 100
▁389 100
▁410 100
▁431 100
▁445 100
▁475 100
▁510 100
▁540 100
▁58, 100
▁60% 100
▁647 100
▁769 100
▁8,5 100
▁8.3 100
▁875 100
▁920 100
▁940 100
▁<10 100
▁Aff 100
▁Any 100
▁BOX 100
▁Bếp 100
▁CCJ 100
▁CSV 100
▁CTN 100
▁Cha 100
▁DCP 100
▁DMH 100
▁Dim 100
▁Diy 100
▁Djs 100
▁Dot 100
▁Dtg 100
▁ECN 100
▁EMS 100
▁ETL 100
▁FAX 100
▁FIL 100
▁FIT 100
▁GED 100
▁GEN 100
▁Gay 100
▁HOA 100
▁Had 100
▁Hid 100
▁Hog 100
▁Jas 100
▁KMS 100
▁Kẹp 100
▁Lam 100
▁Mix 100
▁Mut 100
▁Núi 100
▁Nồi 100
▁OCL 100
▁OUT 100
▁Ore 100
▁Ott 100
▁Pok 100
▁Quà 100
▁REN 100
▁RTS 100
▁Rid 100
▁Rủi 100
▁SUS 100
▁Sac 100
▁Sav 100
▁Sen 100
▁Sew 100
▁Ski 100
▁Spc 100
▁TNT 100
▁TRF 100
▁Tee 100
▁Tạp 100
▁Tới 100
▁UHF 100
▁Use 100
▁Vit 100
▁Vjs 100
▁WAT 100
▁WIN 100
▁ZOH 100
▁amp 100
▁amy 100
▁bow 100
▁bón 100
▁búp 100
▁bến 100
▁cal 100
▁chớ 100
▁cry 100
▁cạn 100
▁den 100
▁det 100
▁dew 100
▁dào 100
▁end 100
▁gaz 100
▁guy 100
▁gầm 100
▁gắt 100
▁hem 100
▁hầm 100
▁hỡi 100
▁kẹt 100
▁lim 100
▁loa 100
▁mir 100
▁múa 100
▁ngư 100
▁ngự 100
▁nâu 100
▁nấm 100
▁nộp 100
▁pho 100
▁png 100
▁pop 100
▁sur 100
▁tro 100
▁vắn 100
▁xxx 100
▁Đời 100
▁ưng 100
▁ຄັງ 100
▁ຄິກ 100
▁ຊຸມ 100
▁ຕັນ 100
▁ຜູກ 100
▁ພອດ 100
▁ພັດ 100
▁ມອບ 100
▁ລວງ 100
▁ສະນ 100
▁ສືບ 100
▁ສູບ 100
▁ສູ້ 100
▁ຫາກ 100
▁ຮົບ 100
▁ເລດ 100
▁ແກະ 100
▁ແຈກ 100
▁ແພດ 100
▁ແຫນ 100
▁ໂປຣ 100
▁ໄຟລ 100
▁ໄລ່ 100
▁≤20 100
▁≤50 100
-133, 100
-2006 100
-2007 100
-2010 100
00000 100
1430, 100
="2.1 100
FIBER 100
Flash 100
Force 100
Inter 100
PEXPO 100
RIGHT 100
Saver 100
Trong 100
YbJOT 100
ademy 100
aline 100
ambis 100
amics 100
atong 100
attle 100
chest 100
ducts 100
ealth 100
ecial 100
eplay 100
front 100
gency 100
green 100
guard 100
haust 100
iking 100
imide 100
inite 100
inity 100
issan 100
ivery 100
lands 100
người 100
occer 100
ooper 100
phere 100
phine 100
ringe 100
shell 100
smith 100
ultic 100
utang 100
utein 100
zhong 100
ກາຊວນ 100
ຍາກາດ 100
ຍືດຫຍ 100
ຖຸດິບ 100
ປະສານ 100
ສະບາຍ 100
ີ້ຈຽງ 100
ື່ມວນ 100
ເທື່ອ 100
ເຟີນີ 100
ເລັ່ງ 100
ເສສວນ 100
ເຫລໍກ 100
ເອີ້ນ 100
ໄຂມັນ 100
▁(106 100
▁(112 100
▁(25) 100
▁(3,0 100
▁+085 100
▁+1-4 100
▁+1-9 100
▁0.03 100
▁0.13 100
▁1,25 100
▁106* 100
▁1310 100
▁16.0 100
▁1700 100
▁1900 100
▁2-10 100
▁200% 100
▁2004 100
▁203* 100
▁2050 100
▁2200 100
▁5.0/ 100
▁7.41 100
▁7000 100
▁776, 100
▁<1,5 100
▁<1.5 100
▁ASIC 100
▁Abac 100
▁Auth 100
▁Bead 100
▁Bern 100
▁Bhub 100
▁CCNA 100
▁Cady 100
▁Carn 100
▁Chew 100
▁Chic 100
▁Chân 100
▁Chậu 100
▁Clin 100
▁Corn 100
▁Crim 100
▁Cuốn 100
▁DBMS 100
▁Date 100
▁Dinh 100
▁Diễu 100
▁Dũng 100
▁Fake 100
▁Faso 100
▁GMCC 100
▁HPMC 100
▁Halo 100
▁KING 100
▁Kent 100
▁Khảo 100
▁LLCs 100
▁Lact 100
▁Lego 100
▁Love 100
▁Lucy 100
▁MTBF 100
▁Mind 100
▁Mono 100
▁NGHI 100
▁Nash 100
▁Nghỉ 100
▁Oven 100
▁Palm 100
▁Peer 100
▁Pend 100
▁Pers 100
▁Plat 100
▁Prep 100
▁Pric 100
▁Qaww 100
▁RHCE 100
▁Read 100
▁Rock 100
▁SALE 100
▁SSAW 100
▁Sine 100
▁Sony 100
▁Sour 100
▁Span 100
▁Summ 100
▁Teda 100
▁Temp 100
▁Than 100
▁Thúc 100
▁Thần 100
▁Tram 100
▁Trav 100
▁Vest 100
▁VigR 100
▁WEST 100
▁Ware 100
▁Wars 100
▁Wool 100
▁YORK 100
▁Yobo 100
▁Zero 100
▁Zhao 100
▁chém 100
▁chật 100
▁chốt 100
▁cưỡi 100
▁diam 100
▁gươm 100
▁html 100
▁hăng 100
▁lady 100
▁link 100
▁láng 100
▁lình 100
▁maxi 100
▁mắng 100
▁mộng 100
▁nang 100
▁ngầm 100
▁nhíp 100
▁nhạt 100
▁nhầm 100
▁nhằn 100
▁nuốt 100
▁park 100
▁phai 100
▁quầy 100
▁solo 100
▁taxi 100
▁teen 100
▁thèm 100
▁trùm 100
▁trút 100
▁view 100
▁well 100
▁wifi 100
▁ການບ 100
▁ກາເຟ 100
▁ລະດູ 100
▁ສະຫມ 100
▁ຫມໍ້ 100
▁ຫວານ 100
▁ເກົາ 100
▁ແບ່ງ 100
▁≤-18 100
-2017: 100
2,3,4- 100
AMISER 100
Anundg 100
Blythe 100
Center 100
Custom 100
Google 100
Master 100
Office 100
abolic 100
activo 100
amburg 100
anding 100
anhang 100
ibirsk 100
icolon 100
idence 100
ifluor 100
illips 100
intech 100
izable 100
jector 100
liance 100
listat 100
lythes 100
onesia 100
osilic 100
oulder 100
ronics 100
thanol 100
uckles 100
usting 100
ກັນໄດ້ 100
ກາກບອນ 100
ທີມງານ 100
ສັນຍານ 100
ສົ່ງນ້ 100
ຫນັງສື 100
ອິນເດຍ 100
ເອງໄດ້ 100
ໂດຍລວມ 100
ໃສ່ກອນ 100
້າມລໍ້ 100
▁01.01 100
▁1,200 100
▁1.99% 100
▁2017: 100
▁2019: 100
▁22,50 100
▁9.999 100
▁Album 100
▁Allah 100
▁CPTPP 100
▁Cards 100
▁Carol 100
▁Cedar 100
▁Chalk 100
▁Chunh 100
▁Const 100
▁Craft 100
▁Davos 100
▁Delta 100
▁Depth 100
▁Douyu 100
▁EPSON 100
▁Eagle 100
▁Forum 100
▁FuXin 100
▁Gears 100
▁Guide 100
▁Guzzi 100
▁Haiti 100
▁Henna 100
▁Hyder 100
▁India 100
▁Irene 100
▁Karls 100
▁Layla 100
▁Movie 100
▁Nevis 100
▁Nomex 100
▁Ourok 100
▁Paste 100
▁PetrP 100
▁Phase 100
▁Pitch 100
▁Pizza 100
▁Plant 100
▁Polka 100
▁Pouch 100
▁Puppy 100
▁REACH 100
▁Roman 100
▁Royal 100
▁SUZUK 100
▁Samoa 100
▁Scale 100
▁Scrib 100
▁Seals 100
▁Shoes 100
▁Stuff 100
▁Thiêu 100
▁Thiệu 100
▁Thuật 100
▁Title 100
▁Topic 100
▁Trail 100
▁Tránh 100
▁Tuyến 100
▁UNION 100
▁Uncon 100
▁Viber 100
▁cello 100
▁click 100
▁cuồng 100
▁giềng 100
▁laugh 100
▁lined 100
▁lường 100
▁nghìn 100
▁power 100
▁quart 100
▁quãng 100
▁quăng 100
▁shell 100
▁thuẫn 100
▁thừng 100
▁trump 100
▁tutor 100
▁vượng 100
▁wrote 100
▁ກະຕ່າ 100
▁ກໍາມະ 100
▁ຄູປອງ 100
▁ບົດທີ 100
▁ພະລັງ 100
▁ພະແນກ 100
▁ເຫລໍກ 100
,201615 100
Natural 100
Section 100
Torrent 100
agascar 100
agnetic 100
aneswar 100
antikov 100
atering 100
baokang 100
ingdoor 100
ishlist 100
lectric 100
neakers 100
olvadex 100
station 100
sterdam 100
sulting 100
uttgart 100
ກະສິກໍາ 100
ຂາຍສົ່ງ 100
ຄວາມສູງ 100
ຄາດຄະເນ 100
ທີ່ທ່ານ 100
ທົ່ວໂລກ 100
ພາດເມັນ 100
ຢ້ຽມຢາມ 100
ລະປະທານ 100
ວິທີການ 100
ສັ່ງຊື້ 100
ສາຫະກິດ 100
ອດຕັນໃນ 100
ຮ່າງການ 100
ັກໂນໂລຢ 100
ເປັນຈິງ 100
ເຮັດໄດ້ 100
່ອນຫນ້າ 100
▁$54.00 100
▁$62.00 100
▁$72.00 100
▁0574-8 100
▁86-180 100
▁Access 100
▁Active 100
▁Altern 100
▁Anping 100
▁Beilun 100
▁Bronze 100
▁Church 100
▁Cypcut 100
▁DVDFab 100
▁Daniel 100
▁Dragon 100
▁France 100
▁Garage 100
▁Garden 100
▁Hadoop 100
▁Hoodie 100
▁Hotels 100
▁Huting 100
▁Hybrid 100
▁Images 100
▁Kandun 100
▁Lights 100
▁Maland 100
▁Member 100
▁Memory 100
▁Nissan 100
▁OCLoop 100
▁PPSSPP 100
▁Presse 100
▁Renshi 100
▁Riders 100
▁Ripple 100
▁Safari 100
▁Script 100
▁Shuxih 100
▁Skrill 100
▁Slider 100
▁Survey 100
▁Sôcôla 100
▁Teneng 100
▁Tianyi 100
▁Transm 100
▁Tumblr 100
▁Washer 100
▁anhững 100
▁choàng 100
▁equine 100
▁frozen 100
▁google 100
▁inches 100
▁jersey 100
▁khiêng 100
▁killer 100
▁nhượng 100
▁screen 100
▁sensor 100
▁sextet 100
▁tester 100
▁vanity 100
▁ກາກບອນ 100
▁ການໃຊ້ 100
▁ຂອງຕຽງ 100
▁ຂອບແລະ 100
▁ຄ່າຄອງ 100
▁ຈະເປັນ 100
▁ທົດສອບ 100
▁ພາຍໃຕ້ 100
▁ພົບກັບ 100
▁ລັດເຊຍ 100
▁ຫລັງຄາ 100
▁ແບບບໍ່ 100
▁ໂດຍກົງ 100
/06/2017 100
OneAdele 100
arepants 100
building 100
download 100
endering 100
flatable 100
ollowers 100
omethane 100
ຍືດຫຍຸ່ນ 100
ທີ່ບໍ່ມີ 100
ປະຈໍາຕົວ 100
ພວກເຮົາມ 100
ພະນັກງານ 100
ເຟີນີເຈີ 100
ເຫຼັກກ້າ 100
▁051430, 100
▁100.000 100
▁86-0755 100
▁86-21-6 100
▁Adaptor 100
▁America 100
▁Armenia 100
▁Cartoon 100
▁Chapter 100
▁Chassis 100
▁Circuit 100
▁College 100
▁Complet 100
▁Cooling 100
▁Counter 100
▁DAMISER 100
▁Dusting 100
▁Feiying 100
▁Gallery 100
▁Glitter 100
▁Goldman 100
▁Guanlan 100
▁Hacking 100
▁Huiyang 100
▁Kneader 100
▁Lithium 100
▁Loading 100
▁Matthew 100
▁Melesun 100
▁Melting 100
▁Offline 100
▁Pattaya 100
▁Phoenix 100
▁Pokemon 100
▁Qawwali 100
▁RENJIAN 100
▁Rainbow 100
▁Version 100
▁acetate 100
▁cushion 100
▁dresses 100
▁electro 100
▁jackets 100
▁satchel 100
▁soporte 100
▁spandex 100
▁support 100
▁trading 100
▁ການເສີມ 100
▁ຕົກແຕ່ງ 100
▁ຖ່ານຫີນ 100
▁ທັດສະນະ 100
▁ປະຊາຊົນ 100
▁ພັກຜ່ອນ 100
/08/2019) 100
YbJOTdZBX 100
quinoline 100
ventional 100
ການຄວບຄຸມ 100
ການຕະຫຼາດ 100
ຊໍາລະເງິນ 100
ຕ່າງປະເທດ 100
ທະນາຍຄວາມ 100
ຢູ່ທີ່ນີ້ 100
ຮັບຜິດຊອບ 100
້ອນຂໍ້ມູນ 100
▁8.2.3523 100
▁ALLcolor 100
▁APPPEXPO 100
▁Analysis 100
▁Carambis 100
▁Guangdon 100
▁Handheld 100
▁Orlistat 100
▁Rayhaber 100
▁Registry 100
▁Selenium 100
▁Showcase 100
▁SnapChat 100
▁Strictly 100
▁Stripper 100
▁Zhanhang 100
▁Zirconia 100
▁silicone 100
▁ກວດເບິ່ງ 100
▁ການສະແດງ 100
▁ຄວາມຊື້ນ 100
▁ຊື້ໂດເມນ 100
▁ນາທີອ່ານ 100
▁ພາດສະຕິກ 100
▁ມີຄໍາຖາມ 100
ການປ່ຽນແປງ 100
ເລືອດຕັນໃນ 100
ແຕກຕ່າງກັນ 100
▁000123100 100
▁0086-21-5 100
▁031-738-5 100
▁Alexander 100
▁Amsterdam 100
▁Appliance 100
▁Boldenone 100
▁Hyderabad 100
▁MobiSaver 100
▁Princeton 100
▁Semicolon 100
▁Strongsaw 100
▁Stuttgart 100
▁Xiongxian 100
▁Xiongzhou 100
▁composite 100
▁jailbreak 100
▁ການກວດສອບ 100
▁ການຄາດການ 100
▁ການໃສ່ກອນ 100
▁ຄວາມໄວຕັດ 100
▁ຕັດເຄື່ອງ 100
▁ທີ່ສໍາຄັນ 100
▁ທໍ່ສົ່ງນ້ 100
▁ສ່ວນປະກອບ 100
▁ເປົ້າຫມາຍ 100
▁ແຂວງເສສວນ 100
▁ແບດເຕີລີ່ 100
▁ໂທຫ້ອງການ 100
OTORECOVERY 100
slidingdoor 100
yptocurrenc 100
ຝຶກອົບຮົມໃນ 100
▁0086-577-6 100
▁2010-2017: 100
▁7.41.0.101 100
▁Capacitive 100
▁Consulting 100
▁Discharger 100
▁Embroidery 100
▁Encryption 100
▁Formestane 100
▁FuXinCheng 100
▁Phosphoric 100
▁Synephrine 100
▁Underwater 100
▁ການວັດສະດຸ 100
▁ການແຂ່ງຂັນ 100
▁ຜູ້ສົ່ງອອກ 100
▁ເຄື່ອງຫມາຍ 100
▁ເງິນກູ້ຢືມ 100
OneAdeleFans 100
▁192.168.1.1 100
▁Bhubaneswar 100
▁Environment 100
▁Novosibirsk 100
▁Philippines 100
▁Sublimation 100
▁squarepants 100
▁ຄວາມຖືກຕ້ອງ 100
▁ຄວາມສາມາດໃນ 100
▁ຄ່າຄອງຊີບໃນ 100
▁ຈົບການສຶກສາ 100
▁ຕົ້ນກໍາເນີດ 100
▁ສາມາດພັບໄດ້ 100
▁ສາມາດໃຊ້ໄດ້ 100
▁Shuxihuanjie 100
▁Zhongbaokang 100
▁khốicryptocr 100
▁testosterone 100
▁ຂະຫນາດເຄື່ອງ 100
▁ຕູ້ຄອນເທນເນີ 100
▁ທໍາມະຊາດສ້າງ 100
▁ບໍລິເວນເສັ້ນ 100
creapublicidad 100
▁Polypropylene 100
▁Trichloroisoc 100
▁blockcryptocr 100
▁ຂະຫນາດພື້ນທີ່ 100
▁ວຽກເຮັດງານທໍາ 100
▁ສິ່ງທີ່ຄວນຮູ້ 100
▁Unconventional 100
▁ເກມໂທລະສັບມືຖື 100
slidingdoorchina 100
ແລະຂະຫນາດຮູບຖ່າຍ 100
▁Vizitinekortele 100
▁ການຄາດການຕະຫລາດ 100
▁ການສະຫນັບສະຫນູນ 100
▁ຊັບໂຟນເດີ້ຕ່າງໆ 100
▁ໂມເລກຸນນ້ໍາຫນັກ 100
'' 100
-, 100
/1 100
1_ 100
2% 100
8. 100
:2 100
>> 100
Be 100
Hs 100
IO 100
KE 100
LH 100
LL 100
LY 100
La 100
PU 100
Pc 100
Ri 100
SL 100
Sy 100
We 100
Xi 100
YA 100
Ye 100
cj 100
ha 100
kv 100
từ 100
wa 100
xc 100
xl 100
££ 100
ãm 100
ຈີ 100
ບຸ 100
ຝາ 100
ຟໍ 100
ຣິ 100
ອຟ 100
າບ 100
”; 100
+86 100
-1) 100
-23 100
-43 100
-4: 100
-7, 100
-82 100
.32 100
.38 100
.44 100
.69 100
.79 100
.96 100
0.2 100
0.5 100
0.6 100
023 100
072 100
119 100
12: 100
168 100
173 100
176 100
177 100
178 100
18, 100
197 100
22, 100
238 100
241 100
25) 100
26" 100
278 100
289 100
3-1 100
301 100
35) 100
4.8 100
416 100
43) 100
63) 100
656 100
658 100
679 100
696 100
70) 100
704 100
720 100
726 100
77) 100
778 100
803 100
811 100
821 100
824 100
84" 100
857 100
897 100
953 100
AWA 100
Anh 100
BAT 100
BTC 100
Cut 100
DVD 100
Dig 100
EEN 100
ETI 100
Gal 100
IAL 100
ICS 100
KHz 100
Log 100
Net 100
New 100
OTS 100
SMD 100
SOR 100
UCH 100
Upd 100
YJD 100
ZEN 100
abl 100
ats 100
bad 100
bat 100
cha 100
cmx 100
cos 100
cue 100
dar 100
eop 100
esa 100
ese 100
fog 100
gee 100
hib 100
hor 100
igo 100
igu 100
kes 100
lao 100
mei 100
mus 100
noy 100
nền 100
oda 100
odo 100
oro 100
rib 100
rio 100
sec 100
sey 100
sha 100
thi 100
uba 100
ude 100
yme 100
yue 100
ກີດ 100
ຈອງ 100
ຈູງ 100
ຈົດ 100
ຈົນ 100
ຊັກ 100
ຍອມ 100
ດວກ 100
ທະນ 100
ທຽນ 100
ບໄຊ 100
ປອກ 100
ຜົງ 100
ຢຸດ 100
ລອນ 100
ລີດ 100
ສອກ 100
ສຸມ 100
ຫວາ 100
ຮອຍ 100
ະລາ 100
ແຄມ 100
ໂຍງ 100
ẢNG 100
▁$8 100
▁$9 100
▁&; 100
▁-0 100
▁1% 100
▁3% 100
▁7) 100
▁AG 100
▁Aw 100
▁ED 100
▁FN 100
▁FO 100
▁GH 100
▁HF 100
▁HU 100
▁Hz 100
▁IM 100
▁JM 100
▁LE 100
▁Lô 100
▁ML 100
▁OC 100
▁OF 100
▁RG 100
▁RV 100
▁Sỹ 100
▁TL 100
▁TN 100
▁TU 100
▁TƯ 100
▁Tụ 100
▁VH 100
▁VP 100
▁Vẽ 100
▁WS 100
▁YO 100
▁ZX 100
▁dc 100
▁kr 100
▁uk 100
▁xô 100
▁£5 100
▁£; 100
▁ກວ 100
▁ຄໍ 100
!”.— 100
-0.5 100
-135 100
-143 100
-320 100
-6.0 100
-700 100
1,1- 100
1025 100
1946 100
2008 100
2010 100
3.20 100
7649 100
999% 100
://8 100
CHAR 100
CNFA 100
Cách 100
IDEO 100
▁ 100
n 100
h 100
i 100
t 100
c 100
g 100
a 100
o 100
e 100
r 100
m 100
u 100
0 100
l 100
s 100
າ 100
. 100
ນ 100
1 100
y 100
à 100
2 100
p 100
, 100
đ 100
v 100
d 100
T 100
C 100
b 100
ດ 100
á 100
k 100
ກ 100
: 100
ư 100
5 100
່ 100
ັ 100
S 100
ະ 100
ອ 100
ງ 100
3 100
- 100
້ 100
ລ 100
ເ 100
ມ 100
ô 100
8 100
N 100
ວ 100
ບ 100
ສ 100
6 100
M 100
P 100
ế 100
4 100
ຫ 100
ạ 100
ả 100
ີ 100
H 100
B 100
ó 100
A 100
ộ 100
9 100
ệ 100
ິ 100
D 100
7 100
ທ 100
L 100
ố 100
ໍ 100
x 100
ờ 100
ົ 100
ê 100
ấ 100
ớ 100
/ 100
ề 100
G 100
ຕ 100
V 100
R 100
ຄ 100
ຍ 100
ì 100
â 100
ể 100
ຂ 100
E 100
ú 100
ủ 100
ແ 100
ປ 100
) 100
K 100
( 100
ậ 100
ພ 100
I 100
ື 100
F 100
Đ 100
ợ 100
ọ 100
ơ 100
f 100
w 100
í 100
ầ 100
ự 100
O 100
ị 100
q 100
ໂ 100
ຈ 100
W 100
ຸ 100
ứ 100
ຊ 100
ູ 100
ă 100
ã 100
ữ 100
ໄ 100
ụ 100
ຮ 100
U 100
ໃ 100
ở 100
ắ 100
? 100
Q 100
ຜ 100
" 100
ò 100
ặ 100
X 100
_ 100
ồ 100
z 100
ຽ 100
> 100
J 100
* 100
ổ 100
Y 100
ử 100
ừ 100
+ 100
ù 100
é 100
ຖ 100
ຢ 100
ẽ 100
ỉ 100
ỏ 100
! 100
$ 100
ỗ 100
– 100
ẩ 100
ằ 100
໌ 100
Z 100
& 100
ý 100
= 100
ຟ 100
% 100
j 100
ຼ 100
ĩ 100
ễ 100
ẫ 100
ẻ 100
; 100
ũ 100
ẹ 100
” 100
“ 100
ຶ 100
@ 100
# 100
£ 100
© 100
' 100
< 100
° 100
~ 100
ຣ 100
× 100
» 100
ỹ 100
è 100
ỡ 100
€ 100
• 100
Á 100
Ô 100
ຝ 100
ỳ 100
ẳ 100
õ 100
ໆ 100
] 100
[ 100
À 100
ỷ 100
≤ 100
± 100
— 100
Ả 100
★ 100
ẵ 100
Â 100
Ấ 100
’ 100
Ư 100
