<s>	0
<pad>	0
</s>	0
<unk>	0
ng	-0
▁t	-1
▁c	-2
nh	-3
▁đ	-4
▁th	-5
▁l	-6
▁v	-7
▁T	-8
▁C	-9
▁m	-10
▁ch	-11
▁h	-12
▁b	-13
▁s	-14
▁2	-15
▁k	-16
▁1	-17
▁tr	-18
▁n	-19
▁nh	-20
▁S	-21
▁g	-22
00	-23
er	-24
▁M	-25
in	-26
▁p	-27
▁N	-28
▁ng	-29
▁kh	-30
ານ	-31
▁P	-32
▁d	-33
an	-34
▁B	-35
▁ph	-36
ông	-37
ch	-38
iệ	-39
▁H	-40
▁L	-41
01	-42
on	-43
▁và	-44
▁ເ	-45
▁gi	-46
ời	-47
▁(	-48
▁/	-49
▁D	-50
..	-51
▁A	-52
▁V	-53
ên	-54
▁-	-55
▁Đ	-56
ar	-57
▁G	-58
▁ກ	-59
▁là	-60
iế	-61
es	-62
▁x	-63
▁201	-64
▁3	-65
ອງ	-66
▁r	-67
▁củ	-68
ại	-69
▁K	-70
ác	-71
▁của	-72
▁Th	-73
▁Ch	-74
ໍາ	-75
ັບ	-76
qu	-77
▁ສ	-78
▁R	-79
en	-80
ột	-81
or	-82
ັນ	-83
at	-84
▁Tr	-85
▁có	-86
ong	-87
ới	-88
▁qu	-89
ang	-90
ất	-91
ôi	-92
▁F	-93
ai	-94
ລະ	-95
ượ	-96
ິດ	-97
ình	-98
iề	-99
al	-100
úng	-101
ຫນ	-102
uy	-103
ười	-104
am	-105
ay	-106
້າ	-107
ທີ	-108
▁một	-109
ັດ	-110
▁5	-111
le	-112
ao	-113
ing	-114
ướ	-115
ải	-116
▁4	-117
as	-118
ic	-119
ày	-120
▁ຄ	-121
ol	-122
▁không	-123
▁cho	-124
າມ	-125
em	-126
iều	-127
▁ແ	-128
▁W	-129
om	-130
▁người	-131
et	-132
ung	-133
▁Q	-134
ước	-135
▁ta	-136
▁E	-137
iện	-138
ອນ	-139
ທີ່	-140
▁ຂ	-141
▁Nh	-142
áng	-143
uố	-144
it	-145
ần	-146
anh	-147
▁ການ	-148
ài	-149
...	-150
▁tôi	-151
ản	-152
▁I	-153
ững	-154
▁chúng	-155
ạn	-156
▁6	-157
ac	-158
iên	-159
mm	-160
▁ອ	-161
ot	-162
▁8	-163
el	-164
st	-165
ược	-166
ân	-167
ການ	-168
າຍ	-169
▁với	-170
iết	-171
ື່	-172
▁họ	-173
▁các	-174
▁0	-175
▁ngh	-176
ປະ	-177
▁...	-178
▁ລ	-179
▁trong	-180
id	-181
▁được	-182
▁ຕ	-183
າດ	-184
ến	-185
ro	-186
▁.	-187
ໍ່	-188
▁ໂ	-189
▁thể	-190
▁U	-191
▁_	-192
▁những	-193
ây	-194
iể	-195
ur	-196
ấy	-197
ວາມ	-198
20	-199
áy	-200
ật	-201
ận	-202
າວ	-203
ầu	-204
▁đã	-205
▁*	-206
ad	-207
ed	-208
ươ	-209
ườ	-210
ách	-211
້ນ	-212
▁ພ	-213
ter	-214
▁Ng	-215
▁độ	-216
ường	-217
▁làm	-218
ào	-219
▁7	-220
oại	-221
▁đó	-222
▁số	-223
▁ມ	-224
ức	-225
▁ຫ	-226
▁Gi	-227
inh	-228
▁O	-229
▁cả	-230
▁về	-231
▁ຈ	-232
50	-233
▁9	-234
▁để	-235
ັກ	-236
▁ນ	-237
ực	-238
▁J	-239
ành	-240
▁Ph	-241
ăm	-242
is	-243
▁ໃ	-244
àn	-245
oo	-246
ương	-247
ou	-248
il	-249
ích	-250
▁+	-251
າງ	-252
ăng	-253
▁10	-254
▁này	-255
▁bạn	-256
▁ບ	-257
ính	-258
ối	-259
ັງ	-260
000	-261
ết	-262
▁ho	-263
ess	-264
ơn	-265
êu	-266
▁đến	-267
ag	-268
au	-269
▁ທ	-270
▁ວ	-271
eo	-272
▁>	-273
▁$	-274
▁Kh	-275
▁nó	-276
▁ຊ	-277
▁sự	-278
àng	-279
▁X	-280
▁ຄວາມ	-281
-1	-282
áo	-283
▁như	-284
re	-285
ົດ	-286
▁–	-287
.0	-288
ow	-289
ະລ	-290
▁,	-291
່ງ	-292
▁ດ	-293
▁2018	-294
ົນ	-295
▁ທີ່	-296
com	-297
ສະ	-298
▁nhà	-299
▁sẽ	-300
▁thế	-301
uốc	-302
▁nào	-303
òng	-304
ục	-305
▁ra	-306
▁điều	-307
ập	-308
us	-309
ຂອງ	-310
ຸດ	-311
▁ຫນ	-312
10	-313
im	-314
ằng	-315
ái	-316
▁Co	-317
ion	-318
iệc	-319
▁12	-320
▁công	-321
iệu	-322
່ນ	-323
▁em	-324
ội	-325
▁Trung	-326
▁ປະ	-327
.2	-328
▁ໄ	-329
▁&	-330
▁Quốc	-331
າກ	-332
▁khi	-333
▁từ	-334
▁20	-335
ig	-336
▁con	-337
iệt	-338
án	-339
ượng	-340
▁St	-341
ánh	-342
ົາ	-343
âu	-344
▁ຜ	-345
ack	-346
▁mình	-347
ິນ	-348
▁phải	-349
ວກ	-350
ền	-351
▁chỉ	-352
ia	-353
ăn	-354
ຫລ	-355
▁ở	-356
86	-357
-2	-358
▁việc	-359
lo	-360
▁Y	-361
ີນ	-362
un	-363
▁năm	-364
ùng	-365
ວນ	-366
▁y	-367
▁ແລະ	-368
ặc	-369
.1	-370
▁15	-371
pp	-372
່ານ	-373
ổi	-374
ống	-375
úc	-376
ື່ອງ	-377
▁động	-378
át	-379
▁ສະ	-380
▁:	-381
ắt	-382
ີ້	-383
▁tại	-384
ອກ	-385
▁máy	-386
th	-387
ứng	-388
ấp	-389
30	-390
▁ຮ	-391
▁ngày	-392
of	-393
▁trên	-394
ct	-395
ôn	-396
▁tiế	-397
ine	-398
▁bị	-399
▁lại	-400
.5	-401
and	-402
âm	-403
▁In	-404
▁ປ	-405
um	-406
uyệ	-407
▁mà	-408
▁tháng	-409
art	-410
▁học	-411
ຄື່ອງ	-412
os	-413
▁anh	-414
uất	-415
▁Sh	-416
▁gì	-417
ດ້	-418
▁2019	-419
ặt	-420
ພາ	-421
ູ້	-422
ir	-423
▁vào	-424
▁đầu	-425
uộ	-426
ơi	-427
▁thoại	-428
="	-429
ິດຕ	-430
ab	-431
ut	-432
▁quy	-433
ọng	-434
80	-435
▁Các	-436
ck	-437
▁dụ	-438
▁2017	-439
op	-440
ໍາລ	-441
▁in	-442
່ຽ	-443
áp	-444
▁Và	-445
▁thấy	-446
▁w	-447
ảo	-448
▁Tháng	-449
▁Chúng	-450
▁biết	-451
ịch	-452
60	-453
iv	-454
ູ່	-455
ໍ້	-456
ent	-457
iến	-458
ul	-459
ắc	-460
▁“	-461
ưở	-462
▁cách	-463
eb	-464
ảng	-465
▁11	-466
ົວ	-467
ເມ	-468
▁Z	-469
▁nói	-470
▁thành	-471
▁Điện	-472
ົງ	-473
ỗi	-474
▁gia	-475
ưởng	-476
ຫລດ	-477
ອບ	-478
▁sản	-479
▁Máy	-480
ະຫນ	-481
▁ດາວ	-482
40	-483
▁hình	-484
uộc	-485
ົ້າ	-486
ồng	-487
▁đề	-488
ລິ	-489
▁khác	-490
່າ	-491
ໃນ	-492
ẩm	-493
▁Công	-494
ốc	-495
12	-496
ໂຫລດ	-497
▁dụng	-498
45	-499
▁chị	-500
ie	-501
ໍາລັບ	-502
▁to	-503
▁ໂທ	-504
ຫມ	-505
uyện	-506
ap	-507
▁theo	-508
▁Qu	-509
້ໍາ	-510
ạo	-511
ãy	-512
▁ໃນ	-513
▁ຫນ້າ	-514
▁ລະ	-515
ເຮ	-516
▁100	-517
▁19	-518
▁30	-519
11	-520
ậy	-521
oft	-522
ũng	-523
▁#	-524
້ອ	-525
iểm	-526
▁đi	-527
▁ເຄື່ອງ	-528
ex	-529
▁An	-530
▁quan	-531
▁lời	-532
▁nhiều	-533
ain	-534
iển	-535
▁sao	-536
▁Ngài	-537
ຫຼ	-538
▁phẩm	-539
ip	-540
ເລ	-541
▁điện	-542
av	-543
cm	-544
້ງ	-545
td	-546
▁hàng	-547
ạt	-548
ẫn	-549
▁thời	-550
ລະສ	-551
້ອງ	-552
▁£	-553
▁sống	-554
one	-555
ັ້ນ	-556
▁lượng	-557
▁hơn	-558
ເພ	-559
▁xuất	-560
ảnh	-561
ép	-562
ະສ	-563
▁chính	-564
ọc	-565
▁nhận	-566
ếu	-567
▁rằng	-568
▁tu	-569
▁ຂອງ	-570
od	-571
▁Tôi	-572
ấn	-573
▁nhất	-574
-5	-575
ປັນ	-576
NG	-577
ິງ	-578
▁Nhà	-579
▁cấp	-580
▁nghiệ	-581
▁thu	-582
▁cầu	-583
▁US	-584
▁cao	-585
ົບ	-586
ỏi	-587
35	-588
iễ	-589
ະຫນາດ	-590
▁cũng	-591
ạc	-592
▁f	-593
▁st	-594
ລະສັບ	-595
▁50	-596
ຢູ່	-597
▁đây	-598
99	-599
ạnh	-600
ູນ	-601
▁cảm	-602
ers	-603
▁Ltd	-604
▁ຍ	-605
ໄປ	-606
▁Trang	-607
ດຍ	-608
▁thước	-609
ືອນ	-610
▁200	-611
ສາ	-612
▁16	-613
iêu	-614
iễn	-615
▁ເດ	-616
êm	-617
▁ấy	-618
▁lu	-619
75	-620
▁Một	-621
▁phí	-622
ét	-623
▁tiếp	-624
▁ຖ	-625
15	-626
▁<	-627
ian	-628
▁18	-629
▁©	-630
ep	-631
iểu	-632
▁Pr	-633
co	-634
▁25	-635
uốn	-636
ູບ	-637
ົມ	-638
▁trước	-639
▁ông	-640
▁gian	-641
ງານ	-642
▁dự	-643
▁"	-644
út	-645
▁tin	-646
ak	-647
▁86	-648
25	-649
ub	-650
▁đị	-651
▁nghĩ	-652
ind	-653
ốt	-654
▁kho	-655
▁ảnh	-656
ọi	-657
ມື	-658
ởi	-659
iền	-660
▁ໂທລະສັບ	-661
ີ່	-662
og	-663
ard	-664
▁yêu	-665
ob	-666
ຜະລ	-667
ະພ	-668
▁giá	-669
ail	-670
▁13	-671
▁loại	-672
ນ໌	-673
▁nước	-674
▁tự	-675
▁Cas	-676
ồi	-677
ate	-678
▁2016	-679
ຫຍ	-680
ຸນ	-681
ợi	-682
iz	-683
▁ອີ	-684
ấu	-685
▁quyền	-686
▁°	-687
▁đang	-688
ust	-689
ຄວາມ	-690
ửa	-691
ib	-692
▁nên	-693
▁ເຮ	-694
▁ຈີນ	-695
ua	-696
▁ty	-697
▁cần	-698
ht	-699
ແລະ	-700
-0	-701
▁hoặc	-702
▁năng	-703
▁17	-704
ợp	-705
▁trọng	-706
ັ້ງ	-707
if	-708
.3	-709
▁24	-710
ບບ	-711
▁by	-712
oh	-713
uyến	-714
sh	-715
òn	-716
▁ຂະຫນາດ	-717
16	-718
ະນ	-719
▁Nam	-720
eng	-721
ist	-722
▁lớ	-723
ເພດ	-724
ມ່ນ	-725
▁qua	-726
▁thì	-727
▁ເດືອນ	-728
▁~	-729
ọn	-730
yp	-731
▁hai	-732
▁ăn	-733
ill	-734
▁hệ	-735
▁lòng	-736
ữa	-737
▁giờ	-738
ấm	-739
ວກັບ	-740
▁mới	-741
▁Tải	-742
່ຽວກັບ	-743
se	-744
êng	-745
-8	-746
ຊ້	-747
້ານ	-748
.6	-749
▁thực	-750
▁00	-751
້າງ	-752
ມາ	-753
bo	-754
▁muốn	-755
ທໍາ	-756
▁mm	-757
all	-758
▁ວິ	-759
ắng	-760
▁Vess	-761
▁tế	-762
▁Vessoft	-763
▁vì	-764
.00	-765
▁Ma	-766
ລ໌	-767
▁cùng	-768
▁trang	-769
las	-770
ộng	-771
yl	-772
13	-773
ôm	-774
▁ອີເມ	-775
▁do	-776
ám	-777
▁14	-778
1,	-779
▁bằng	-780
est	-781
.4	-782
úp	-783
້ອຍ	-784
▁cơ	-785
uyên	-786
ừng	-787
▁Kích	-788
ພາບ	-789
ảy	-790
▁thương	-791
▁hợp	-792
▁cung	-793
ຕິ	-794
ino	-795
ສຸດ	-796
່າງ	-797
ress	-798
kg	-799
▁xét	-800
ắn	-801
▁lý	-802
▁lên	-803
▁thứ	-804
▁No	-805
-3	-806
▁ມີ	-807
ight	-808
ຂະສ	-809
▁dur	-810
ຂະສິດ	-811
▁start	-812
90	-813
ຫັດ	-814
▁kết	-815
">	-816
▁40	-817
ູງ	-818
▁»	-819
▁vậy	-820
▁tính	-821
▁lo	-822
▁chủ	-823
ver	-824
▁ໄດ້	-825
▁60	-826
▁bản	-827
ưa	-828
▁sinh	-829
ies	-830
ly	-831
ra	-832
ort	-833
▁tâm	-834
▁cuộc	-835
ຽນ	-836
ນ໌ໂຫລດ	-837
70	-838
iêng	-839
▁định	-840
▁×	-841
ລາ	-842
▁thông	-843
ồn	-844
ອິດ	-845
▁ດາວນ໌ໂຫລດ	-846
▁nghiệp	-847
▁thức	-848
ric	-849
▁ຕໍ່	-850
ະພັນ	-851
▁tiết	-852
▁giới	-853
▁vụ	-854
▁đường	-855
ຄາ	-856
ຮງ	-857
ưng	-858
▁tốt	-859
▁thật	-860
▁ຫຼ	-861
່ວ	-862
▁rất	-863
▁Việt	-864
▁ປະເພດ	-865
▁nhân	-866
ິດຕະພັນ	-867
àm	-868
ໄລ	-869
201	-870
ik	-871
.8	-872
ish	-873
▁bu	-874
▁hội	-875
▁liệu	-876
▁phần	-877
▁ບໍ່	-878
23	-879
ີດ	-880
▁Ar	-881
▁ສໍາລັບ	-882
▁giải	-883
▁ອີເມລ໌	-884
ທໍາອິດ	-885
▁chuyện	-886
ຫ້	-887
▁xe	-888
▁Con	-889
▁hiện	-890
24	-891
▁nay	-892
ord	-893
▁Sp	-894
▁xem	-895
້ວ	-896
ển	-897
▁Un	-898
let	-899
▁sử	-900
ựa	-901
▁Những	-902
ưu	-903
ິ່ງ	-904
ຜ່ານ	-905
▁lớn	-906
28	-907
ວກເຮ	-908
▁hành	-909
▁đổi	-910
ity	-911
▁ຄໍາ	-912
▁cái	-913
▁tay	-914
ce	-915
▁báo	-916
▁phát	-917
ation	-918
ມີ	-919
▁đồng	-920
ER	-921
NH	-922
óng	-923
,5	-924
zh	-925
ຍາ	-926
່ອນ	-927
▁hỏi	-928
ìm	-929
att	-930
ໍລິ	-931
19	-932
ướng	-933
▁viên	-934
▁ໂດຍ	-935
ື່ອ	-936
▁bao	-937
▁Điều	-938
dro	-939
74	-940
▁Re	-941
▁giúp	-942
▁ຫນ້າທໍາອິດ	-943
▁lực	-944
▁tình	-945
ົກ	-946
lu	-947
▁ລາ	-948
▁Hãy	-949
ss	-950
ຫັນ	-951
ຜະລິດ	-952
▁ນ້ໍາ	-953
▁ລະຫັດ	-954
ແບບ	-955
ạng	-956
▁Ho	-957
▁bảo	-958
ງິນ	-959
▁trở	-960
uyển	-961
▁đối	-962
óa	-963
▁ý	-964
ói	-965
▁ກ່ຽວກັບ	-966
▁mẹ	-967
▁ກັບ	-968
up	-969
▁22	-970
▁mặt	-971
ຫາ	-972
age	-973
ổng	-974
▁trình	-975
ວກເຮົາ	-976
ບັນ	-977
▁Wind	-978
18	-979
ẩn	-980
aser	-981
▁còn	-982
▁Làm	-983
່າວ	-984
▁sáng	-985
ຸມ	-986
▁ເປັນ	-987
ew	-988
ຸກ	-989
▁Có	-990
▁cứ	-991
▁ຮູບ	-992
▁Ro	-993
▁đình	-994
ey	-995
óc	-996
úi	-997
▁ຢ	-998
▁bắt	-999
▁•	-1000
ark	-1001
▁dẫn	-1002
▁câu	-1003
ເຕ	-1004
▁Số	-1005
▁ລິ	-1006
▁trường	-1007
ox	-1008
ui	-1009
are	-1010
▁sau	-1011
▁Không	-1012
▁thiết	-1013
-6	-1014
▁35	-1015
▁bộ	-1016
▁Bạn	-1017
ầm	-1018
ໃຊ້	-1019
▁Casino	-1020
iếu	-1021
ໄດ້	-1022
ຶກ	-1023
.9	-1024
▁USD	-1025
▁toàn	-1026
ກັບ	-1027
▁thường	-1028
17	-1029
ww	-1030
ຊີ	-1031
ant	-1032
ປະກ	-1033
ester	-1034
33	-1035
ືນ	-1036
ell	-1037
ows	-1038
ຈົ້າ	-1039
▁tạo	-1040
▁vị	-1041
▁ອາ	-1042
▁nhưng	-1043
ạch	-1044
▁ຜູ້	-1045
▁Đị	-1046
▁ຫມ	-1047
▁nhiên	-1048
ໍານ	-1049
▁điểm	-1050
້ມ	-1051
▁Pro	-1052
ທາງ	-1053
▁cha	-1054
oly	-1055
▁chất	-1056
ạy	-1057
▁hay	-1058
▁thuật	-1059
22	-1060
ສໍາລັບ	-1061
ín	-1062
▁Nhận	-1063
ẫu	-1064
ile	-1065
▁miễn	-1066
▁tử	-1067
88	-1068
▁23	-1069
IN	-1070
▁ສໍາ	-1071
ảm	-1072
▁Te	-1073
▁tức	-1074
14	-1075
▁Nhưng	-1076
▁đặt	-1077
▁ເວ	-1078
▁bởi	-1079
▁Koh	-1080
▁trợ	-1081
ທະ	-1082
ầy	-1083
▁Al	-1084
▁chơi	-1085
▁Trước	-1086
▁tiền	-1087
▁Giá	-1088
▁Windows	-1089
ເທ	-1090
lock	-1091
▁Trong	-1092
▁Sản	-1093
▁trực	-1094
▁tuần	-1095
▁Rong	-1096
ideo	-1097
▁tập	-1098
▁2015	-1099
▁thích	-1100
ອດ	-1101
act	-1102
ick	-1103
own	-1104
den	-1105
▁ພາ	-1106
ắp	-1107
▁Bon	-1108
▁Hack	-1109
▁liên	-1110
▁Người	-1111
ệnh	-1112
ຜ່ານມາ	-1113
ເວ	-1114
▁mạnh	-1115
▁2014	-1116
▁Pl	-1117
▁giáo	-1118
▁Ser	-1119
.7	-1120
ົ່ງ	-1121
▁cm	-1122
▁trị	-1123
ff	-1124
ນີ້	-1125
uyền	-1126
▁ເຮົາ	-1127
▁chứng	-1128
áu	-1129
ເສ	-1130
ເຫັນ	-1131
▁chu	-1132
uối	-1133
▁500	-1134
ົ້ນ	-1135
▁nhau	-1136
▁ທີ່ຜ່ານມາ	-1137
36	-1138
ph	-1139
ຫນັກ	-1140
▁chọn	-1141
AN	-1142
droid	-1143
▁ຜະລ	-1144
ặng	-1145
uống	-1146
▁trẻ	-1147
▁giao	-1148
▁hiệu	-1149
018	-1150
ook	-1151
▁ເລ	-1152
▁kế	-1153
▁dịch	-1154
ພວກເຮົາ	-1155
▁tiên	-1156
▁'	-1157
▁Họ	-1158
▁ລິຂະສິດ	-1159
-4	-1160
ິດຕໍ່	-1161
▁Com	-1162
he	-1163
ຕະ	-1164
ຖານ	-1165
▁ເສ	-1166
inter	-1167
▁bất	-1168
▁tất	-1169
▁Liên	-1170
ìn	-1171
▁ປີ	-1172
▁Khi	-1173
▁thanh	-1174
76	-1175
de	-1176
▁ຊື່	-1177
▁phân	-1178
▁phục	-1179
ứa	-1180
ສູງ	-1181
▁Địa	-1182
▁rộng	-1183
ກະ	-1184
ặp	-1185
ຄິດ	-1186
ạm	-1187
ẳng	-1188
▁âm	-1189
▁Thời	-1190
▁thay	-1191
ive	-1192
▁vật	-1193
▁bình	-1194
▁lần	-1195
▁Android	-1196
▁ດາວໂຫລດ	-1197
▁€	-1198
ຸ່ນ	-1199
▁TNH	-1200
26	-1201
ຽງ	-1202
▁Fl	-1203
▁Hol	-1204
der	-1205
▁To	-1206
▁mai	-1207
▁TNHH	-1208
▁Hội	-1209
▁đều	-1210
▁0086	-1211
ềm	-1212
▁i	-1213
▁mọi	-1214
▁vấn	-1215
▁kinh	-1216
▁sách	-1217
200	-1218
ກໍາ	-1219
▁nhỏ	-1220
▁phụ	-1221
▁Đại	-1222
ຕ່	-1223
່ວນ	-1224
▁cụ	-1225
ແມ່ນ	-1226
tr	-1227
ເດ	-1228
▁CN	-1229
te	-1230
▁Ning	-1231
▁Em	-1232
▁ເກ	-1233
ite	-1234
85	-1235
ໄຟ	-1236
iếp	-1237
▁an	-1238
▁Anh	-1239
▁tìm	-1240
▁Bonus	-1241
lot	-1242
ຕອນ	-1243
▁26	-1244
▁mỗi	-1245
▁đo	-1246
▁dài	-1247
▁hãy	-1248
▁mềm	-1249
▁tư	-1250
▁ngo	-1251
▁300	-1252
▁For	-1253
AC	-1254
lect	-1255
▁ວັນ	-1256
▁Ex	-1257
▁màu	-1258
▁(3	-1259
▁quốc	-1260
ect	-1261
▁ລາຄາ	-1262
ຫະ	-1263
ບັດ	-1264
▁Po	-1265
▁ứng	-1266
95	-1267
▁1,	-1268
▁Nếu	-1269
▁trung	-1270
▁tưởng	-1271
oc	-1272
oun	-1273
▁thân	-1274
▁tiêu	-1275
sm	-1276
iang	-1277
ເງິນ	-1278
▁thị	-1279
▁triển	-1280
▁phố	-1281
▁lẽ	-1282
able	-1283
ire	-1284
ນ້ໍາ	-1285
▁khí	-1286
▁chức	-1287
EM	-1288
ide	-1289
▁lúc	-1290
▁mục	-1291
ເຊ	-1292
▁bài	-1293
▁Ningbo	-1294
ບໍ່	-1295
SO	-1296
▁28	-1297
▁Cr	-1298
າມາດ	-1299
▁Chủ	-1300
▁ຂ່າວ	-1301
▁tuyến	-1302
ED	-1303
ໃຈ	-1304
▁Độ	-1305
▁nơi	-1306
ix	-1307
ດີ	-1308
▁Min	-1309
▁ຕໍ່ໄປ	-1310
▁ai	-1311
77	-1312
▁tài	-1313
▁2013	-1314
ãi	-1315
ụi	-1316
▁?	-1317
▁[	-1318
▁đồ	-1319
ting	-1320
ສະຫນ	-1321
▁CH	-1322
▁Fr	-1323
▁thống	-1324
▁áp	-1325
▁dân	-1326
▁viết	-1327
▁cố	-1328
ເປັນ	-1329
ເຂ	-1330
ເຮັດ	-1331
▁ống	-1332
ເກ	-1333
▁chuyển	-1334
ຕໍ່	-1335
▁nhìn	-1336
▁ນ້ໍາຫນັກ	-1337
▁lã	-1338
attoo	-1339
່ອງ	-1340
▁ba	-1341
▁cô	-1342
▁trả	-1343
▁ທີ່ຢູ່	-1344
▁nữa	-1345
▁quả	-1346
▁nghe	-1347
ov	-1348
tp	-1349
ຮັບ	-1350
້າຍ	-1351
▁vô	-1352
ໄວ	-1353
ພິ	-1354
ື້	-1355
ືອກ	-1356
▁kích	-1357
▁ຜະລິດຕະພັນ	-1358
ET	-1359
ev	-1360
ủy	-1361
▁thép	-1362
sp	-1363
ắm	-1364
▁bà	-1365
▁gh	-1366
▁ເມ	-1367
່າຍ	-1368
▁ນີ້	-1369
▁Phần	-1370
ຽກ	-1371
▁Ô	-1372
ບໍລິ	-1373
▁khu	-1374
▁Chiều	-1375
”.	-1376
▁trò	-1377
▁1000	-1378
ວດ	-1379
້ອນ	-1380
▁21	-1381
▁+86	-1382
ug	-1383
▁Sam	-1384
▁tải	-1385
cr	-1386
▁Mã	-1387
▁lập	-1388
▁đời	-1389
▁hôm	-1390
▁vui	-1391
▁ວິທີ	-1392
ເຄື່ອງ	-1393
▁quyết	-1394
ank	-1395
ial	-1396
▁Br	-1397
▁hộ	-1398
ທະຍາ	-1399
ະລັງ	-1400
▁luận	-1401
▁di	-1402
▁Cam	-1403
▁Đối	-1404
▁hoàn	-1405
29	-1406
àu	-1407
▁ທ່ານ	-1408
AS	-1409
ax	-1410
ud	-1411
▁Tin	-1412
▁hiểu	-1413
ưới	-1414
▁45	-1415
eat	-1416
▁nghệ	-1417
21	-1418
ໂນ	-1419
▁Gr	-1420
▁Tất	-1421
▁sợi	-1422
▁phòng	-1423
▁sp	-1424
quot	-1425
ets	-1426
ator	-1427
▁ບັນ	-1428
chain	-1429
ິ້ນ	-1430
▁hết	-1431
▁ຈະ	-1432
▁ສີ	-1433
▁bán	-1434
ens	-1435
iệm	-1436
▁Gh	-1437
▁nữ	-1438
▁Hai	-1439
▁Tại	-1440
▁trí	-1441
▁tuổi	-1442
▁ແມ່ນ	-1443
▁CO	-1444
▁TH	-1445
ນະ	-1446
▁j	-1447
ຈາກ	-1448
▁Cl	-1449
▁Dr	-1450
55	-1451
min	-1452
,000	-1453
▁bụi	-1454
▁tác	-1455
ຖື	-1456
▁Ad	-1457
▁ລັບ	-1458
ec	-1459
ຸປະກ	-1460
ຸປະກອນ	-1461
ະລັງງານ	-1462
່ມ	-1463
ach	-1464
▁Bản	-1465
▁web	-1466
▁kiện	-1467
▁tối	-1468
▁Road	-1469
▁dùng	-1470
uan	-1471
▁bỏ	-1472
....	-1473
▁cứu	-1474
▁Poly	-1475
lockchain	-1476
ື້ນ	-1477
▁ກະ	-1478
ິກ	-1479
▁nặng	-1480
▁Á	-1481
ber	-1482
ຜູ້	-1483
ເຕີ	-1484
▁150	-1485
▁sức	-1486
▁đơn	-1487
▁nghiệm	-1488
ຈຸ	-1489
ຫໍ້	-1490
ີ່ຫໍ້	-1491
▁biệt	-1492
▁chết	-1493
▁ຄວາມຄິດ	-1494
by	-1495
▁ຂໍ້	-1496
ah	-1497
▁1.	-1498
▁ເພ	-1499
▁hoạt	-1500
▁lịch	-1501
▁chỉnh	-1502
ge	-1503
:00	-1504
âng	-1505
▁Su	-1506
▁Sol	-1507
▁pháp	-1508
▁suất	-1509
▁ເຈົ້າ	-1510
ັ່ງ	-1511
ໃຫ້	-1512
▁đánh	-1513
ST	-1514
▁2,	-1515
▁gói	-1516
▁thêm	-1517
ree	-1518
▁ơn	-1519
icro	-1520
ທະຍາໄລ	-1521
hat	-1522
ure	-1523
▁hóa	-1524
▁tham	-1525
39	-1526
:/	-1527
▁=	-1528
▁Vì	-1529
io	-1530
óm	-1531
▁±	-1532
ວ່າ	-1533
▁ເຂ	-1534
▁Laser	-1535
://	-1536
▁ht	-1537
▁Mar	-1538
▁dạy	-1539
▁thờ	-1540
▁Holm	-1541
▁mang	-1542
▁thưởng	-1543
▁Col	-1544
▁Ste	-1545
▁dây	-1546
▁nếu	-1547
▁vài	-1548
ẹp	-1549
ich	-1550
ươi	-1551
ຂໍ້	-1552
ໍານວນ	-1553
UR	-1554
ast	-1555
▁80	-1556
▁ຄວາມຄິດເຫັນ	-1557
89	-1558
▁nhựa	-1559
az	-1560
ượt	-1561
▁27	-1562
▁75	-1563
ower	-1564
▁đau	-1565
▁ຢູ່	-1566
▁2020	-1567
▁Mach	-1568
ON	-1569
ື່ນ	-1570
65	-1571
ດງ	-1572
ເທດ	-1573
▁kim	-1574
▁tiếng	-1575
▁≤	-1576
▁2011	-1577
▁nghĩa	-1578
òa	-1579
ຫວ	-1580
ມູນ	-1581
▁quá	-1582
▁toán	-1583
▁Châu	-1584
▁Slot	-1585
▁AC	-1586
▁cắt	-1587
▁tục	-1588
▁http	-1589
▁chuẩn	-1590
32	-1591
uyệt	-1592
▁ກັນ	-1593
py	-1594
▁(1	-1595
ash	-1596
▁bên	-1597
▁Thiết	-1598
▁ຕົວ	-1599
▁biến	-1600
34	-1601
ram	-1602
ບາຍ	-1603
▁29	-1604
▁PC	-1605
ຕັ້ງ	-1606
▁Dav	-1607
▁ຈາກ	-1608
່ອນຫນ	-1609
▁Printer	-1610
▁e	-1611
ບົບ	-1612
line	-1613
ina	-1614
▁Bộ	-1615
▁so	-1616
▁vệ	-1617
▁ຄົນ	-1618
▁luôn	-1619
ube	-1620
AR	-1621
arn	-1622
ỉnh	-1623
▁đầy	-1624
eg	-1625
ຈະ	-1626
ເຄ	-1627
▁Air	-1628
▁đóng	-1629
VC	-1630
▁90	-1631
▁áo	-1632
uang	-1633
▁bay	-1634
▁khó	-1635
▁lưu	-1636
▁ໂຮງ	-1637
້ານີ້	-1638
▁trời	-1639
▁Tattoo	-1640
fo	-1641
int	-1642
ຟ້າ	-1643
▁mở	-1644
▁đất	-1645
▁Đông	-1646
▁chống	-1647
ໄຊ	-1648
alv	-1649
oll	-1650
▁(2	-1651
67	-1652
ice	-1653
▁Mai	-1654
▁lỗi	-1655
▁minh	-1656
▁ngay	-1657
▁pm	-1658
iber	-1659
GH	-1660
▁vi	-1661
▁đạo	-1662
່ອນຫນ້ານີ້	-1663
່ຽນ	-1664
▁ໄປ	-1665
load	-1666
▁hạn	-1667
▁đặc	-1668
▁thiệu	-1669
າທີ	-1670
▁ພະ	-1671
▁ໃຫ້	-1672
▁doanh	-1673
▁xuống	-1674
af	-1675
aw	-1676
ໂລ	-1677
▁)	-1678
ັງກ	-1679
ີ່ມ	-1680
▁IP	-1681
▁kỹ	-1682
▁giữ	-1683
▁tinh	-1684
▁khoản	-1685
68	-1686
DF	-1687
net	-1688
▁nhớ	-1689
▁tới	-1690
▁Cách	-1691
▁chân	-1692
▁ຕິດຕໍ່	-1693
ສີ	-1694
ốn	-1695
▁cây	-1696
▁gọi	-1697
▁ngài	-1698
▁nhiệt	-1699
ຽມ	-1700
-20	-1701
ຕົວ	-1702
olog	-1703
▁Copy	-1704
▁ອຸປະກອນ	-1705
ກົດ	-1706
▁án	-1707
▁chi	-1708
▁cửa	-1709
▁ເມື	-1710
▁bệnh	-1711
▁David	-1712
100	-1713
▁New	-1714
▁chế	-1715
ush	-1716
ypt	-1717
ສັດ	-1718
ຸ່ມ	-1719
ໂດຍ	-1720
▁xảy	-1721
▁tích	-1722
▁giảng	-1723
▁ເມືອງ	-1724
▁nguyện	-1725
▁ວິທີການ	-1726
cs	-1727
ເນ	-1728
ໄຂ	-1729
▁bé	-1730
ທ່ານ	-1731
▁lọc	-1732
ສາມາດ	-1733
▁Mười	-1734
▁ວິທະຍາໄລ	-1735
ry	-1736
ຫມ່	-1737
▁Sau	-1738
▁Tag	-1739
.2018	-1740
▁Giáo	-1741
▁cuối	-1742
▁Ngày	-1743
▁phút	-1744
38	-1745
ne	-1746
ແປ	-1747
▁Lu	-1748
▁App	-1749
▁ISO	-1750
▁chí	-1751
▁thư	-1752
▁chiến	-1753
▁chiều	-1754
rop	-1755
▁HD	-1756
▁Bài	-1757
▁Web	-1758
ກ່ອນຫນ້ານີ້	-1759
du	-1760
▁AP	-1761
▁Sự	-1762
▁dễ	-1763
▁kỳ	-1764
ized	-1765
▁Man	-1766
▁Tiếp	-1767
▁Đăng	-1768
ons	-1769
ແດງ	-1770
▁ລາວ	-1771
▁phúc	-1772
▁ຍີ່ຫໍ້	-1773
LE	-1774
ທິ	-1775
ອາ	-1776
ider	-1777
▁800	-1778
▁rồi	-1779
▁ngoài	-1780
▁tượng	-1781
AT	-1782
ãn	-1783
ພະ	-1784
end	-1785
▁32	-1786
▁gần	-1787
ee	-1788
ູກ	-1789
ທິດ	-1790
▁DC	-1791
▁tấm	-1792
▁Micro	-1793
▁ແນ	-1794
ັບໄຊ	-1795
▁thần	-1796
44	-1797
ửi	-1798
ữu	-1799
▁ເບ	-1800
ື່ອນ	-1801
▁Yêu	-1802
ml	-1803
ore	-1804
tic	-1805
ĩnh	-1806
ອອກ	-1807
ຮູບ	-1808
▁lễ	-1809
/201	-1810
▁cập	-1811
ແກ	-1812
ace	-1813
ວຽກ	-1814
▁RF	-1815
iếng	-1816
▁1500	-1817
ium	-1818
▁Bl	-1819
▁Để	-1820
▁tội	-1821
▁Tech	-1822
ຜະລິດຕະພັນ	-1823
ome	-1824
ລາຍ	-1825
▁Lo	-1826
▁Inst	-1827
▁Loại	-1828
old	-1829
▁CNC	-1830
▁Top	-1831
▁ຟ	-1832
▁xin	-1833
▁yếu	-1834
▁cảnh	-1835
eth	-1836
ຕິບັດ	-1837
▁mừng	-1838
▁Polyester	-1839
500	-1840
ipp	-1841
per	-1842
▁120	-1843
▁Thứ	-1844
▁ສຸດ	-1845
▁khỏi	-1846
ຕາ	-1847
ble	-1848
▁Giới	-1849
37	-1850
ີໂ	-1851
▁>>	-1852
zhou	-1853
▁ພະລັງງານ	-1854
-10	-1855
▁tăng	-1856
▁tuyệt	-1857
98	-1858
MP	-1859
▁Mỹ	-1860
▁vải	-1861
▁ລາຍ	-1862
▁ເຮັດ	-1863
▁thuộc	-1864
31	-1865
EC	-1866
Hz	-1867
OR	-1868
OS	-1869
èn	-1870
ຫຍັງ	-1871
▁đứa	-1872
▁Danh	-1873
▁phương	-1874
ູມ	-1875
ດັນ	-1876
ment	-1877
▁Mob	-1878
▁đại	-1879
94	-1880
CL	-1881
iếm	-1882
▁Video	-1883
▁ຈໍານວນ	-1884
ມ້	-1885
▁Comp	-1886
▁kính	-1887
▁ເສັ້ນ	-1888
ei	-1889
gle	-1890
▁05	-1891
▁Tổng	-1892
▁nhật	-1893
cc	-1894
li	-1895
ẵn	-1896
▁tù	-1897
▁LED	-1898
▁Inter	-1899
▁hướng	-1900
ownload	-1901
amp	-1902
▁Kế	-1903
fish	-1904
▁Van	-1905
▁ban	-1906
▁Ông	-1907
▁thúc	-1908
ຕອນນີ້	-1909
▁ích	-1910
ue	-1911
▁36	-1912
▁lệ	-1913
otor	-1914
▁thánh	-1915
ary	-1916
▁Đó	-1917
▁Mẫu	-1918
▁đàn	-1919
▁loạt	-1920
72	-1921
ass	-1922
▁kẻ	-1923
▁Tên	-1924
▁hữu	-1925
▁lợi	-1926
▁86-5	-1927
▁Blockchain	-1928
ຫມົດ	-1929
▁ຫົວ	-1930
ology	-1931
▁Free	-1932
▁nhập	-1933
▁giống	-1934
.,	-1935
ມ່	-1936
iss	-1937
iềm	-1938
ະນາ	-1939
▁Sk	-1940
▁ກໍ	-1941
ສ້າງ	-1942
ຫນ້າ	-1943
▁vẫn	-1944
▁Forex	-1945
▁Trọng	-1946
ậu	-1947
ear	-1948
irt	-1949
▁TR	-1950
▁Từ	-1951
ສົ່ງ	-1952
▁Car	-1953
▁EUR	-1954
▁PVC	-1955
▁khách	-1956
IC	-1957
Th	-1958
GS	-1959
ID	-1960
isa	-1961
ຄ້າ	-1962
ລົດ	-1963
ເລກ	-1964
lass	-1965
▁mắt	-1966
▁túi	-1967
▁ຮູບພາບ	-1968
ans	-1969
ຕັດ	-1970
.000	-1971
▁sẵn	-1972
▁nhạc	-1973
▁vọng	-1974
ít	-1975
ຸ້ມ	-1976
▁tổ	-1977
▁Phụ	-1978
▁vực	-1979
▁ຊຸດ	-1980
▁ມັນ	-1981
oogle	-1982
--	-1983
ery	-1984
▁mô	-1985
▁sh	-1986
less	-1987
▁gặp	-1988
▁xác	-1989
▁ການປ	-1990
!!	-1991
47	-1992
ork	-1993
▁(5	-1994
▁3,	-1995
▁ເອ	-1996
▁ຫຼື	-1997
▁Steel	-1998
▁nguyên	-1999
:5	-2000
▁Nó	-2001
▁hy	-2002
▁sĩ	-2003
▁ຄວາມຄິດເຫັນທີ່	-2004
ES	-2005
▁Do	-2006
▁ký	-2007
ັດສະ	-2008
▁cáo	-2009
▁100%	-2010
ັງຫມົດ	-2011
ລິຂະສິດ	-2012
▁Series	-2013
345	-2014
byg	-2015
ວິດ	-2016
▁mười	-2017
▁tương	-2018
OB	-2019
ame	-2020
rict	-2021
▁600	-2022
▁Khu	-2023
▁Tuy	-2024
▁tín	-2025
▁chưa	-2026
▁dựng	-2027
bygden	-2028
▁Thành	-2029
66	-2030
▁ໂລ	-2031
ingd	-2032
ສາຫະ	-2033
▁Rou	-2034
▁Vậy	-2035
▁ເກມ	-2036
▁thiên	-2037
:0	-2038
ຢືນ	-2039
▁ad	-2040
-201	-2041
shop	-2042
▁OEM	-2043
▁gái	-2044
▁trái	-2045
IL	-2046
ade	-2047
▁ໄຟ	-2048
▁Thông	-2049
ມະ	-2050
ອມ	-2051
ູດ	-2052
ແຕ	-2053
ạp	-2054
log	-2055
ner	-2056
▁dục	-2057
▁linh	-2058
▁đáng	-2059
-7	-2060
OT	-2061
man	-2062
▁đa	-2063
▁đẹp	-2064
▁Dist	-2065
▁Techn	-2066
iếc	-2067
▁Se	-2068
▁vợ	-2069
ring	-2070
▁19,	-2071
▁Ind	-2072
▁ຜ້າ	-2073
ງານຜະລິດ	-2074
▁Holmbygden	-2075
ừa	-2076
▁Đây	-2077
▁ກົດ	-2078
▁Chất	-2079
PS	-2080
="1	-2081
ກັນ	-2082
▁250	-2083
▁Sơn	-2084
▁Xin	-2085
▁nỗi	-2086
▁ສິງ	-2087
▁tiến	-2088
US	-2089
ເບ	-2090
ແນ	-2091
ory	-2092
out	-2093
ຫມາຍ	-2094
▁220	-2095
▁hút	-2096
▁ທໍາ	-2097
▁phép	-2098
Ch	-2099
Ph	-2100
kw	-2101
ຽດ	-2102
▁a	-2103
esh	-2104
lex	-2105
uit	-2106
ື້ອ	-2107
າກາດ	-2108
▁Lin	-2109
▁ສູງ	-2110
ຶດ	-2111
ead	-2112
ign	-2113
pcs	-2114
ວັນ	-2115
▁70	-2116
▁QR	-2117
▁rõ	-2118
hats	-2119
ster	-2120
▁niên	-2121
▁phản	-2122
▁trai	-2123
▁ບໍລິ	-2124
ຸດສາຫະ	-2125
uồn	-2126
ຫານ	-2127
▁FX	-2128
▁Tw	-2129
▁Zh	-2130
▁sơ	-2131
▁sợ	-2132
▁lạc	-2133
▁sắc	-2134
▁Nước	-2135
▁tranh	-2136
▁truyền	-2137
27	-2138
69	-2139
ton	-2140
ຍິງ	-2141
ສໍາ	-2142
▁mù	-2143
▁ສ້າງ	-2144
84	-2145
EE	-2146
ມັດ	-2147
ຫຍ່	-2148
▁tên	-2149
▁văn	-2150
▁xây	-2151
▁ສາຍ	-2152
.”	-2153
ນໍາ	-2154
▁địa	-2155
▁info	-2156
ັ້ງຢືນ	-2157
▁riêng	-2158
ມັນ	-2159
▁AS	-2160
▁cr	-2161
▁đủ	-2162
ຫຼັກ	-2163
▁Hoa	-2164
▁Thể	-2165
▁bàn	-2166
▁lấy	-2167
▁ánh	-2168
▁dành	-2169
bar	-2170
ຖິງ	-2171
ikoo	-2172
▁min	-2173
▁Dust	-2174
▁Dòng	-2175
▁chiếu	-2176
▁nhanh	-2177
ຢັ້ງຢືນ	-2178
ຸດສາຫະກໍາ	-2179
ພິມ	-2180
່ວຍ	-2181
▁PH	-2182
▁cá	-2183
▁Lan	-2184
▁hôn	-2185
▁xăm	-2186
▁Quảng	-2187
▁Mobile	-2188
uk	-2189
▁Bo	-2190
▁UV	-2191
ະຫນົນ	-2192
▁buổi	-2193
▁giác	-2194
▁đúng	-2195
▁triệu	-2196
2,	-2197
lt	-2198
ງວນ	-2199
ດັບ	-2200
ຕ້ອງ	-2201
▁quý	-2202
▁thử	-2203
▁xúc	-2204
▁kiến	-2205
▁Power	-2206
-9	-2207
ຮຽນ	-2208
່ຽວ	-2209
▁ມິ	-2210
ater	-2211
▁suy	-2212
▁đôi	-2213
▁ຂ້ອຍ	-2214
▁Giang	-2215
▁video	-2216
ual	-2217
▁01	-2218
.0.2	-2219
ames	-2220
atch	-2221
▁Pay	-2222
▁www	-2223
▁ວິນ	-2224
▁Long	-2225
▁nghị	-2226
▁Google	-2227
PE	-2228
ຄື	-2229
▁@	-2230
ຈໍາ	-2231
arin	-2232
ware	-2233
▁kiểm	-2234
lector	-2235
▁District	-2236
61	-2237
AL	-2238
ປີ	-2239
ໂຍ	-2240
▁o	-2241
▁Sc	-2242
ylon	-2243
▁Vải	-2244
éo	-2245
▁Am	-2246
▁Or	-2247
▁kể	-2248
▁ເຕ	-2249
▁ໃດ	-2250
ອນໄລ	-2251
▁Met	-2252
▁nhóm	-2253
ood	-2254
ull	-2255
▁ແຜ	-2256
▁110	-2257
▁Can	-2258
▁Ngh	-2259
▁bây	-2260
▁mất	-2261
▁tốc	-2262
▁chịu	-2263
▁hưởng	-2264
EN	-2265
ơm	-2266
ຣີ	-2267
orm	-2268
ຈັກ	-2269
ລ້ວ	-2270
▁hồ	-2271
▁0,	-2272
▁Sm	-2273
▁sở	-2274
▁17,	-2275
▁Hải	-2276
▁cải	-2277
▁Post	-2278
▁xung	-2279
▁ພາສາ	-2280
3.	-2281
PC	-2282
ເອ	-2283
ếp	-2284
▁ຝ	-2285
203	-2286
osh	-2287
ກິດ	-2288
▁gỉ	-2289
▁ໃຈ	-2290
ount	-2291
ຫຸ້ມ	-2292
▁Win	-2293
▁giả	-2294
ເຈົ້າ	-2295
▁kiếm	-2296
▁Chứng	-2297
RO	-2298
ຂາຍ	-2299
▁Ba	-2300
▁Bag	-2301
▁ລົດ	-2302
ົ່ວ	-2303
▁(4	-2304
▁gửi	-2305
▁nối	-2306
▁ຫ້ອງ	-2307
ikoooo	-2308
▁Fiber	-2309
▁ຖະຫນົນ	-2310
ຄງ	-2311
ron	-2312
▁LT	-2313
▁ດີ	-2314
▁gây	-2315
▁mặc	-2316
▁ước	-2317
▁bóng	-2318
▁bước	-2319
▁giữa	-2320
▁lành	-2321
▁trưởng	-2322
▁Download	-2323
ẩy	-2324
les	-2325
▁đọc	-2326
▁Supp	-2327
CH	-2328
ສງ	-2329
ໂທ	-2330
755	-2331
ັ່ນ	-2332
▁Bu	-2333
▁De	-2334
▁En	-2335
▁Max	-2336
▁PDF	-2337
▁mại	-2338
▁tra	-2339
▁buồn	-2340
▁quản	-2341
▁thủy	-2342
▁Thanh	-2343
IT	-2344
cy	-2345
ເປ	-2346
ero	-2347
ຶ້ນ	-2348
ated	-2349
ຂ້ອຍ	-2350
▁400	-2351
▁Pet	-2352
▁bánh	-2353
▁càng	-2354
KW	-2355
★★	-2356
ake	-2357
iew	-2358
oth	-2359
ump	-2360
ຄືນ	-2361
▁tỏ	-2362
idth	-2363
uyết	-2364
▁ສິ່ງ	-2365
▁thiêng	-2366
▁ຄວາມໄວ	-2367
ຸງ	-2368
ales	-2369
▁Dis	-2370
▁USB	-2371
▁vời	-2372
ັດສະດ	-2373
▁mạng	-2374
▁ສ່ວນ	-2375
▁chiếc	-2376
▁ລະບົບ	-2377
64	-2378
ຊາຍ	-2379
▁du	-2380
▁of	-2381
ical	-2382
▁(1,	-2383
▁Chr	-2384
▁Hot	-2385
▁sai	-2386
▁86-1	-2387
▁chia	-2388
▁diễn	-2389
▁Copyshop	-2390
AD	-2391
ót	-2392
▁xa	-2393
▁Hình	-2394
▁đăng	-2395
▁liêng	-2396
ith	-2397
▁ຄາ	-2398
ັດສະດຸ	-2399
pm	-2400
ics	-2401
ode	-2402
org	-2403
son	-2404
▁0.	-2405
▁55	-2406
▁sẻ	-2407
▁ຫາ	-2408
ສ່ວນ	-2409
▁ແບບ	-2410
▁ໃຊ້	-2411
▁Port	-2412
▁sang	-2413
▁Machin	-2414
▁Technology	-2415
▁ປະເພດຜະລິດຕະພັນ	-2416
63	-2417
ີມ	-2418
ໂມ	-2419
App	-2420
ING	-2421
▁dữ	-2422
ເວລາ	-2423
▁Bit	-2424
▁Vật	-2425
▁tùy	-2426
▁đáp	-2427
▁ຄຸນ	-2428
▁ບົດ	-2429
▁ພວກ	-2430
▁ສະຫ	-2431
▁Live	-2432
▁tỉnh	-2433
ອນໄລນ໌	-2434
▁chương	-2435
001	-2436
ຄົນ	-2437
▁Hệ	-2438
▁dù	-2439
▁HGH	-2440
press	-2441
▁khoảng	-2442
▁ໂຮງງານຜະລິດ	-2443
ool	-2444
stR	-2445
ຶ່ງ	-2446
▁dày	-2447
▁nổi	-2448
ຂະຫນາດ	-2449
▁Slots	-2450
stRider	-2451
▁Tattoos	-2452
ງວນລິຂະສິດ	-2453
▁On	-2454
▁Up	-2455
▁ມື	-2456
ື່ນໆ	-2457
▁Xem	-2458
▁khổ	-2459
▁sáu	-2460
jiang	-2461
▁2000	-2462
▁Mini	-2463
▁Plas	-2464
▁từng	-2465
▁Whats	-2466
▁ປະເທດ	-2467
uốt	-2468
▁Kỳ	-2469
▁PP	-2470
▁kg	-2471
▁ຕຸ	-2472
ທະນາ	-2473
▁Art	-2474
▁Blu	-2475
▁Ide	-2476
▁bày	-2477
▁họp	-2478
▁tôn	-2479
▁ກຸມ	-2480
▁ນັບ	-2481
ເຂົ້າ	-2482
▁Play	-2483
▁danh	-2484
▁phạm	-2485
▁chồng	-2486
▁laser	-2487
▁ngươi	-2488
▁nhiệm	-2489
BS	-2490
▁ເຊ	-2491
loem	-2492
▁Bắc	-2493
▁City	-2494
▁Word	-2495
▁Dress	-2496
48	-2497
78	-2498
Tr	-2499
úa	-2500
ẹo	-2501
ert	-2502
ilic	-2503
▁Câu	-2504
▁cực	-2505
ustom	-2506
▁gắng	-2507
▁nóng	-2508
▁đứng	-2509
▁ເງິນ	-2510
▁Phòng	-2511
▁ເຂົ້າ	-2512
71	-2513
iao	-2514
ລາວ	-2515
ຫໍ່	-2516
ອາດ	-2517
▁2.	-2518
ຫນ້ນ	-2519
▁rep	-2520
▁đấu	-2521
▁ອອກ	-2522
▁biểu	-2523
▁thiếu	-2524
ວຍ	-2525
ແວ	-2526
ậm	-2527
ີໂອ	-2528
ສະພາ	-2529
▁0.1	-2530
▁Màu	-2531
▁mẫu	-2532
▁ຖົງ	-2533
lette	-2534
ໂຍບາຍ	-2535
▁diện	-2536
▁chăng	-2537
▁ວິນາທີ	-2538
▁ເວັບໄຊ	-2539
):	-2540
MS	-2541
ວິ	-2542
yst	-2543
▁su	-2544
ຕົ້ນ	-2545
▁Thế	-2546
▁Với	-2547
▁nội	-2548
▁đưa	-2549
▁Samloem	-2550
2)	-2551
Sh	-2552
pl	-2553
ທ໌	-2554
ຣະ	-2555
ene	-2556
▁Hy	-2557
▁Sw	-2558
▁đá	-2559
ໍາລະ	-2560
▁dấu	-2561
▁ແນວ	-2562
▁Soft	-2563
▁admin	-2564
3,	-2565
pr	-2566
ếm	-2567
ase	-2568
ຜົນ	-2569
▁Hỗ	-2570
▁hỗ	-2571
ຢ່າງ	-2572
▁ຈໍາ	-2573
▁khiển	-2574
ok	-2575
ອຍ	-2576
▁3.	-2577
▁ທີ	-2578
▁Bởi	-2579
agram	-2580
▁Dịch	-2581
▁phim	-2582
▁Collector	-2583
▁9:	-2584
▁ພິ	-2585
▁ໃບ	-2586
duct	-2587
້າພະ	-2588
▁Ant	-2589
▁Des	-2590
▁Pre	-2591
▁Str	-2592
▁ghi	-2593
▁ພຶດ	-2594
arton	-2595
▁nhôm	-2596
▁ສົ່ງ	-2597
▁Email	-2598
▁khiến	-2599
ກ່ຽວກັບ	-2600
▁ອຸດສາຫະກໍາ	-2601
79	-2602
CO	-2603
õi	-2604
ọt	-2605
iêm	-2606
und	-2607
ຖາມ	-2608
▁xử	-2609
ford	-2610
ການຊ	-2611
▁Eng	-2612
▁mời	-2613
▁Mark	-2614
▁Thái	-2615
▁ກ່ຽວກັບພວກເຮົາ	-2616
).	-2617
ແຕ່	-2618
▁4,	-2619
▁CS	-2620
▁ấn	-2621
yper	-2622
▁20,	-2623
▁Res	-2624
▁ນໍາ	-2625
▁dung	-2626
▁ການທ	-2627
▁chung	-2628
▁ອາທິດ	-2629
ໍາລະເງິນ	-2630
73	-2631
nc	-2632
="2	-2633
iệp	-2634
ຫນາ	-2635
▁đỡ	-2636
ັດຕະ	-2637
▁Năm	-2638
▁Par	-2639
▁đâu	-2640
▁dạng	-2641
▁Rikoooo	-2642
),	-2643
ẩu	-2644
ồm	-2645
enn	-2646
▁4.	-2647
▁am	-2648
land	-2649
ນ້ອຍ	-2650
▁bạc	-2651
▁lớp	-2652
▁ngữ	-2653
▁tho	-2654
▁ຫນາ	-2655
▁quay	-2656
▁ຕ້ອງ	-2657
▁ສິງຫາ	-2658
IS	-2659
ໄພ	-2660
ệt	-2661
ບັບ	-2662
▁31	-2663
▁AT	-2664
▁vẻ	-2665
ະພູມ	-2666
ໃຫຍ່	-2667
▁ແຕ່	-2668
▁Theo	-2669
▁thăm	-2670
▁Instagram	-2671
fl	-2672
ma	-2673
òi	-2674
air	-2675
ກາງ	-2676
▁38	-2677
coin	-2678
▁Bàn	-2679
▁Cân	-2680
▁sát	-2681
▁thú	-2682
utter	-2683
ບັນຈຸ	-2684
ອາກາດ	-2685
▁ngôn	-2686
▁ເບິ່ງ	-2687
▁Suppli	-2688
cl	-2689
ưỡ	-2690
eed	-2691
ifi	-2692
ime	-2693
ond	-2694
urg	-2695
ປົກ	-2696
ລອງ	-2697
ຸນາ	-2698
▁1:	-2699
▁Hộ	-2700
▁Mô	-2701
▁SA	-2702
▁Gen	-2703
▁lâu	-2704
▁chắc	-2705
▁Đường	-2706
ຫຸ້ມຫໍ່	-2707
CC	-2708
ແຂ	-2709
ຈັດ	-2710
▁ຕາ	-2711
▁FOB	-2712
▁Tám	-2713
▁mua	-2714
▁núi	-2715
▁vai	-2716
▁ທັນ	-2717
▁ທົດ	-2718
ັງກອນ	-2719
▁Shen	-2720
▁biển	-2721
▁giản	-2722
▁truy	-2723
ຕິດຕໍ່	-2724
ທາງການ	-2725
41	-2726
46	-2727
ux	-2728
col	-2729
hai	-2730
ລິກ	-2731
ສອບ	-2732
▁PM	-2733
▁Sử	-2734
▁Lưu	-2735
▁hoa	-2736
abric	-2737
ating	-2738
ouble	-2739
ເລືອກ	-2740
▁Stre	-2741
▁Tags	-2742
▁hiểm	-2743
▁Hướng	-2744
ເຮັດວຽກ	-2745
4:	-2746
IF	-2747
TS	-2748
ວມ	-2749
www	-2750
▁Be	-2751
▁ເປ	-2752
▁1.5	-2753
▁đêm	-2754
▁Việc	-2755
▁Thường	-2756
113	-2757
▁Ox	-2758
▁la	-2759
alve	-2760
▁hòa	-2761
▁lựa	-2762
▁nhẹ	-2763
▁vận	-2764
▁ຮັບ	-2765
ຫະພູມ	-2766
ໂນມັດ	-2767
▁dưới	-2768
▁vàng	-2769
▁Black	-2770
▁phước	-2771
49	-2772
ane	-2773
ays	-2774
ຍາວ	-2775
ທຶກ	-2776
ສຶກ	-2777
▁6,	-2778
▁7,	-2779
▁8:	-2780
▁FR	-2781
▁Hà	-2782
▁kỷ	-2783
ange	-2784
pper	-2785
▁Thẻ	-2786
▁gsm	-2787
▁hộp	-2788
▁ບັດ	-2789
▁hạnh	-2790
▁ໃຫມ່	-2791
▁phong	-2792
8,	-2793
gsm	-2794
▁Bột	-2795
▁Mac	-2796
▁Mon	-2797
▁khả	-2798
▁trữ	-2799
▁ວ່າ	-2800
▁đoạn	-2801
ວາ	-2802
300	-2803
con	-2804
▁09	-2805
▁GB	-2806
▁Fil	-2807
▁nền	-2808
▁thảo	-2809
ຸນຫະພູມ	-2810
▁ມັງກອນ	-2811
▁ປະຕິບັດ	-2812
ຕີ	-2813
eta	-2814
ຊາດ	-2815
ỏng	-2816
▁65	-2817
▁Cơ	-2818
▁bì	-2819
▁gỗ	-2820
▁sứ	-2821
▁ຂະ	-2822
▁ຊີ	-2823
▁ບໍ	-2824
▁ໂມ	-2825
soft	-2826
uper	-2827
ອບແວ	-2828
▁môi	-2829
▁phá	-2830
▁Tiêu	-2831
▁ຮຸ່ນ	-2832
▁ຂໍ້ມູນ	-2833
ັດຕະໂນມັດ	-2834
AM	-2835
ale	-2836
ath	-2837
ley	-2838
ທານ	-2839
▁vv	-2840
▁ແກ	-2841
ມືຖື	-2842
▁Bán	-2843
▁gồm	-2844
▁lửa	-2845
irect	-2846
▁inch	-2847
▁thất	-2848
ສະຫນູນ	-2849
▁Chang	-2850
▁Nylon	-2851
/0	-2852
ão	-2853
▁lộ	-2854
▁pr	-2855
ື່ອມ	-2856
▁1.0	-2857
▁Lời	-2858
▁Mod	-2859
ອື່ນໆ	-2860
▁2012	-2861
▁Hyper	-2862
▁chẳng	-2863
▁thiện	-2864
▁ເລືອກ	-2865
ັບສະຫນູນ	-2866
▁ການຫຸ້ມຫໍ່	-2867
ằm	-2868
ult	-2869
ສາຍ	-2870
▁bố	-2871
▁Gro	-2872
▁cam	-2873
ຮງດັນ	-2874
▁3000	-2875
▁Chơi	-2876
▁chấp	-2877
▁khởi	-2878
▁luật	-2879
▁lạnh	-2880
IP	-2881
ept	-2882
▁1/	-2883
▁Đảo	-2884
Phone	-2885
▁Char	-2886
▁FXCL	-2887
▁xanh	-2888
▁ເຖິງ	-2889
ingdao	-2890
▁ngoại	-2891
ຍະ	-2892
ແທ	-2893
▁z	-2894
bon	-2895
ຕາມ	-2896
▁ຫລ	-2897
ຮ້ອນ	-2898
▁10,	-2899
▁21,	-2900
▁24,	-2901
▁chú	-2902
▁ທໍ່	-2903
▁ນັ້ນ	-2904
ນໍາໃຊ້	-2905
▁Nhiều	-2906
▁tường	-2907
96	-2908
ùn	-2909
ຕູ	-2910
-15	-2911
lin	-2912
▁5,	-2913
▁GI	-2914
▁Về	-2915
▁al	-2916
▁0.0	-2917
▁28,	-2918
▁Kinh	-2919
▁Nhãn	-2920
▁Trời	-2921
▁cứng	-2922
▁12345	-2923
▁reply	-2924
▁Qingdao	-2925
▁ຫນ້າທາງການ	-2926
4,	-2927
ຽວ	-2928
-12	-2929
eet	-2930
ມານ	-2931
▁Ban	-2932
▁ຂາຍ	-2933
▁ngồi	-2934
▁niềm	-2935
▁suốt	-2936
▁ສະຫນ	-2937
▁Roulette	-2938
▁WhatsApp	-2939
én	-2940
uộn	-2941
ຄໍາ	-2942
ຈີນ	-2943
▁48	-2944
▁KH	-2945
▁Pe	-2946
▁ac	-2947
ກະຕິ	-2948
▁2.0	-2949
▁380	-2950
▁Bao	-2951
▁Phi	-2952
▁nam	-2953
▁ກໍາ	-2954
▁ຈັດ	-2955
itter	-2956
▁giảm	-2957
▁tịch	-2958
ິດຕັ້ງ	-2959
▁Chiết	-2960
ບໍລິການ	-2961
▁Thượng	-2962
ri	-2963
ru	-2964
ວບ	-2965
gor	-2966
ins	-2967
uân	-2968
ຮູ້	-2969
▁8,	-2970
▁lạ	-2971
▁Đã	-2972
▁ມາ	-2973
▁ສາ	-2974
▁Kho	-2975
▁LTD	-2976
▁bảy	-2977
▁ພາກ	-2978
▁ສານ	-2979
Press	-2980
▁sạch	-2981
▁email	-2982
▁quang	-2983
▁ອຸປະກອນການ	-2984
In	-2985
ີຍ	-2986
lug	-2987
ype	-2988
▁tả	-2989
▁ມມ	-2990
▁Cho	-2991
▁Cor	-2992
▁độc	-2993
ລະກິດ	-2994
▁Quận	-2995
ຂໍ້ມູນ	-2996
▁Chính	-2997
▁quanh	-2998
▁ຄວາມຫນາ	-2999
UM	-3000
ວງ	-3001
ສິ	-3002
ືອ	-3003
▁Â	-3004
uôi	-3005
▁MT	-3006
▁NO	-3007
▁Op	-3008
▁ca	-3009
▁hồi	-3010
ງື່ອນ	-3011
▁Giấy	-3012
▁ràng	-3013
▁ເວົ້າ	-3014
lor	-3015
ock	-3016
ote	-3017
▁37	-3018
▁Dự	-3019
ຖຸນາ	-3020
▁Kết	-3021
▁sắp	-3022
▁thẻ	-3023
▁ທຸກ	-3024
▁Chín	-3025
▁giấy	-3026
▁khăn	-3027
▁nâng	-3028
ທີ່ສຸດ	-3029
▁ພຶດສະພາ	-3030
92	-3031
br	-3032
mp	-3033
pe	-3034
ón	-3035
▁Ả	-3036
.10	-3037
ren	-3038
▁85	-3039
▁Ed	-3040
▁ID	-3041
iver	-3042
sung	-3043
▁Aut	-3044
▁Cốc	-3045
▁lao	-3046
▁ຄ່າ	-3047
▁ລູກ	-3048
ector	-3049
▁Dong	-3050
▁Thực	-3051
▁Motor	-3052
▁ວັດສະດຸ	-3053
.99	-3054
ຖືກ	-3055
ົ່າ	-3056
ແປງ	-3057
▁3:	-3058
▁ST	-3059
lash	-3060
ຫຼາຍ	-3061
▁12,	-3062
▁22,	-3063
▁Set	-3064
▁and	-3065
▁sâu	-3066
ivers	-3067
yptoc	-3068
ຕະຖານ	-3069
▁Jack	-3070
▁Page	-3071
▁poly	-3072
▁vòng	-3073
▁đừng	-3074
▁ພື້ນ	-3075
▁Plastic	-3076
óp	-3077
app	-3078
lic	-3079
ườn	-3080
ຫນີ	-3081
▁9,	-3082
▁Av	-3083
▁dị	-3084
▁ác	-3085
▁bức	-3086
▁dõi	-3087
▁lắng	-3088
▁tổng	-3089
▁Chương	-3090
▁ຜູ້ຜະລິດ	-3091
▁Microsoft	-3092
▁ຕິດຕໍ່ຕອນນີ້	-3093
9,	-3094
▁ủ	-3095
ari	-3096
້ຽມ	-3097
▁SP	-3098
▁de	-3099
atic	-3100
ulse	-3101
▁23,	-3102
▁Mục	-3103
▁ທາງ	-3104
ເລກຸນ	-3105
▁băng	-3106
▁lãnh	-3107
▁trục	-3108
▁đông	-3109
ຸລະກິດ	-3110
▁Valve	-3111
▁Chuyển	-3112
້າພະເຈົ້າ	-3113
oz	-3114
ແຜ	-3115
igh	-3116
ise	-3117
olt	-3118
ຂາວ	-3119
ສາດ	-3120
▁bơm	-3121
▁mật	-3122
▁mối	-3123
▁tắc	-3124
uitar	-3125
ປະເທດ	-3126
▁chạy	-3127
▁chắn	-3128
▁Được	-3129
າດຕະຖານ	-3130
▁iPhone	-3131
▁khuyên	-3132
DA	-3133
oid	-3134
ລົງ	-3135
ສູນ	-3136
▁(0	-3137
▁ນະ	-3138
▁ອະ	-3139
▁ເທ	-3140
ound	-3141
▁Fac	-3142
▁Mua	-3143
▁RFC	-3144
▁The	-3145
▁hát	-3146
▁màn	-3147
▁mùa	-3148
▁van	-3149
▁ຊື້	-3150
baric	-3151
▁khẩu	-3152
▁thao	-3153
▁Thiên	-3154
▁ແຫນ້ນ	-3155
ງື່ອນໄຂ	-3156
3)	-3157
NS	-3158
sk	-3159
ອີ	-3160
600	-3161
ger	-3162
our	-3163
ໄມ້	-3164
່ວມ	-3165
▁06	-3166
▁2:	-3167
▁33	-3168
▁NH	-3169
▁Tỉ	-3170
▁Áp	-3171
ະລັດ	-3172
▁Dây	-3173
▁Hua	-3174
▁sửa	-3175
▁đạt	-3176
ຄງການ	-3177
▁Blog	-3178
▁cạnh	-3179
▁ກຸ່ມ	-3180
▁trắng	-3181
▁ສະຖານ	-3182
▁Samsung	-3183
51	-3184
82	-3185
9)	-3186
ໃດ	-3187
ສິນ	-3188
ີນາ	-3189
▁Di	-3190
▁FS	-3191
▁SK	-3192
.201	-3193
▁Box	-3194
▁Kit	-3195
▁ຂຽນ	-3196
ition	-3197
thank	-3198
▁Miễn	-3199
▁Sing	-3200
▁Thâm	-3201
▁Wall	-3202
▁loài	-3203
▁phía	-3204
▁Đánh	-3205
▁ຕົ້ນ	-3206
▁WordPress	-3207
-86	-3208
ົບທ	-3209
▁58	-3210
▁CP	-3211
▁ex	-3212
▁on	-3213
▁ít	-3214
▁Zhe	-3215
▁for	-3216
▁hại	-3217
▁mức	-3218
▁tai	-3219
▁Best	-3220
▁Tiền	-3221
▁Quyến	-3222
▁gương	-3223
ບໍລິສັດ	-3224
SP	-3225
ứt	-3226
oph	-3227
oud	-3228
ສະນ	-3229
▁TG	-3230
ະນໍາ	-3231
▁xấu	-3232
▁ຮູ້	-3233
-2018	-3234
ົບທວນ	-3235
▁chăm	-3236
▁ກ່ອງ	-3237
▁ຫມົດ	-3238
▁Elect	-3239
▁nguồn	-3240
▁thắng	-3241
▁chuyên	-3242
▁Suppliers	-3243
CD	-3244
▁Le	-3245
▁MB	-3246
▁ss	-3247
ding	-3248
shan	-3249
ຂຶ້ນ	-3250
ໃຫມ່	-3251
▁chỗ	-3252
▁ຜົນ	-3253
ມ່ຍິງ	-3254
▁Town	-3255
▁dòng	-3256
▁tảng	-3257
▁ການຄ	-3258
▁ປ່ຽນ	-3259
▁10000	-3260
to	-3261
▁Gu	-3262
▁La	-3263
▁co	-3264
▁ທະ	-3265
▁ແຂ	-3266
▁Off	-3267
▁Tìm	-3268
▁lái	-3269
ເຫຼັກ	-3270
▁Hàng	-3271
▁Nhật	-3272
▁Thật	-3273
itting	-3274
▁0086-5	-3275
St	-3276
ຈິກ	-3277
ັບປ	-3278
▁SH	-3279
▁TO	-3280
▁cử	-3281
▁86-	-3282
▁kéo	-3283
▁lầm	-3284
▁nạn	-3285
▁rao	-3286
▁ຈຸດ	-3287
ebook	-3288
▁Flat	-3289
▁Line	-3290
▁cộng	-3291
▁phun	-3292
▁Solom	-3293
▁thách	-3294
▁Hyperbaric	-3295
DM	-3296
ft	-3297
ati	-3298
ຄຸມ	-3299
ະນະ	-3300
ເຄາ	-3301
ໂຮງ	-3302
▁02	-3303
▁03	-3304
▁Hồ	-3305
ດ້ວຍ	-3306
ເລັດ	-3307
▁18,	-3308
▁Pal	-3309
▁mát	-3310
▁ngủ	-3311
color	-3312
ໄຟຟ້າ	-3313
▁ກໍລະ	-3314
▁Tiếng	-3315
▁hoạch	-3316
42	-3317
81	-3318
ຽບ	-3319
ແຫ	-3320
▁Ấ	-3321
-30	-3322
EAN	-3323
ann	-3324
era	-3325
ຊົນ	-3326
ຍັງ	-3327
▁Du	-3328
-200	-3329
▁11,	-3330
▁Bro	-3331
▁Cập	-3332
▁Med	-3333
▁đen	-3334
▁đẩy	-3335
▁ຢາງ	-3336
ຕໍ່ໄປ	-3337
ທີ່ມີ	-3338
▁uống	-3339
▁Shang	-3340
▁ກຸມພາ	-3341
▁86-574	-3342
Pro	-3343
ink	-3344
oto	-3345
pro	-3346
ສົມ	-3347
▁DR	-3348
▁sổ	-3349
ader	-3350
ance	-3351
ustr	-3352
ນັ້ນ	-3353
▁125	-3354
▁14,	-3355
▁Gia	-3356
▁sạn	-3357
▁vua	-3358
▁Đôi	-3359
▁dàng	-3360
ategor	-3361
▁Press	-3362
ປົກກະຕິ	-3363
▁ຫົວຂໍ້	-3364
▁ອຸນຫະພູມ	-3365
▁Machinery	-3366
IR	-3367
ັມ	-3368
ເຈ	-3369
ໃສ	-3370
ຮັກ	-3371
▁5.	-3372
▁cổ	-3373
▁ép	-3374
▁ນິ	-3375
▁3.0	-3376
▁Cap	-3377
▁Net	-3378
▁PCB	-3379
▁Trò	-3380
▁nhu	-3381
▁sóc	-3382
ວບຄຸມ	-3383
▁Tool	-3384
▁bảng	-3385
▁thấm	-3386
▁ເປີດ	-3387
▁123456	-3388
▁ທົດລອງ	-3389
▁Bitcoin	-3390
▁ເງື່ອນໄຂ	-3391
SD	-3392
ces	-3393
gen	-3394
pot	-3395
▁Sn	-3396
ouse	-3397
▁hối	-3398
▁Đơn	-3399
▁đền	-3400
▁ຄູ່	-3401
▁Arch	-3402
▁Miss	-3403
▁Thép	-3404
actory	-3405
ອອກແບບ	-3406
ັດທະນາ	-3407
▁sales	-3408
▁thuốc	-3409
ທັງຫມົດ	-3410
▁carton	-3411
▁Solomons	-3412
▁ໃບຢັ້ງຢືນ	-3413
43	-3414
6,	-3415
JS	-3416
VD	-3417
een	-3418
ute	-3419
▁Uk	-3420
▁ໄລ	-3421
zhen	-3422
▁Mỗi	-3423
▁Nội	-3424
▁họa	-3425
▁Chào	-3426
▁khai	-3427
▁Warin	-3428
▁ຫຼິ້ນ	-3429
ນະໂຍບາຍ	-3430
▁Trường	-3431
CS	-3432
ave	-3433
raw	-3434
ອົບ	-3435
ືອງ	-3436
ầng	-3437
▁Fo	-3438
acks	-3439
mail	-3440
oter	-3441
ưỡng	-3442
ເຫນີ	-3443
▁0.5	-3444
▁Tur	-3445
ading	-3446
▁Park	-3447
▁Seal	-3448
▁Visa	-3449
▁yarn	-3450
▁trách	-3451
▁Server	-3452
........	-3453
62	-3454
MA	-3455
TC	-3456
oss	-3457
ລະອ	-3458
້ອມ	-3459
▁34	-3460
▁5:	-3461
▁CF	-3462
▁vũ	-3463
▁ຕະ	-3464
▁Rob	-3465
▁hơi	-3466
▁hồn	-3467
▁ໂລກ	-3468
▁2010	-3469
▁siêu	-3470
▁Light	-3471
▁ô	-3472
+00	-3473
ຊື່	-3474
▁39	-3475
▁cl	-3476
ives	-3477
umin	-3478
▁Pan	-3479
▁Tài	-3480
▁tri	-3481
▁Chúa	-3482
▁Giải	-3483
▁đoàn	-3484
▁ຫຼາຍ	-3485
+00:00	-3486
ົບທວນຄືນ	-3487
▁ທັງຫມົດ	-3488
EL	-3489
ຕ້	-3490
ເກມ	-3491
ເລດ	-3492
▁95	-3493
▁Hu	-3494
▁PR	-3495
▁RS	-3496
▁Tư	-3497
▁ຂໍ	-3498
▁Ấn	-3499
▁130	-3500
▁Bar	-3501
▁dầu	-3502
▁ຕອບ	-3503
▁Thay	-3504
▁thầy	-3505
▁Ideas	-3506
▁Nhiệt	-3507
▁ໄຟຟ້າ	-3508
▁ຄໍາຖາມ	-3509
▁Machine	-3510
▁Product	-3511
ການຊໍາລະເງິນ	-3512
ໂດ	-3513
-01	-3514
ott	-3515
▁ox	-3516
atal	-3517
▁16,	-3518
▁450	-3519
▁Ref	-3520
▁Thị	-3521
▁You	-3522
▁bột	-3523
▁mãi	-3524
▁tàu	-3525
▁Quản	-3526
▁nuôi	-3527
▁trận	-3528
irtual	-3529
ໄດ້ຮັບ	-3530
▁khích	-3531
▁ມິຖຸນາ	-3532
▁ພວກເຮົາ	-3533
MC	-3534
fu	-3535
ກວ	-3536
ແພ	-3537
els	-3538
ous	-3539
uss	-3540
▁sư	-3541
ille	-3542
ພາສາ	-3543
ສິໂນ	-3544
▁180	-3545
▁29,	-3546
▁hậu	-3547
▁lẫn	-3548
▁Ảnh	-3549
ລະອຽດ	-3550
▁2005	-3551
▁Phát	-3552
▁cuộn	-3553
▁giận	-3554
▁ນາທີ	-3555
▁ASEAN	-3556
▁https	-3557
▁Online	-3558
TF	-3559
ືດ	-3560
ẽm	-3561
ụp	-3562
ທໍ່	-3563
ສັງ	-3564
▁AM	-3565
▁TS	-3566
▁Tự	-3567
▁ຫວ	-3568
ella	-3569
▁Cảm	-3570
▁Tây	-3571
▁phê	-3572
▁Đọc	-3573
▁ຜົງ	-3574
▁ມື້	-3575
▁Quần	-3576
▁tùng	-3577
▁ເດັກ	-3578
▁ເມສາ	-3579
▁ແລ້ວ	-3580
▁khung	-3581
ປະຕິບັດ	-3582
▁ອອນໄລນ໌	-3583
AY	-3584
IA	-3585
acc	-3586
lay	-3587
ohn	-3588
▁TP	-3589
cket	-3590
lish	-3591
ົນຕີ	-3592
▁25,	-3593
▁Kim	-3594
▁cáp	-3595
▁hàn	-3596
▁trì	-3597
▁đèn	-3598
▁ຕັດ	-3599
▁ວິດ	-3600
▁ຮັກ	-3601
ຫວ່າງ	-3602
▁FREE	-3603
▁width	-3604
▁ສະບັບ	-3605
ຂອງທ່ານ	-3606
▁Double	-3607
▁fabric	-3608
ຕິດຕໍ່ຕອນນີ້	-3609
6)	-3610
7,	-3611
cn	-3612
mg	-3613
ém	-3614
ກາ	-3615
800	-3616
aff	-3617
eph	-3618
ຢັນ	-3619
ຸ້ນ	-3620
ເດດ	-3621
▁44	-3622
▁Ac	-3623
▁da	-3624
▁xứ	-3625
ions	-3626
ຂ່າວ	-3627
ເຄາະ	-3628
▁4.0	-3629
▁Pin	-3630
▁Rồi	-3631
▁khỏ	-3632
▁kia	-3633
▁may	-3634
▁nằm	-3635
▁phủ	-3636
▁thủ	-3637
▁đảm	-3638
▁đức	-3639
ຈຸບັນ	-3640
ິດຕາມ	-3641
ເມື່ອ	-3642
▁Bình	-3643
▁Cool	-3644
▁Nhân	-3645
▁Phân	-3646
▁ຫມາຍ	-3647
ເຊື່ອມ	-3648
▁2019!	-3649
▁ກັນຍາ	-3650
▁ສາມາດ	-3651
ational	-3652
▁Custom	-3653
▁ແຮງດັນ	-3654
ategorized	-3655
▁ກຸ່ມນະໂຍບາຍ	-3656
LC	-3657
dr	-3658
xy	-3659
ose	-3660
ຢາງ	-3661
ສານ	-3662
້ໄຂ	-3663
▁.:	-3664
▁By	-3665
▁mã	-3666
crip	-3667
▁Cao	-3668
▁Gol	-3669
▁mến	-3670
▁thi	-3671
ັບເດດ	-3672
▁1200	-3673
▁2006	-3674
▁Cuộc	-3675
▁Tube	-3676
cooter	-3677
▁Cheat	-3678
▁Games	-3679
▁ສະແດງ	-3680
2.	-3681
8)	-3682
?—	-3683
ລີ	-3684
150	-3685
250	-3686
ker	-3687
kgs	-3688
raz	-3689
ênh	-3690
ຜ່າ	-3691
▁7:	-3692
▁Ap	-3693
▁CA	-3694
▁CD	-3695
▁xã	-3696
ິດທິ	-3697
ີດໍາ	-3698
▁15,	-3699
▁Arm	-3700
▁Ben	-3701
▁Chỉ	-3702
▁Jet	-3703
▁Pie	-3704
▁Túi	-3705
▁nén	-3706
▁phổ	-3707
▁chút	-3708
▁mong	-3709
▁nghi	-3710
▁vĩnh	-3711
▁ຕຸລາ	-3712
▁Filter	-3713
▁ປະຕິບັດຕາມ	-3714
▁ການທົບທວນຄືນ	-3715
91	-3716
PP	-3717
VA	-3718
cá	-3719
ແລ	-3720
.05	-3721
atin	-3722
lyth	-3723
▁Chị	-3724
▁Key	-3725
▁Mặc	-3726
▁Pat	-3727
▁Tấm	-3728
▁Unc	-3729
▁com	-3730
▁trụ	-3731
▁ພຣະ	-3732
▁ຟຣີ	-3733
board	-3734
ລະບົບ	-3735
ສະແດງ	-3736
▁Star	-3737
▁sóng	-3738
▁ມີນາ	-3739
▁ແຜ່ນ	-3740
▁ບໍ່ມີ	-3741
▁Factory	-3742
▁ພາສາລາວ	-3743
▁Shenzhen	-3744
KG	-3745
ke	-3746
vc	-3747
ຂະ	-3748
top	-3749
ຊຸມ	-3750
່ອຍ	-3751
ựng	-3752
▁Hi	-3753
▁đô	-3754
▁Cle	-3755
▁Thư	-3756
▁móc	-3757
ified	-3758
otrop	-3759
urren	-3760
້າສຸດ	-3761
▁chữa	-3762
▁ເວລາ	-3763
ສະຫນອງ	-3764
▁tránh	-3765
▁Thương	-3766
ດີທີ່ສຸດ	-3767
▁Portable	-3768
▁Zhejiang	-3769
GB	-3770
pu	-3771
ຫດ	-3772
▁ງ	-3773
ext	-3774
▁CE	-3775
work	-3776
ເຕີມ	-3777
ເອົາ	-3778
▁350	-3779
▁cân	-3780
▁mắc	-3781
▁ນາງ	-3782
▁ພາບ	-3783
-2020	-3784
cript	-3785
right	-3786
ປະເພດ	-3787
▁Pack	-3788
▁Pump	-3789
▁buôn	-3790
▁khóa	-3791
▁lanh	-3792
▁niệm	-3793
▁vùng	-3794
▁phiên	-3795
▁Intern	-3796
yptocurren	-3797
CN	-3798
ĩa	-3799
ີບ	-3800
ize	-3801
ÔNG	-3802
ຄ່າ	-3803
▁4:	-3804
▁My	-3805
▁RN	-3806
▁tỷ	-3807
▁ຖື	-3808
▁ແທ	-3809
ແຕ່ງ	-3810
▁(1)	-3811
▁1.2	-3812
▁10:	-3813
▁240	-3814
▁26,	-3815
▁Bảo	-3816
▁Mag	-3817
▁Sáu	-3818
▁tha	-3819
ional	-3820
▁Pháp	-3821
▁Stud	-3822
▁cánh	-3823
▁khỏe	-3824
▁quần	-3825
▁ຊັ້ນ	-3826
estern	-3827
▁Union	-3828
ainless	-3829
▁ເປັນຫຍັງ	-3830
4)	-3831
be	-3832
da	-3833
uf	-3834
ໃຍ	-3835
▁ổ	-3836
iet	-3837
uck	-3838
ຢາມ	-3839
▁04	-3840
▁SD	-3841
▁Tu	-3842
▁at	-3843
▁ໄວ	-3844
ling	-3845
ular	-3846
ສິ່ງ	-3847
ຫມັກ	-3848
ຮ່ວມ	-3849
▁2.5	-3850
▁Như	-3851
▁tắt	-3852
▁xếp	-3853
▁đội	-3854
▁Bảng	-3855
▁Giao	-3856
▁khoa	-3857
▁soát	-3858
▁thôi	-3859
▁vững	-3860
▁Đóng	-3861
▁Đừng	-3862
້ຽມຢາມ	-3863
▁Super	-3864
▁trạng	-3865
ຕັ້ງແຕ່	-3866
ທຸລະກິດ	-3867
▁Street	-3868
ອາດສາມາດ	-3869
▁ສະຫນັບສະຫນູນ	-3870
▁Uncategorized	-3871
/5	-3872
1-	-3873
yn	-3874
any	-3875
ສຽງ	-3876
▁08	-3877
▁43	-3878
▁PE	-3879
▁Si	-3880
▁mẽ	-3881
onic	-3882
ຈ່າຍ	-3883
ນເລດ	-3884
▁Har	-3885
▁che	-3886
▁cắm	-3887
▁đám	-3888
▁ລົງ	-3889
▁ເຄື	-3890
▁ເອກ	-3891
▁Ngay	-3892
▁ເຫັນ	-3893
verter	-3894
▁Manag	-3895
ີ່ມເຕີມ	-3896
▁ລາຄາປົກກະຕິ	-3897
BO	-3898
-25	-3899
bal	-3900
erv	-3901
ຄານ	-3902
ອດຕ	-3903
ເສດ	-3904
ແສງ	-3905
▁BS	-3906
▁Bà	-3907
▁SS	-3908
▁Xe	-3909
▁bè	-3910
▁lá	-3911
▁mạ	-3912
▁ân	-3913
▁ເຟ	-3914
-100	-3915
ooth	-3916
read	-3917
ເດັກ	-3918
▁Sch	-3919
▁căn	-3920
▁cấu	-3921
▁iOS	-3922
▁tắm	-3923
▁ນັກ	-3924
ethyl	-3925
▁Zone	-3926
▁sàng	-3927
▁viện	-3928
ບັນທຶກ	-3929
ຜູ້ຊາຍ	-3930
ເວັບໄຊ	-3931
▁Guang	-3932
▁Silic	-3933
▁thẳng	-3934
▁ພະຈິກ	-3935
ໂທລະສັບ	-3936
▁Software	-3937
▁ແລະອື່ນໆ	-3938
▁ໂທລະສັບມືຖື	-3939
OL	-3940
ape	-3941
ຕອບ	-3942
▁..	-3943
▁LÀ	-3944
▁tô	-3945
▁ຄື	-3946
ຫຍໍ້	-3947
ອບໃຈ	-3948
▁Văn	-3949
▁cầm	-3950
▁dựa	-3951
▁tận	-3952
▁Đặt	-3953
▁ຊົມ	-3954
▁ຍິນ	-3955
▁ອາດ	-3956
ກວ້າງ	-3957
▁Mult	-3958
▁Thêm	-3959
▁Tình	-3960
▁khôn	-3961
▁khắc	-3962
▁nghỉ	-3963
▁ngôi	-3964
▁tiện	-3965
▁điệp	-3966
▁Khách	-3967
▁Design	-3968
▁ສະຫະລັດ	-3969
▁ການນໍາໃຊ້	-3970
UT	-3971
ິບ	-3972
ech	-3973
vey	-3974
ຜ້າ	-3975
▁51	-3976
▁GS	-3977
▁IT	-3978
▁fl	-3979
heel	-3980
itch	-3981
▁0.2	-3982
▁Tạo	-3983
▁chờ	-3984
▁gốc	-3985
▁hủy	-3986
▁lão	-3987
▁quà	-3988
▁tạp	-3989
▁ບາງ	-3990
▁ອົງ	-3991
▁ແສງ	-3992
elash	-3993
ີນທາງ	-3994
▁Chat	-3995
▁Hong	-3996
▁diệt	-3997
▁lệnh	-3998
▁tuân	-3999
▁ນິ້ວ	-4000
່ຽນແປງ	-4001
▁Zhong	-4002
▁trông	-4003
▁0086-1	-4004
inecolor	-4005
▁ເຄື່ອງມື	-4006
▁International	-4007
++	-4008
ML	-4009
bs	-4010
ໂຄ	-4011
iam	-4012
ພັນ	-4013
▁6:	-4014
▁PU	-4015
▁ví	-4016
▁xo	-4017
.0.1	-4018
Tiếp	-4019
tain	-4020
ypto	-4021
▁Boh	-4022
▁Bur	-4023
▁Jan	-4024
▁chữ	-4025
▁cài	-4026
▁vừa	-4027
▁ກອງ	-4028
▁Mill	-4029
▁Wire	-4030
▁chào	-4031
▁ngắn	-4032
▁phận	-4033
▁thấp	-4034
▁vâng	-4035
▁Thánh	-4036
▁ngoan	-4037
ຕ້ອງການ	-4038
▁ຮູບແບບ	-4039
▁Twitter	-4040
▁Facebook	-4041
▁ອັດຕະໂນມັດ	-4042
OC	-4043
ິວ	-4044
ີກ	-4045
ớn	-4046
125	-4047
ano	-4048
eld	-4049
ids	-4050
inj	-4051
opp	-4052
orn	-4053
rew	-4054
ury	-4055
▁HP	-4056
▁dỗ	-4057
aint	-4058
ຕ້ານ	-4059
▁-20	-4060
▁Red	-4061
▁Thu	-4062
▁hoá	-4063
▁hãi	-4064
▁hạt	-4065
▁món	-4066
lythe	-4067
າງວັນ	-4068
▁Case	-4069
▁Home	-4070
▁trải	-4071
atalog	-4072
ສູນກາງ	-4073
▁Mount	-4074
▁Stand	-4075
▁dường	-4076
▁ລະດັບ	-4077
▁ຄາສິໂນ	-4078
▁ວິດີໂອ	-4079
▁English	-4080
▁ບໍລິສັດ	-4081
▁ມາດຕະຖານ	-4082
87	-4083
-00	-4084
.06	-4085
aph	-4086
ava	-4087
ກັດ	-4088
ສົນ	-4089
▁mi	-4090
▁tệ	-4091
▁vs	-4092
ຕ່າງ	-4093
▁115	-4094
▁750	-4095
▁API	-4096
▁Inc	-4097
▁Lên	-4098
▁Tai	-4099
▁lai	-4100
▁Đầu	-4101
▁Cuối	-4102
▁buộc	-4103
▁giết	-4104
▁kiểu	-4105
▁đoán	-4106
▁đích	-4107
▁ຫຍັງ	-4108
▁khuôn	-4109
▁luyện	-4110
▁khuyến	-4111
▁Internet	-4112
▁ເຄື່ອງຕັດ	-4113
1)	-4114
CP	-4115
ໂກ	-4116
015	-4117
VAC	-4118
amb	-4119
isc	-4120
▁El	-4121
▁MI	-4122
▁ເຄ	-4123
Tube	-4124
ແລ້ວ	-4125
▁Tốc	-4126
▁lãm	-4127
▁ngờ	-4128
▁Đen	-4129
▁Đức	-4130
▁ສູດ	-4131
quare	-4132
▁Hand	-4133
▁Tour	-4134
▁giám	-4135
▁mảnh	-4136
▁quân	-4137
▁ອ່ານ	-4138
▁Group	-4139
▁khiêm	-4140
ຫຍໍ້ຂອງ	-4141
▁Christ	-4142
▁Single	-4143
▁ຊື່ຫຍໍ້ຂອງ	-4144
83	-4145
CE	-4146
èo	-4147
ໄຮ	-4148
ộn	-4149
▁u	-4150
ips	-4151
zip	-4152
ກໍ່	-4153
ຊື້	-4154
ບຸກ	-4155
▁-.	-4156
▁Rd	-4157
▁Sơ	-4158
▁sc	-4159
.4.1	-4160
ansp	-4161
ອ່ານ	-4162
▁900	-4163
▁Lọc	-4164
▁Sức	-4165
▁mái	-4166
ໍານົດ	-4167
▁khắp	-4168
▁nguy	-4169
▁đựng	-4170
▁ຫນຶ່ງ	-4171
ເດີນທາງ	-4172
▁Western	-4173
▁Shanghai	-4174
FC	-4175
pa	-4176
ym	-4177
ẹn	-4178
900	-4179
="0	-4180
="4	-4181
ais	-4182
bag	-4183
rum	-4184
ອົງ	-4185
ໄວ້	-4186
ấng	-4187
▁DX	-4188
▁EN	-4189
▁Nê	-4190
▁ກາ	-4191
2018	-4192
ທົ່ວ	-4193
ເຂົາ	-4194
▁Cửa	-4195
▁Gas	-4196
▁Gọi	-4197
▁Mal	-4198
▁cám	-4199
▁ghế	-4200
755-2	-4201
enter	-4202
ນະພາບ	-4203
ສຶກສາ	-4204
▁Auto	-4205
▁Blue	-4206
▁John	-4207
▁game	-4208
▁phán	-4209
▁phối	-4210
ກົດດັນ	-4211
▁ຫນ່ວຍ	-4212
▁ບົດຄວາມ	-4213
▁ຢ້ຽມຢາມ	-4214
▁ເສັ້ນໃຍ	-4215
**	-4216
zz	-4217
ຊາ	-4218
▁—	-4219
.30	-4220
lan	-4221
unn	-4222
ທູ້	-4223
ຝາກ	-4224
ຟຣີ	-4225
ອັນ	-4226
ື່ມ	-4227
້ວຍ	-4228
▁($	-4229
▁42	-4230
▁CR	-4231
▁Cy	-4232
▁Ep	-4233
▁JW	-4234
▁bê	-4235
▁ưu	-4236
ject	-4237
ouch	-4238
reen	-4239
▁HDL	-4240
▁Ray	-4241
▁Sar	-4242
▁kẽm	-4243
▁ສູນ	-4244
olone	-4245
▁ຝຸ່ນ	-4246
▁Glass	-4247
▁ທັນວາ	-4248
ຕິດຕັ້ງ	-4249
ordpress	-4250
▁ຄວາມສູງ	-4251
▁Copyright	-4252
▁Stainless	-4253
ve	-4254
ຈໍ	-4255
ດາ	-4256
ago	-4257
alk	-4258
cam	-4259
oon	-4260
ota	-4261
oài	-4262
ຂົນ	-4263
ຕອງ	-4264
ພາະ	-4265
ຮົມ	-4266
ịnh	-4267
▁63	-4268
▁QU	-4269
▁SE	-4270
▁We	-4271
▁nỗ	-4272
▁đổ	-4273
ylic	-4274
ຕະຫຼ	-4275
ຝຸ່ນ	-4276
ພື້ນ	-4277
ສັ່ງ	-4278
ໂລຫະ	-4279
▁(2)	-4280
▁13,	-4281
▁30,	-4282
▁Led	-4283
▁duy	-4284
▁dệt	-4285
▁góp	-4286
▁nhờ	-4287
▁phù	-4288
▁thù	-4289
enoid	-4290
raine	-4291
ທີ່ຈະ	-4292
ເພື່ອ	-4293
▁Bằng	-4294
▁Tian	-4295
▁liệt	-4296
▁nhắc	-4297
▁thập	-4298
▁ຫລາຍ	-4299
▁Bohem	-4300
▁Crack	-4301
▁Smart	-4302
▁ຊອບແວ	-4303
▁ຜະລິດ	-4304
▁chuyền	-4305
▁nghiên	-4306
ພະລັງງານ	-4307
▁Virtual	-4308
▁Archives	-4309
▁ຂຽນເມື່ອ	-4310
yptocurrency	-4311
FL	-4312
OW	-4313
ແຮ	-4314
້ຍ	-4315
▁%	-4316
Bet	-4317
EMA	-4318
GSM	-4319
elt	-4320
xin	-4321
ຈິງ	-4322
ຊຸດ	-4323
ບິນ	-4324
▁FI	-4325
▁IN	-4326
▁Mc	-4327
▁Me	-4328
▁Pu	-4329
▁as	-4330
▁hu	-4331
ital	-4332
ເກັບ	-4333
▁(10	-4334
▁11:	-4335
▁3.5	-4336
▁ABS	-4337
▁Dub	-4338
▁PET	-4339
▁Tập	-4340
▁ben	-4341
▁gió	-4342
▁phi	-4343
▁tầm	-4344
arius	-4345
wheel	-4346
▁Mình	-4347
▁Part	-4348
▁cook	-4349
▁giây	-4350
▁hiển	-4351
▁lông	-4352
▁mươi	-4353
▁Đồng	-4354
ສິນຄ້າ	-4355
ອົບຮົມ	-4356
▁China	-4357
▁Nguồn	-4358
▁Industr	-4359
▁ກໍລະກົດ	-4360
▁ແມ່ນຫຍັງ	-4361
7)	-4362
ye	-4363
-11	-4364
-80	-4365
arm	-4366
omo	-4367
ະລັ	-4368
ືອບ	-4369
▁64	-4370
▁FA	-4371
▁ນາ	-4372
▁ເຈ	-4373
ຫ້ອງ	-4374
▁12:	-4375
▁160	-4376
▁Mat	-4377
▁Rot	-4378
▁Tab	-4379
▁thụ	-4380
allow	-4381
asino	-4382
oller	-4383
ooden	-4384
ystem	-4385
ຊີວິດ	-4386
ອດຕິງ	-4387
ເສັ້ນ	-4388
▁4000	-4389
▁Lock	-4390
▁Tham	-4391
ສະເຫນີ	-4392
ແມ່ຍິງ	-4393
▁xuyên	-4394
▁ບັນຊີ	-4395
ະລັອດຕິງ	-4396
ຶກອົບຮົມ	-4397
▁Unthank	-4398
ຜ່າສູນກາງ	-4399
▁ຂຽນເມື່ອສຸດ	-4400
MD	-4401
ME	-4402
fr	-4403
ls	-4404
va	-4405
yr	-4406
ùa	-4407
ປາ	-4408
ືມ	-4409
ẳn	-4410
-05	-4411
="5	-4412
ont	-4413
sss	-4414
umb	-4415
ວັດ	-4416
▁Cô	-4417
▁Jo	-4418
▁Ru	-4419
▁ma	-4420
▁Âu	-4421
view	-4422
ດ້ານ	-4423
▁230	-4424
▁All	-4425
▁Ang	-4426
▁Giờ	-4427
▁Out	-4428
▁Shi	-4429
▁lăn	-4430
▁pin	-4431
▁thô	-4432
▁ຄິດ	-4433
▁ວຽກ	-4434
▁ໄມ້	-4435
28113	-4436
aster	-4437
▁2009	-4438
▁6000	-4439
▁CNIL	-4440
▁Coil	-4441
▁Kiểm	-4442
▁Luật	-4443
▁kiên	-4444
▁thái	-4445
▁Định	-4446
ອັບເດດ	-4447
▁Lượng	-4448
▁Ngoài	-4449
▁ສີດໍາ	-4450
▁Golden	-4451
▁1528113	-4452
An	-4453
GO	-4454
HS	-4455
HZ	-4456
MO	-4457
MT	-4458
ຢາ	-4459
ໂພ	-4460
ION	-4461
ier	-4462
jia	-4463
ướm	-4464
ຕະລ	-4465
ທັງ	-4466
ທົນ	-4467
ໍເຕີ	-4468
▁101	-4469
▁Bas	-4470
▁FSX	-4471
▁Hộp	-4472
▁San	-4473
▁Sex	-4474
▁Sur	-4475
▁đảo	-4476
▁ພາຍ	-4477
▁ພິມ	-4478
edust	-4479
ບໍ່ມີ	-4480
▁Song	-4481
▁Tiến	-4482
▁Vacc	-4483
▁Vàng	-4484
▁chấm	-4485
▁xuân	-4486
▁ຄົ້ນ	-4487
▁ບ້ານ	-4488
▁ໂລຫະ	-4489
▁Alumin	-4490
▁Blythe	-4491
BC	-4492
ds	-4493
ແຈ	-4494
ốp	-4495
ụy	-4496
-60	-4497
.20	-4498
ACK	-4499
nes	-4500
ຄັນ	-4501
ຄຸນ	-4502
ຄົວ	-4503
ພາກ	-4504
▁66	-4505
▁Áo	-4506
▁ແປ	-4507
.2.1	-4508
assp	-4509
eter	-4510
vent	-4511
▁bốn	-4512
▁cửu	-4513
▁sắt	-4514
▁đếm	-4515
sssss	-4516
ຮັກສາ	-4517
▁Sinh	-4518
▁Them	-4519
▁phấn	-4520
▁than	-4521
▁Dubai	-4522
▁thiểu	-4523
▁ສີຂາວ	-4524
▁Darius	-4525
▁Oxford	-4526
▁ໂຄງການ	-4527
▁Ukraine	-4528
▁ກົດຫມາຍ	-4529
▁Bohemian	-4530
▁ເວັບໄຊທ໌	-4531
Blockchain	-4532
▁Dariussssss	-4533
BR	-4534
WS	-4535
oi	-4536
su	-4537
ຶນ	-4538
-16	-4539
-21	-4540
.08	-4541
Air	-4542
fly	-4543
ift	-4544
itt	-4545
mer	-4546
ora	-4547
ຖົງ	-4548
ລວມ	-4549
ເອງ	-4550
ໍລະ	-4551
▁DN	-4552
▁Ly	-4553
▁MP	-4554
▁xi	-4555
▁ມະ	-4556
iano	-4557
rick	-4558
▁Ghế	-4559
▁Khả	-4560
▁SKU	-4561
▁can	-4562
▁dứt	-4563
▁hứa	-4564
▁mod	-4565
▁ມູນ	-4566
▁ວາວ	-4567
▁ສັດ	-4568
ປະກັນ	-4569
ັບປຸງ	-4570
▁Aria	-4571
▁Mesh	-4572
▁bông	-4573
▁chụp	-4574
▁ຕັ້ງ	-4575
▁ມິຕິ	-4576
ສູງສຸດ	-4577
້ອນຮັບ	-4578
▁chóng	-4579
▁ດົນຕີ	-4580
ພັດທະນາ	-4581
ສັງເຄາະ	-4582
▁ສູງສຸດ	-4583
alloween	-4584
▁Fitting	-4585
▁Manager	-4586
▁Vaccine	-4587
ສໍາລັບການ	-4588
gs	-4589
າະ	-4590
ເຟ	-4591
ໄທ	-4592
-40	-4593
400	-4594
="3	-4595
anc	-4596
box	-4597
cel	-4598
emo	-4599
lam	-4600
▁PA	-4601
▁Wh	-4602
▁tố	-4603
reak	-4604
ແຜ່ນ	-4605
▁(25	-4606
▁(35	-4607
▁Koo	-4608
▁Đặc	-4609
▁ຖືກ	-4610
▁ປະສ	-4611
ລິມານ	-4612
ເບິ່ງ	-4613
▁Cung	-4614
▁Nghệ	-4615
▁Nguy	-4616
▁Tính	-4617
▁bướm	-4618
▁cười	-4619
▁gánh	-4620
▁việt	-4621
▁xách	-4622
outube	-4623
zhuang	-4624
▁Giêng	-4625
▁motor	-4626
▁ເສື້ອ	-4627
5)	-4628
5,	-4629
MM	-4630
ặn	-4631
ớp	-4632
110	-4633
ada	-4634
ali	-4635
oop	-4636
ຄອນ	-4637
ຍາດ	-4638
▁99	-4639
▁Bi	-4640
▁Kn	-4641
▁PL	-4642
▁VÀ	-4643
▁cà	-4644
▁cư	-4645
▁ແຕ	-4646
inch	-4647
ings	-4648
tern	-4649
ອີເມ	-4650
ະສານ	-4651
▁Báo	-4652
▁Bây	-4653
▁Oct	-4654
▁Rod	-4655
▁Thủ	-4656
▁chứ	-4657
▁pha	-4658
▁đào	-4659
▁đùn	-4660
▁ຖ້າ	-4661
▁ວົງ	-4662
▁ອິນ	-4663
glass	-4664
ipper	-4665
light	-4666
ufact	-4667
ໃນການ	-4668
▁Card	-4669
▁Vill	-4670
▁cuốn	-4671
▁lưới	-4672
▁ບ່ອນ	-4673
▁Chẳng	-4674
▁Triển	-4675
▁lương	-4676
▁ຊີວິດ	-4677
assport	-4678
ໂມເລກຸນ	-4679
▁wooden	-4680
ຝຶກອົບຮົມ	-4681
▁Standard	-4682
▁wordpress	-4683
▁ຄວາມກວ້າງ	-4684
▁ສະຫງວນລິຂະສິດ	-4685
54	-4686
Kh	-4687
QL	-4688
XL	-4689
ốm	-4690
-02	-4691
USD	-4692
ana	-4693
erm	-4694
ged	-4695
ike	-4696
nam	-4697
ots	-4698
ເສຍ	-4699
ໂຫຍ	-4700
▁Li	-4701
▁XL	-4702
▁lồ	-4703
cker	-4704
irus	-4705
▁(2,	-4706
▁Bow	-4707
▁Chi	-4708
▁Glo	-4709
▁Roo	-4710
▁Sim	-4711
▁Vào	-4712
▁cặp	-4713
▁gắn	-4714
▁đòi	-4715
▁ມົມ	-4716
▁ສຽງ	-4717
ember	-4718
ength	-4719
▁Lượt	-4720
▁Sand	-4721
▁cháy	-4722
▁hùng	-4723
▁nông	-4724
▁ຂັ້ນ	-4725
▁ເຂົາ	-4726
erator	-4727
etooth	-4728
▁hoang	-4729
▁Chrome	-4730
▁Markets	-4731
▁ລະຫັດການ	-4732
▁Downloader	-4733
▁ຄວາມອາດສາມາດ	-4734
▁ເສັ້ນຜ່າສູນກາງ	-4735
.)	-4736
0%	-4737
PH	-4738
ẫm	-4739
ộc	-4740
999	-4741
her	-4742
hua	-4743
ole	-4744
ທຸກ	-4745
ນາມ	-4746
ຫົວ	-4747
ເຫຼ	-4748
່ໍາ	-4749
▁46	-4750
▁Is	-4751
▁Ji	-4752
▁MH	-4753
▁en	-4754
▁nọ	-4755
Sets	-4756
alls	-4757
yang	-4758
ະສົມ	-4759
▁170	-4760
▁Bay	-4761
▁Bảy	-4762
▁Chu	-4763
▁Dep	-4764
▁Học	-4765
▁Rel	-4766
▁bào	-4767
▁bác	-4768
▁bền	-4769
▁kêu	-4770
▁sol	-4771
▁đợi	-4772
▁ທັງ	-4773
▁ຢ່າ	-4774
▁ແມ່	-4775
otton	-4776
▁(201	-4777
▁Plus	-4778
▁Quan	-4779
▁Trên	-4780
▁châu	-4781
▁tĩnh	-4782
andong	-4783
▁thuận	-4784
▁thùng	-4785
ຕ້ອນຮັບ	-4786
ຫຼ້າສຸດ	-4787
ັດຈຸບັນ	-4788
▁Square	-4789
ເວັບໄຊທ໌	-4790
▁Koowheel	-4791
na	-4792
sc	-4793
ນິ	-4794
-03	-4795
aha	-4796
cer	-4797
way	-4798
ທຶນ	-4799
ື້ມ	-4800
ແທ້	-4801
ແນວ	-4802
▁Gl	-4803
▁TI	-4804
▁un	-4805
ates	-4806
imit	-4807
ixel	-4808
izer	-4809
jack	-4810
ຂ່າຍ	-4811
ແຫ່ງ	-4812
▁(0)	-4813
▁140	-4814
▁27,	-4815
▁Val	-4816
▁cơn	-4817
▁cậy	-4818
▁dev	-4819
▁hài	-4820
/2017	-4821
eless	-4822
ປະກອບ	-4823
▁Hành	-4824
▁Mold	-4825
▁diệu	-4826
▁vinh	-4827
▁vượt	-4828
▁ຢ່າງ	-4829
▁ຫນັງ	-4830
▁Cloud	-4831
▁crate	-4832
▁ເພື່ອ	-4833
▁Router	-4834
▁chuyến	-4835
utterfly	-4836
▁ພື້ນທີ່	-4837
ດີຕ້ອນຮັບ	-4838
▁Aluminum	-4839
ການເຮັດວຽກ	-4840
59	-4841
?”	-4842
Nh	-4843
2.1	-4844
han	-4845
ify	-4846
ເຊີ	-4847
▁Cu	-4848
9001	-4849
aper	-4850
oney	-4851
osit	-4852
yuan	-4853
▁-10	-4854
▁700	-4855
▁Bul	-4856
▁Cầu	-4857
▁PRO	-4858
▁Rep	-4859
▁Tem	-4860
▁bại	-4861
▁khô	-4862
▁lục	-4863
▁mấy	-4864
▁tan	-4865
▁tấn	-4866
▁đĩa	-4867
▁ແຜນ	-4868
cover	-4869
ຕະລາງ	-4870
ລະຫັດ	-4871
▁Foam	-4872
▁Full	-4873
▁Last	-4874
▁Minh	-4875
▁Prot	-4876
▁cháu	-4877
▁khối	-4878
▁nhẫn	-4879
▁tiêm	-4880
▁ເອົາ	-4881
▁ໄລຍະ	-4882
ສະຫມັກ	-4883
ຮູບແບບ	-4884
▁thang	-4885
▁ອາຫານ	-4886
otropin	-4887
ufactur	-4888
ອອນໄລນ໌	-4889
▁Length	-4890
▁ຂ້າພະເຈົ້າ	-4891
":	-4892
IV	-4893
xi	-4894
ya	-4895
ໃບ	-4896
-18	-4897
-50	-4898
bit	-4899
ola	-4900
ume	-4901
ງົາ	-4902
ພິວ	-4903
ໂລກ	-4904
ụng	-4905
▁52	-4906
▁6.	-4907
▁CB	-4908
▁PN	-4909
▁TT	-4910
▁ak	-4911
▁đu	-4912
9.00	-4913
amic	-4914
orts	-4915
ຫຍາຍ	-4916
▁315	-4917
▁Aug	-4918
▁DIN	-4919
▁Ink	-4920
▁TGG	-4921
▁car	-4922
▁hảo	-4923
▁tòa	-4924
▁ອິດ	-4925
ature	-4926
ຽດນາມ	-4927
▁(3,5	-4928
▁Extr	-4929
▁ngạc	-4930
▁ຊິ້ນ	-4931
▁Giáng	-4932
▁phẳng	-4933
▁trượt	-4934
▁ກະທູ້	-4935
▁Dedust	-4936
▁Guitar	-4937
▁tattoo	-4938
▁ເລື່ອງ	-4939
.05.2018	-4940
▁ສະຖານທີ່	-4941
▁ສູດໂມເລກຸນ	-4942
▁ສໍາລັບຜູ້ຊາຍ	-4943
ky	-4944
ld	-4945
-90	-4946
ara	-4947
des	-4948
eck	-4949
ượu	-4950
ສຸກ	-4951
ເຫລ	-4952
▁+1	-4953
▁DS	-4954
▁MA	-4955
▁ly	-4956
▁Ôn	-4957
▁ẩn	-4958
aric	-4959
pera	-4960
ປ້ອງ	-4961
ສບຸກ	-4962
ຫລັບ	-4963
ໂຫຍດ	-4964
▁135	-4965
▁Dig	-4966
▁Jin	-4967
▁Log	-4968
▁Lúc	-4969
▁Nga	-4970
▁Pos	-4971
▁Sun	-4972
▁Wir	-4973
▁góc	-4974
▁kém	-4975
▁đột	-4976
allet	-4977
lugin	-4978
ອາຫານ	-4979
ແກ້ໄຂ	-4980
▁Cage	-4981
▁Flex	-4982
▁Java	-4983
▁View	-4984
▁thậm	-4985
▁visa	-4986
▁Động	-4987
Casino	-4988
ທົ່ວໄປ	-4989
ັ່ນຕອງ	-4990
▁ທໍາມະ	-4991
ິດທິພາບ	-4992
ໃຊ້ເວລາ	-4993
▁Carbon	-4994
atalogue	-4995
▁Univers	-4996
▁ບໍລິການ	-4997
▁Shandong	-4998
▁ເສັ້ນໃຍສັງເຄາະ	-4999
UN	-5000
__	-5001
yu	-5002
ນີ	-5003
ບນ	-5004
ໂປ	-5005
ỏa	-5006
▁້	-5007
-04	-5008
-19	-5009
ema	-5010
ບຽນ	-5011
ລູກ	-5012
ໃສ່	-5013
▁72	-5014
▁92	-5015
▁Ab	-5016
▁HB	-5017
▁RH	-5018
▁WE	-5019
ພາສີ	-5020
ຫວັດ	-5021
▁DVD	-5022
▁Est	-5023
▁Mos	-5024
▁Neo	-5025
▁ODM	-5026
▁Sao	-5027
ensor	-5028
ໃນຕອນ	-5029
ໍາລັງ	-5030
▁1800	-5031
▁Karn	-5032
▁Work	-5033
▁vườn	-5034
lamode	-5035
▁Huafu	-5036
▁Pulse	-5037
▁dưỡng	-5038
▁phiếu	-5039
▁đương	-5040
▁Pocket	-5041
▁ເດືອນກ	-5042
▁ສະລັອດຕິງ	-5043
▁ສໍາລັບການ	-5044
▁Misslamode	-5045
▁ການປ່ຽນແປງ	-5046
58	-5047
Un	-5048
aj	-5049
ek	-5050
kW	-5051
èm	-5052
.09	-5053
220	-5054
orr	-5055
osm	-5056
rid	-5057
ura	-5058
uri	-5059
ພັກ	-5060
ພາຍ	-5061
ພີມ	-5062
ແຂງ	-5063
▁41	-5064
▁56	-5065
▁AL	-5066
▁Ai	-5067
▁GW	-5068
▁hò	-5069
amin	-5070
inyl	-5071
ອດໄພ	-5072
ະພາບ	-5073
▁0.3	-5074
▁1.6	-5075
▁316	-5076
▁Cup	-5077
▁Imp	-5078
▁Sub	-5079
▁Tòa	-5080
▁ກວດ	-5081
▁ຂອບ	-5082
▁ບົບ	-5083
▁ສົນ	-5084
▁ອັດ	-5085
amaha	-5086
proof	-5087
ຂອບໃຈ	-5088
ພີມມາ	-5089
▁Chia	-5090
▁Khóa	-5091
▁Snap	-5092
▁chứa	-5093
▁trại	-5094
▁ດ້ວຍ	-5095
▁Trắng	-5096
▁chàng	-5097
▁hương	-5098
▁kháng	-5099
▁thoát	-5100
ໃຊ້ຈ່າຍ	-5101
▁System	-5102
▁phượng	-5103
ຜູ້ຜະລິດ	-5104
▁YouTube	-5105
ufacturer	-5106
▁Converter	-5107
7.	-5108
PA	-5109
ys	-5110
ìa	-5111
ຄະ	-5112
’.	-5113
-07	-5114
ata	-5115
ost	-5116
sch	-5117
shi	-5118
sul	-5119
ກາຍ	-5120
ັອກ	-5121
ິລາ	-5122
▁''	-5123
▁(6	-5124
▁59	-5125
▁At	-5126
▁BL	-5127
▁Dù	-5128
▁Go	-5129
▁Mở	-5130
▁RO	-5131
▁bề	-5132
▁bổ	-5133
▁lò	-5134
▁ໂປ	-5135
feng	-5136
ປ່ຽນ	-5137
ເພາະ	-5138
ໂນໂລ	-5139
▁Act	-5140
▁Cal	-5141
▁Lao	-5142
▁Lào	-5143
▁Nov	-5144
▁One	-5145
▁Per	-5146
▁cậu	-5147
▁hẳn	-5148
▁mạc	-5149
▁não	-5150
▁nút	-5151
▁rối	-5152
▁sạc	-5153
▁ຕິດ	-5154
▁ປັບ	-5155
ights	-5156
veyor	-5157
ville	-5158
ທະບຽນ	-5159
▁Amaz	-5160
▁Chọn	-5161
▁Coin	-5162
▁High	-5163
▁NEMA	-5164
▁hack	-5165
▁nhắn	-5166
▁trần	-5167
▁đuổi	-5168
▁Epson	-5169
▁Jiang	-5170
▁chiên	-5171
▁ngang	-5172
▁quảng	-5173
▁ຄູ່ມື	-5174
▁Driver	-5175
▁Karnar	-5176
▁giường	-5177
▁thuyết	-5178
▁thượng	-5179
interest	-5180
▁2006-2020	-5181
▁Bluetooth	-5182
▁Fiberglass	-5183
mA	-5184
ນູ	-5185
ບໍ	-5186
ແອ	-5187
180	-5188
24.	-5189
350	-5190
4,5	-5191
TFE	-5192
ຂຽນ	-5193
ຊານ	-5194
ສອງ	-5195
▁54	-5196
▁BI	-5197
▁MO	-5198
▁MS	-5199
▁Tô	-5200
▁iP	-5201
▁sw	-5202
▁ảo	-5203
▁ủi	-5204
1000	-5205
auda	-5206
dele	-5207
unct	-5208
xury	-5209
ເງົາ	-5210
ເວັນ	-5211
▁ATV	-5212
▁Bất	-5213
▁Gir	-5214
▁Hay	-5215
▁Heb	-5216
▁Mel	-5217
▁Pip	-5218
▁Tân	-5219
▁hầu	-5220
▁rào	-5221
▁sơn	-5222
aming	-5223
▁Bill	-5224
▁Thăm	-5225
▁khóc	-5226
▁sánh	-5227
▁trúc	-5228
▁ປະຕູ	-5229
▁ຫນັກ	-5230
ຈໍານວນ	-5231
▁Opera	-5232
▁Phone	-5233
▁Touch	-5234
▁cường	-5235
ຂົນສົ່ງ	-5236
▁spring	-5237
▁ແນະນໍາ	-5238
ພາບອາກາດ	-5239
▁Products	-5240
▁ຈັດພີມມາ	-5241
▁ການເດີນທາງ	-5242
▁ຍິນດີຕ້ອນຮັບ	-5243
FF	-5244
Qu	-5245
TA	-5246
ẤT	-5247
101	-5248
ORD	-5249
Pie	-5250
ebo	-5251
key	-5252
ody	-5253
ãnh	-5254
▁#5	-5255
▁98	-5256
▁NG	-5257
▁PS	-5258
▁Tổ	-5259
▁Ví	-5260
burg	-5261
ible	-5262
outh	-5263
ທ້າຍ	-5264
ເຢັນ	-5265
▁0.6	-5266
▁Ber	-5267
▁Int	-5268
▁Rad	-5269
▁TPU	-5270
▁lắp	-5271
▁mòn	-5272
▁mực	-5273
▁nhị	-5274
▁sân	-5275
▁Đếm	-5276
▁Đội	-5277
▁đúc	-5278
▁đầm	-5279
▁đớn	-5280
▁ວັດ	-5281
ສະຫນາ	-5282
ອບຄົວ	-5283
ອມພິວ	-5284
ເມືອງ	-5285
ເລີ່ມ	-5286
▁5000	-5287
▁Fire	-5288
▁Idea	-5289
▁Kiểu	-5290
▁Vang	-5291
▁bang	-5292
▁chăn	-5293
▁căng	-5294
▁lượt	-5295
▁trọn	-5296
▁ຂຶ້ນ	-5297
▁ລ້ານ	-5298
imited	-5299
ແຕນເລດ	-5300
▁Giant	-5301
▁khiết	-5302
ປະກັນໄພ	-5303
▁Yamaha	-5304
▁ການອອກແບບ	-5305
,0	-5306
93	-5307
CM	-5308
GE	-5309
km	-5310
ໂຕ	-5311
-85	-5312
ONG	-5313
UMX	-5314
inc	-5315
ney	-5316
pal	-5317
wei	-5318
ທົວ	-5319
ພຣະ	-5320
ອະນ	-5321
▁!!	-5322
▁--	-5323
▁CC	-5324
▁Er	-5325
▁ẩm	-5326
ania	-5327
ence	-5328
etch	-5329
iger	-5330
long	-5331
orth	-5332
ສະນາ	-5333
ເຖິງ	-5334
▁And	-5335
▁CAS	-5336
▁Dãy	-5337
▁Gal	-5338
▁Hôm	-5339
▁Saf	-5340
▁Tốt	-5341
▁Ult	-5342
▁Xây	-5343
▁gốm	-5344
▁hắn	-5345
▁lót	-5346
▁pre	-5347
▁tia	-5348
▁Đào	-5349
▁đón	-5350
▁đạp	-5351
▁ຖາມ	-5352
▁ປົກ	-5353
alvan	-5354
ປະຊຸມ	-5355
ົບການ	-5356
ແນວໃດ	-5357
▁Sách	-5358
▁lược	-5359
▁thận	-5360
▁thịt	-5361
▁trôi	-5362
▁Đang	-5363
▁ກ່ຽວ	-5364
▁ຫມວດ	-5365
▁Sheet	-5366
▁ເມື່ອ	-5367
oppingd	-5368
▁Direct	-5369
▁Phương	-5370
▁Tablet	-5371
▁ປະລິມານ	-5372
▁Blackjack	-5373
▁ຄວາມກົດດັນ	-5374
oppingdirect	-5375
▁ລະຫັດບໍລິສັດ	-5376
DS	-5377
II	-5378
ms	-5379
ÔI	-5380
ũi	-5381
ຖະ	-5382
ໄກ	-5383
ean	-5384
mon	-5385
ors	-5386
ros	-5387
ນັບ	-5388
ຣິດ	-5389
ັ້ມ	-5390
ໃຕ້	-5391
▁53	-5392
▁LC	-5393
▁re	-5394
▁ຊມ	-5395
acth	-5396
ober	-5397
ross	-5398
ປະຕູ	-5399
ເປີດ	-5400
▁0,5	-5401
▁105	-5402
▁360	-5403
▁Gre	-5404
▁Hơn	-5405
▁Lad	-5406
▁May	-5407
▁Mặt	-5408
▁Nói	-5409
▁Pen	-5410
▁Pol	-5411
▁Pox	-5412
▁Tan	-5413
▁bật	-5414
▁hấp	-5415
▁tán	-5416
ຊອບແວ	-5417
ບັນຊີ	-5418
ົດສອບ	-5419
▁Bang	-5420
▁Hiện	-5421
▁Lịch	-5422
▁PTFE	-5423
▁Phil	-5424
▁Tail	-5425
▁chảy	-5426
▁quen	-5427
▁tiểu	-5428
▁trao	-5429
▁tròn	-5430
▁Đấng	-5431
▁ຊ່ວຍ	-5432
▁Board	-5433
▁Model	-5434
▁khoác	-5435
▁ອີເມວ	-5436
ansposh	-5437
▁Center	-5438
▁Crypto	-5439
▁exacth	-5440
▁nhường	-5441
▁ເຟສບຸກ	-5442
ໄວ້ໃນຕອນ	-5443
▁Charter	-5444
▁ການອ່ານ	-5445
▁exacthacks	-5446
▁ງວນລິຂະສິດ	-5447
ໄວ້ໃນຕອນຕົ້ນ	-5448
MK	-5449
RC	-5450
UD	-5451
go	-5452
kh	-5453
ùy	-5454
bet	-5455
ser	-5456
ງາມ	-5457
ຕິກ	-5458
ປັບ	-5459
”.—	-5460
▁57	-5461
▁76	-5462
▁::	-5463
▁As	-5464
▁Là	-5465
▁OS	-5466
▁ເນ	-5467
ince	-5468
▁Ass	-5469
▁Bai	-5470
▁Day	-5471
▁Fre	-5472
▁sàn	-5473
▁ຖານ	-5474
▁ພັນ	-5475
▁ສັນ	-5476
▁ແທ້	-5477
store	-5478
ັງກິດ	-5479
▁Cook	-5480
▁Diện	-5481
▁Ngân	-5482
▁Prof	-5483
▁Tầng	-5484
▁beta	-5485
▁cổng	-5486
▁jack	-5487
▁ຫນາດ	-5488
rument	-5489
ຂອງການ	-5490
ັກໂນໂລ	-5491
ແນະນໍາ	-5492
ແປພາສາ	-5493
▁Hebei	-5494
▁Train	-5495
▁nhiêu	-5496
▁ຖົງມື	-5497
▁ເລີ່ມ	-5498
ສໍາເລັດ	-5499
▁guitar	-5500
▁ໄດ້ຮັບ	-5501
ທາງເລືອກ	-5502
ປັດຈຸບັນ	-5503
▁ຄວາມຍາວ	-5504
ຂ້າພະເຈົ້າ	-5505
▁Industrial	-5506
▁shoppingdirect	-5507
/4	-5508
??	-5509
KT	-5510
PN	-5511
cb	-5512
gh	-5513
/11	-5514
10,	-5515
120	-5516
769	-5517
aki	-5518
iff	-5519
its	-5520
oul	-5521
ray	-5522
set	-5523
ກວດ	-5524
ອາຍ	-5525
ິ່ນ	-5526
ແພດ	-5527
▁#6	-5528
▁07	-5529
▁DM	-5530
▁Gỗ	-5531
▁Sl	-5532
▁UN	-5533
▁Xử	-5534
▁hề	-5535
▁ໃສ	-5536
----	-5537
2020	-5538
NUMX	-5539
luor	-5540
ness	-5541
ລາຄາ	-5542
ຮ່າງ	-5543
ັດໄປ	-5544
ເນີນ	-5545
▁1,5	-5546
▁LCD	-5547
▁SMS	-5548
▁cai	-5549
▁thí	-5550
▁vat	-5551
▁Đèn	-5552
▁đem	-5553
▁ຕາມ	-5554
▁ແຫຼ	-5555
-2017	-5556
ປອດໄພ	-5557
ເລກທີ	-5558
▁Anti	-5559
▁King	-5560
▁Vòng	-5561
▁giai	-5562
▁quên	-5563
▁tour	-5564
▁trăm	-5565
▁tặng	-5566
▁ການຊ	-5567
tainer	-5568
ulator	-5569
ໍາເນີນ	-5570
▁.....	-5571
▁Khuôn	-5572
▁khổng	-5573
▁Amazon	-5574
▁Cooler	-5575
▁Cutter	-5576
▁scooter	-5577
▁modified	-5578
▁Pinterest	-5579
▁polyester	-5580
▁Instrument	-5581
▁ການປະຕິບັດ	-5582
▁ລະຫັດການປະກັນໄພ	-5583
97	-5584
AP	-5585
ps	-5586
rd	-5587
ÁC	-5588
.12	-5589
.50	-5590
IFI	-5591
Tất	-5592
alt	-5593
ướt	-5594
ກົງ	-5595
ປະສ	-5596
ແຮມ	-5597
ໍ້າ	-5598
▁Dĩ	-5599
▁It	-5600
▁oz	-5601
▁ĐI	-5602
chia	-5603
ials	-5604
xBet	-5605
ຊັ້ນ	-5606
ຮ້ອງ	-5607
▁8.2	-5608
▁Apr	-5609
▁Fin	-5610
▁Gửi	-5611
▁Kẹo	-5612
▁Mẹo	-5613
▁Sàn	-5614
▁app	-5615
▁cát	-5616
▁dần	-5617
▁dậy	-5618
▁oxy	-5619
▁soi	-5620
▁trừ	-5621
▁tộc	-5622
▁uốn	-5623
▁ກົນ	-5624
▁ງານ	-5625
▁ຢາກ	-5626
▁ສວນ	-5627
▁ສອງ	-5628
▁ủng	-5629
eting	-5630
night	-5631
phone	-5632
ຫຼິ້ນ	-5633
ອາທິດ	-5634
ເຄືອບ	-5635
▁Conn	-5636
▁Drif	-5637
▁Flor	-5638
▁Năng	-5639
▁Phải	-5640
▁lãng	-5641
▁miền	-5642
▁nhảy	-5643
▁thai	-5644
▁tràn	-5645
▁tông	-5646
▁điển	-5647
▁Apple	-5648
▁Chiến	-5649
▁Water	-5650
▁ບັນຫາ	-5651
eyelash	-5652
▁Minnes	-5653
ການຜະລິດ	-5654
▁ນີ້ແມ່ນ	-5655
ຫາພວກເຮົາ	-5656
ແລະແມ່ຍິງ	-5657
▁University	-5658
▁ການບໍລິການ	-5659
▁ການຢັ້ງຢືນ	-5660
▁ສະບັບເລກທີ	-5661
▁ທີ່ດີທີ່ສຸດ	-5662
EW	-5663
HD	-5664
LP	-5665
ca	-5666
vi	-5667
wu	-5668
ໄສ	-5669
ớm	-5670
▁!	-5671
-22	-5672
.01	-5673
105	-5674
380	-5675
MPa	-5676
omb	-5677
url	-5678
ຜິດ	-5679
ພາດ	-5680
ສູ່	-5681
ຫຼດ	-5682
າລະ	-5683
▁61	-5684
▁67	-5685
▁SF	-5686
▁UK	-5687
▁lề	-5688
▁mơ	-5689
▁ໂຄ	-5690
2005	-5691
ages	-5692
guan	-5693
jian	-5694
uity	-5695
ສະນະ	-5696
ເສີມ	-5697
▁FAQ	-5698
▁Geo	-5699
▁Màn	-5700
▁Sec	-5701
▁Sil	-5702
▁bầu	-5703
▁cnc	-5704
▁cất	-5705
▁khá	-5706
▁tám	-5707
▁yên	-5708
▁đai	-5709
▁ກາງ	-5710
▁ລັດ	-5711
▁ລໍ້	-5712
ement	-5713
leton	-5714
▁Bear	-5715
▁Feng	-5716
▁Hiệu	-5717
▁Khoa	-5718
▁Serv	-5719
▁củng	-5720
▁ngập	-5721
covery	-5722
ຍີ່ຫໍ້	-5723
ຕົວແບບ	-5724
▁Beach	-5725
▁Khung	-5726
▁Skype	-5727
▁©2005	-5728
▁ເຄືອບ	-5729
▁ແຫຼ່ງ	-5730
▁Fruity	-5731
▁Luxury	-5732
ຄວາມຮ້ອນ	-5733
ນ້ໍາຫນັກ	-5734
▁Drifter	-5735
▁ການແປພາສາ	-5736
▁ລະຫັດພາສີ	-5737
▁ຄ່າໃຊ້ຈ່າຍ	-5738
UB	-5739
nm	-5740
yi	-5741
ອະ	-5742
.07	-5743
.15	-5744
get	-5745
ife	-5746
rom	-5747
ນັກ	-5748
ບ່ງ	-5749
ລັກ	-5750
ວາງ	-5751
ຫຼື	-5752
▁Od	-5753
▁SO	-5754
▁Sa	-5755
▁im	-5756
▁vu	-5757
▁đỏ	-5758
▁ບາ	-5759
▁ໂອ	-5760
-800	-5761
ific	-5762
ixer	-5763
▁190	-5764
▁650	-5765
▁AAS	-5766
▁Ext	-5767
▁Inf	-5768
▁Nha	-5769
▁Reg	-5770
▁SGS	-5771
▁TÔI	-5772
▁Tín	-5773
▁bơi	-5774
▁máu	-5775
▁nản	-5776
▁nắm	-5777
▁ຕູ້	-5778
▁ລວມ	-5779
▁ສຸກ	-5780
▁ເພດ	-5781
indle	-5782
osmos	-5783
▁Hang	-5784
▁Ling	-5785
▁Nick	-5786
▁Phục	-5787
▁Test	-5788
▁lĩnh	-5789
▁rượu	-5790
▁ດັ່ງ	-5791
▁ເມນູ	-5792
eramic	-5793
▁Contr	-5794
▁Hotel	-5795
▁Paris	-5796
▁Range	-5797
▁Trình	-5798
▁chuỗi	-5799
▁AASraw	-5800
▁Player	-5801
▁ປະຫວັດ	-5802
▁ລາງວັນ	-5803
▁ຕົວຢ່າງ	-5804
▁ນະໂຍບາຍ	-5805
▁ໂມເລກຸນ	-5806
▁ເດັກນ້ອຍ	-5807
▁Minnesota	-5808
▁©2005-2018	-5809
OO	-5810
do	-5811
we	-5812
ມມ	-5813
.95	-5814
1.5	-5815
:86	-5816
als	-5817
ily	-5818
que	-5819
ຕູນ	-5820
ສັນ	-5821
ເດຍ	-5822
ໂມງ	-5823
▁68	-5824
▁Ge	-5825
▁HÀ	-5826
▁Ir	-5827
▁TM	-5828
▁Xi	-5829
▁bi	-5830
Chat	-5831
erry	-5832
ians	-5833
orld	-5834
ston	-5835
vers	-5836
ູມິນ	-5837
▁1.1	-5838
▁123	-5839
▁Cài	-5840
▁Còn	-5841
▁Cần	-5842
▁Mus	-5843
▁THƯ	-5844
▁bùn	-5845
▁rút	-5846
▁the	-5847
▁you	-5848
▁ກັດ	-5849
▁ຍົກ	-5850
▁ຕອນ	-5851
▁ນິດ	-5852
▁ສິດ	-5853
-2019	-5854
ailer	-5855
fiber	-5856
icker	-5857
▁Băng	-5858
▁Cont	-5859
▁Giảm	-5860
▁Hoàn	-5861
▁Mang	-5862
▁biên	-5863
▁hồng	-5864
▁iPad	-5865
▁mạch	-5866
▁ຮ້ອນ	-5867
ກໍານົດ	-5868
ຄວບຄຸມ	-5869
ຕະຫຼາດ	-5870
ໂຄສະນາ	-5871
▁Flash	-5872
▁Panel	-5873
▁Piece	-5874
▁Quyền	-5875
▁South	-5876
▁Under	-5877
▁xướng	-5878
▁ເຫຼັກ	-5879
ກັ່ນຕອງ	-5880
ອຸປະກອນ	-5881
▁Armati	-5882
▁Paypal	-5883
▁Rotary	-5884
▁Shijia	-5885
▁ຕິດຕາມ	-5886
▁ບັນທຶກ	-5887
▁Deposit	-5888
▁Digital	-5889
▁ຂໍຂອບໃຈ	-5890
▁ຕິດຕັ້ງ	-5891
▁Compress	-5892
▁Silicone	-5893
▁ເວົ້າວ່າ	-5894
ພາບອາກາດໃນ	-5895
▁Genotropin	-5896
▁Manufacturer	-5897
▁Shijiazhuang	-5898
))	-5899
52	-5900
CB	-5901
la	-5902
ts	-5903
ຶງ	-5904
aft	-5905
bus	-5906
ຍານ	-5907
ຖີ່	-5908
ບານ	-5909
ລັດ	-5910
ຮອງ	-5911
ີ່ປ	-5912
▁47	-5913
▁AI	-5914
▁EX	-5915
▁FL	-5916
▁SN	-5917
▁rẻ	-5918
▁ວາ	-5919
▁ổn	-5920
aner	-5921
stan	-5922
ther	-5923
ກວ່າ	-5924
ຄຣິດ	-5925
ຄົ້ນ	-5926
ທ່ຽວ	-5927
▁0.8	-5928
▁10%	-5929
▁108	-5930
▁2.2	-5931
▁320	-5932
▁Bal	-5933
▁CHO	-5934
▁Gói	-5935
▁Mật	-5936
▁Not	-5937
▁bão	-5938
▁lối	-5939
▁lừa	-5940
▁rời	-5941
▁tóc	-5942
▁tật	-5943
▁tồn	-5944
▁vít	-5945
▁vết	-5946
▁Độc	-5947
▁ຂ້າ	-5948
▁ລໍາ	-5949
▁ເຫດ	-5950
ender	-5951
ສະບັບ	-5952
▁Brow	-5953
▁Cart	-5954
▁Khối	-5955
▁Open	-5956
▁Trái	-5957
▁Tăng	-5958
▁hạng	-5959
▁ngẫm	-5960
▁ngọn	-5961
▁ສິ້ນ	-5962
▁Brush	-5963
▁Clear	-5964
▁Phiên	-5965
▁Tương	-5966
▁dương	-5967
ເຮັດໃຫ້	-5968
▁Chuyến	-5969
▁cookies	-5970
ເຊື່ອມຕໍ່	-5971
▁86-574-8	-5972
▁Conveyor	-5973
ອັດຕະໂນມັດ	-5974
▁ທີ່ໃຊ້ເວລາ	-5975
▁Refinecolor	-5976
FS	-5977
Gi	-5978
IB	-5979
Ng	-5980
ສື	-5981
-06	-5982
.35	-5983
160	-5984
IES	-5985
PDF	-5986
elf	-5987
elo	-5988
gan	-5989
ibo	-5990
ico	-5991
une	-5992
ຄອງ	-5993
ຄູ່	-5994
ຄົມ	-5995
ຕົກ	-5996
ລົມ	-5997
▁2)	-5998
▁CT	-5999
▁NY	-6000
▁TV	-6001
▁Vo	-6002
▁bí	-6003
▁bó	-6004
▁cs	-6005
▁et	-6006
▁ຕິ	-6007
▁ໍາ	-6008
▁ấm	-6009
2019	-6010
ຕ່ໍາ	-6011
▁2.6	-6012
▁4.5	-6013
▁Acc	-6014
▁EVA	-6015
▁Non	-6016
▁Sem	-6017
▁USA	-6018
▁khử	-6019
▁mây	-6020
▁phó	-6021
▁rơi	-6022
▁sốt	-6023
▁sớm	-6024
▁tổn	-6025
▁ຄວນ	-6026
▁ຊາຍ	-6027
▁ພັກ	-6028
▁ເພງ	-6029
▁0.15	-6030
▁0.86	-6031
▁1600	-6032
▁Cộng	-6033
▁Head	-6034
▁Hoạt	-6035
▁Kitô	-6036
▁Matt	-6037
▁Mạng	-6038
▁Nhựa	-6039
▁Pick	-6040
▁Thưa	-6041
▁khám	-6042
▁ngại	-6043
▁thác	-6044
▁trắc	-6045
▁Chick	-6046
▁Poker	-6047
▁tướng	-6048
▁ຖັດໄປ	-6049
▁cosmos	-6050
▁ຄົ້ນຫາ	-6051
.06.2018	-6052
▁ສໍາເລັດ	-6053
Catalogue	-6054
alvanized	-6055
ຕັ້ງແຕ່ປີ	-6056
▁Wireless	-6057
▁ຄຸນນະພາບ	-6058
ຂອງພວກເຮົາ	-6059
▁halloween	-6060
▁Compressor	-6061
ນັບຕັ້ງແຕ່ປີ	-6062
OV	-6063
TT	-6064
df	-6065
gy	-6066
ka	-6067
-14	-6068
-17	-6069
860	-6070
ANG	-6071
COM	-6072
Pal	-6073
ael	-6074
ຂັບ	-6075
ຣົບ	-6076
ແທນ	-6077
▁7.	-6078
▁88	-6079
▁ER	-6080
▁HS	-6081
▁RE	-6082
▁SU	-6083
▁Vũ	-6084
▁bò	-6085
▁Âm	-6086
form	-6087
mmer	-6088
tian	-6089
ແຈ້ງ	-6090
ໄລຍະ	-6091
▁280	-6092
▁30%	-6093
▁4.3	-6094
▁7.4	-6095
▁GPS	-6096
▁bút	-6097
▁cán	-6098
▁lan	-6099
▁nửa	-6100
▁pvc	-6101
▁tái	-6102
▁ຈັນ	-6103
▁ລັກ	-6104
ments	-6105
usion	-6106
ຽງແຕ່	-6107
▁1.0%	-6108
▁1300	-6109
▁Chem	-6110
▁Hoặc	-6111
▁News	-6112
▁Nhôm	-6113
▁Rand	-6114
▁Thụy	-6115
▁hoan	-6116
▁khẩn	-6117
▁Điểm	-6118
▁ຕ່າງ	-6119
▁ອື່ນ	-6120
ຮູບພາບ	-6121
ູມິນຽມ	-6122
▁Cauda	-6123
▁Grill	-6124
▁Linux	-6125
▁miếng	-6126
▁nhánh	-6127
▁PayPal	-6128
▁Posted	-6129
▁nghịch	-6130
▁Casting	-6131
▁ສິ່ງທີ່	-6132
▁Electric	-6133
▁ຄວາມຫມາຍ	-6134
▁ເຄື່ອງພິມ	-6135
▁ຈໍານວນຕົວແບບ	-6136
Cl	-6137
RL	-6138
RS	-6139
gi	-6140
iC	-6141
ji	-6142
ບດ	-6143
ậc	-6144
00€	-6145
INE	-6146
axy	-6147
bed	-6148
cks	-6149
ler	-6150
ope	-6151
ຊີບ	-6152
ຍາຍ	-6153
ນິກ	-6154
▁69	-6155
▁78	-6156
▁DJ	-6157
▁EA	-6158
▁OD	-6159
▁ap	-6160
▁cỡ	-6161
▁ga	-6162
▁kê	-6163
▁lẻ	-6164
▁Đồ	-6165
ends	-6166
gram	-6167
tery	-6168
ບນັດ	-6169
▁(13	-6170
▁210	-6171
▁AST	-6172
▁Cre	-6173
▁Cấu	-6174
▁McK	-6175
▁Scr	-6176
▁Ter	-6177
▁Upd	-6178
▁ser	-6179
▁tim	-6180
▁ປິດ	-6181
▁ຮຽນ	-6182
entai	-6183
oster	-6184
urity	-6185
ທິບາຍ	-6186
▁2500	-6187
▁Bước	-6188
▁Deut	-6189
▁HDPE	-6190
▁Jing	-6191
▁Phạm	-6192
▁Teen	-6193
▁Tháp	-6194
▁chim	-6195
▁giày	-6196
▁khảo	-6197
▁phức	-6198
▁sung	-6199
▁ໃຫຍ່	-6200
arinet	-6201
ລົງທຶນ	-6202
▁Media	-6203
▁Varic	-6204
▁Width	-6205
▁ngành	-6206
▁ngược	-6207
່ອງທ່ຽວ	-6208
▁Studio	-6209
▁online	-6210
▁ຮູ້ສຶກ	-6211
▁October	-6212
▁ຕາຕະລາງ	-6213
▁McKnight	-6214
▁solenoid	-6215
▁Changzhou	-6216
▁Generator	-6217
▁Varicella	-6218
);	-6219
57	-6220
AW	-6221
On	-6222
ih	-6223
nd	-6224
ía	-6225
ệm	-6226
KGS	-6227
UST	-6228
eal	-6229
hab	-6230
iki	-6231
lon	-6232
off	-6233
par	-6234
yan	-6235
ຊົມ	-6236
ດິນ	-6237
ີໂທ	-6238
ົ່ມ	-6239
່ຽງ	-6240
▁49	-6241
▁DI	-6242
▁Da	-6243
▁Kỹ	-6244
▁ms	-6245
▁nợ	-6246
▁px	-6247
▁★★	-6248
84.2	-6249
itor	-6250
oint	-6251
site	-6252
urga	-6253
ຄະເນ	-6254
▁(30	-6255
▁145	-6256
▁225	-6257
▁Bat	-6258
▁Bắt	-6259
▁Cắt	-6260
▁Dec	-6261
▁Det	-6262
▁Ele	-6263
▁Equ	-6264
▁Hàn	-6265
▁Rec	-6266
▁chở	-6267
▁lắm	-6268
▁lặp	-6269
▁mac	-6270
▁nho	-6271
▁vòi	-6272
▁đấy	-6273
▁ກອນ	-6274
▁ພໍ່	-6275
ERIES	-6276
ຢູ່ໃນ	-6277
ເຂັ້ມ	-6278
▁2008	-6279
▁Cert	-6280
▁Doll	-6281
▁Game	-6282
▁Shot	-6283
▁Show	-6284
▁Viet	-6285
▁mini	-6286
▁mệnh	-6287
▁thảm	-6288
ຕິດຕາມ	-6289
າດຄະເນ	-6290
ີ່ປຸ່ນ	-6291
ເຄື່ອນ	-6292
ໂຄງການ	-6293
▁3.2.1	-6294
▁Saint	-6295
▁chuộc	-6296
▁huyện	-6297
▁khoan	-6298
▁ເຮືອນ	-6299
,000.00	-6300
▁Cotton	-6301
▁Nguyen	-6302
▁nghiền	-6303
▁ການປົກ	-6304
▁ລາຍຊື່	-6305
▁Chicken	-6306
▁ຂັ້ນຕອນ	-6307
▁ຄໍາສັ່ງ	-6308
▁ເງິນຝາກ	-6309
▁ກອງປະຊຸມ	-6310
▁ສະແຕນເລດ	-6311
▁ສ້າງຕັ້ງ	-6312
▁Butterfly	-6313
ສະຫນັບສະຫນູນ	-6314
DC	-6315
Nm	-6316
TM	-6317
bu	-6318
fg	-6319
tn	-6320
ຣກ	-6321
ີຊ	-6322
ເຜ	-6323
ớt	-6324
-08	-6325
-09	-6326
.40	-6327
/12	-6328
4">	-6329
IVE	-6330
add	-6331
ele	-6332
ere	-6333
etr	-6334
ida	-6335
mmx	-6336
ran	-6337
urn	-6338
ສະຫ	-6339
ສາກ	-6340
ົ້ມ	-6341
▁3)	-6342
▁NW	-6343
▁Wi	-6344
▁hạ	-6345
▁pe	-6346
▁tủ	-6347
-311	-6348
aker	-6349
cean	-6350
ming	-6351
tion	-6352
unny	-6353
▁(12	-6354
▁(3,	-6355
▁188	-6356
▁5.5	-6357
▁Adv	-6358
▁CBD	-6359
▁Cnc	-6360
▁Die	-6361
▁Lợi	-6362
▁Rog	-6363
▁khe	-6364
▁vốn	-6365
▁ຄືນ	-6366
2.168	-6367
clone	-6368
ippie	-6369
iston	-6370
oress	-6371
ມໍເຕີ	-6372
▁ASTM	-6373
▁Bish	-6374
▁Call	-6375
▁Cord	-6376
▁Kies	-6377
▁Phúc	-6378
▁Taff	-6379
▁Vườn	-6380
▁Xuất	-6381
▁chín	-6382
▁loạn	-6383
▁mold	-6384
▁sông	-6385
▁tầng	-6386
ການຄ້າ	-6387
▁Excel	-6388
▁Metro	-6389
▁Strip	-6390
▁Theme	-6391
▁micro	-6392
▁ngừng	-6393
▁phóng	-6394
▁tuyết	-6395
▁ບັນຈຸ	-6396
ສະຫວ່າງ	-6397
▁Engine	-6398
▁Webcam	-6399
▁custom	-6400
▁nghiêm	-6401
▁plugin	-6402
▁ການຈັດ	-6403
.08.2018	-6404
ັກໂນໂລຊີ	-6405
▁3.2.160	-6406
▁Taffeta	-6407
▁ກັນນ້ໍາ	-6408
▁ປະເທດໄທ	-6409
ເພີ່ມເຕີມ	-6410
▁ການບັນຈຸ	-6411
▁Tailoress	-6412
▁ເພີ່ມເຕີມ	-6413
eyelashstore	-6414
▁ທີ່ຢູ່ເວັບໄຊທ໌	-6415
56	-6416
:.	-6417
AI	-6418
gn	-6419
za	-6420
ấc	-6421
▁;	-6422
-13	-6423
.90	-6424
/10	-6425
TER	-6426
ags	-6427
car	-6428
led	-6429
ດູດ	-6430
ຫລ່	-6431
▁(8	-6432
▁-1	-6433
▁Az	-6434
▁Ta	-6435
▁bl	-6436
▁br	-6437
▁sa	-6438
▁xả	-6439
anda	-6440
anta	-6441
illa	-6442
raft	-6443
điểm	-6444
ຂື້ນ	-6445
ລິກາ	-6446
ເກີດ	-6447
▁777	-6448
▁Emb	-6449
▁Hor	-6450
▁Lớp	-6451
▁Mil	-6452
▁Mới	-6453
▁Soc	-6454
▁Sợi	-6455
▁TKT	-6456
▁Vua	-6457
▁bar	-6458
▁già	-6459
▁kẹo	-6460
▁per	-6461
▁rửa	-6462
▁ຊອກ	-6463
▁ຍັງ	-6464
▁ລິດ	-6465
▁ຫລື	-6466
▁ອັນ	-6467
etter	-6468
ສະຖານ	-6469
ສົນໃຈ	-6470
ັກງານ	-6471
▁Cand	-6472
▁Cent	-6473
▁Nhóm	-6474
▁Phot	-6475
▁Ring	-6476
▁ngựa	-6477
▁nhạo	-6478
▁ຊ່ອງ	-6479
▁ຕື່ມ	-6480
▁ຕ່ໍາ	-6481
▁ໂຫລດ	-6482
Pieces	-6483
ເມລິກາ	-6484
▁Basel	-6485
▁Speed	-6486
▁chuột	-6487
▁nylon	-6488
▁xương	-6489
ຈໍາເພາະ	-6490
ວັດສະດຸ	-6491
▁Burner	-6492
▁Global	-6493
▁Office	-6494
▁2.6.4.1	-6495
▁Express	-6496
▁Village	-6497
▁ເຮັດໃຫ້	-6498
▁ລາຍລະອຽດ	-6499
▁ປະຫວັດສາດ	-6500
▁Meyelashstore	-6501
▁ຄ່າໃຊ້ຈ່າຍທັງ	-6502
03	-6503
53	-6504
OG	-6505
PM	-6506
UY	-6507
oe	-6508
ze	-6509
▁★	-6510
165	-6511
Mpa	-6512
day	-6513
vel	-6514
ຈອນ	-6515
ພວກ	-6516
ົາມ	-6517
▁87	-6518
▁ZH	-6519
▁ax	-6520
▁ຍາ	-6521
ktop	-6522
omas	-6523
pack	-6524
ping	-6525
ບ່ອນ	-6526
ອະນຸ	-6527
ະຊົນ	-6528
▁1.3	-6529
▁212	-6530
▁Aqu	-6531
▁Pot	-6532
▁Tay	-6533
▁bậc	-6534
▁dối	-6535
▁ráp	-6536
▁ກໍ່	-6537
▁ຍາວ	-6538
/2019	-6539
Tiếng	-6540
cheng	-6541
▁Fair	-6542
▁Fran	-6543
▁Gold	-6544
▁Link	-6545
▁Maxi	-6546
▁Ninj	-6547
▁Site	-6548
▁WIFI	-6549
▁back	-6550
▁hứng	-6551
▁lính	-6552
▁màng	-6553
▁nhấn	-6554
▁thuê	-6555
▁xong	-6556
ethane	-6557
intage	-6558
ipping	-6559
puchia	-6560
ຕາເວັນ	-6561
▁Adele	-6562
▁Count	-6563
▁piano	-6564
▁spark	-6565
▁trích	-6566
ຕົວຢ່າງ	-6567
▁Carton	-6568
▁Tagged	-6569
▁ອອກແບບ	-6570
▁ເດືອນມ	-6571
ອມພິວເຕີ	-6572
▁Patrick	-6573
▁Chemical	-6574
▁ລະຫັດທົວ	-6575
▁Campuchia	-6576
▁ຂໍ້ມູນເກມ	-6577
▁ຄົນອັບເດດ	-6578
▁3.2.16084.2	-6579
,2	-6580
/3	-6581
4.	-6582
AU	-6583
EX	-6584
Ex	-6585
GR	-6586
UV	-6587
YD	-6588
pc	-6589
ty	-6590
ùi	-6591
ẢN	-6592
.60	-6593
Các	-6594
aun	-6595
emb	-6596
por	-6597
spa	-6598
str	-6599
uro	-6600
ຂີ້	-6601
ຊີ້	-6602
ຊົງ	-6603
ດາວ	-6604
ນອກ	-6605
ບອກ	-6606
ວາວ	-6607
ຫມາ	-6608
ະສີ	-6609
ັກສ	-6610
ເຊຍ	-6611
ເອກ	-6612
່ວງ	-6613
▁AR	-6614
▁Ag	-6615
▁Ey	-6616
▁Fe	-6617
▁GU	-6618
▁HI	-6619
▁Im	-6620
▁Kg	-6621
▁Mẹ	-6622
▁NC	-6623
▁TY	-6624
▁le	-6625
▁Đi	-6626
▁ກູ	-6627
days	-6628
ient	-6629
rain	-6630
raph	-6631
tech	-6632
ການປ	-6633
ີຣົບ	-6634
ແກ້ວ	-6635
▁2.1	-6636
▁CAN	-6637
▁Góc	-6638
▁Gặp	-6639
▁Lab	-6640
▁Pil	-6641
▁Quy	-6642
▁cọc	-6643
▁lạm	-6644
▁ngã	-6645
▁ngũ	-6646
▁ປະກ	-6647
▁ອາຍ	-6648
▁ເຂດ	-6649
esser	-6650
usher	-6651
▁Apps	-6652
▁Book	-6653
▁Cash	-6654
▁Chai	-6655
▁Chắc	-6656
▁Chức	-6657
▁Hydr	-6658
▁Khai	-6659
▁Lòng	-6660
▁Phim	-6661
▁Ride	-6662
▁Vâng	-6663
▁Xanh	-6664
▁Xing	-6665
▁dừng	-6666
▁lỏng	-6667
▁răng	-6668
▁serv	-6669
▁thải	-6670
▁ກ້ອງ	-6671
▁ຊົ່ວ	-6672
▁ທົ່ວ	-6673
eboard	-6674
urgaon	-6675
ວິດີໂອ	-6676
ັງກະສີ	-6677
▁2019.	-6678
▁Cable	-6679
▁Cheng	-6680
▁Ocean	-6681
▁Thuốc	-6682
▁trưng	-6683
▁trống	-6684
▁ອັດຕາ	-6685
▁ອາກາດ	-6686
ກໍ່ສ້າງ	-6687
ສ່ວນຕົວ	-6688
▁Dresses	-6689
▁ຫວຽດນາມ	-6690
▁ຮູບເງົາ	-6691
ເກັບຮັກສາ	-6692
02	-6693
LA	-6694
LB	-6695
OM	-6696
fa	-6697
ki	-6698
oy	-6699
zo	-6700
ÂY	-6701
/01	-6702
003	-6703
can	-6704
fox	-6705
ica	-6706
ixi	-6707
oot	-6708
tle	-6709
ưỡi	-6710
ລໍ້	-6711
ອັດ	-6712
▁1)	-6713
▁71	-6714
▁Fu	-6715
▁GP	-6716
▁HG	-6717
▁JP	-6718
▁Mr	-6719
▁UP	-6720
▁Wu	-6721
▁lỗ	-6722
▁pl	-6723
▁tứ	-6724
▁xu	-6725
▁ຢາ	-6726
▁ແຈ	-6727
.0.3	-6728
acet	-6729
emon	-6730
iệng	-6731
odel	-6732
unch	-6733
ຖ່າຍ	-6734
ສະນີ	-6735
ັກຢາ	-6736
ໄຫລ່	-6737
▁20%	-6738
▁31,	-6739
▁ANS	-6740
▁Môn	-6741
▁Mùa	-6742
▁SAP	-6743
▁Trả	-6744
▁bếp	-6745
▁bọt	-6746
▁cốt	-6747
▁etc	-6748
▁giỏ	-6749
▁mưa	-6750
▁pro	-6751
▁sáo	-6752
▁đài	-6753
▁đốc	-6754
INGBO	-6755
eater	-6756
inder	-6757
izera	-6758
ophil	-6759
ution	-6760
ປະສົມ	-6761
ົນເອງ	-6762
▁Cant	-6763
▁Feed	-6764
▁Giai	-6765
▁Kosh	-6766
▁Marc	-6767
▁Mich	-6768
▁Prov	-6769
▁Size	-6770
▁TGGT	-6771
▁khát	-6772
▁ngăn	-6773
▁ການສ	-6774
▁ຫຼັກ	-6775
▁ແກ້ວ	-6776
▁★★★★	-6777
design	-6778
▁Metal	-6779
▁Multi	-6780
▁Peach	-6781
▁Shell	-6782
▁Thạch	-6783
▁dress	-6784
▁hover	-6785
▁phiền	-6786
▁trồng	-6787
▁vuông	-6788
▁ວັນທີ	-6789
Unthank	-6790
ສິ່ງທີ່	-6791
▁Galaxy	-6792
▁Pieces	-6793
▁Sensor	-6794
osterone	-6795
ະລູມິນຽມ	-6796
ເດັກນ້ອຍ	-6797
▁192.168	-6798
▁Jackpot	-6799
▁youjian	-6800
▁ເອກະສານ	-6801
▁ປະເທດຈີນ	-6802
▁ຊື່ຍີ່ຫໍ້	-6803
ເປັນສ່ວນຕົວ	-6804
▁ການຂົນສົ່ງ	-6805
▁ການພັດທະນາ	-6806
▁ແຫຼ່ງຂໍ້ມູນ	-6807
▁DavidUnthank	-6808
/-	-6809
Fi	-6810
]:	-6811
ÂU	-6812
ດູ	-6813
ນາ	-6814
-26	-6815
.70	-6816
7">	-6817
701	-6818
:06	-6819
LAN	-6820
MLE	-6821
Win	-6822
aul	-6823
bul	-6824
eve	-6825
ict	-6826
ili	-6827
pon	-6828
ref	-6829
unt	-6830
ປົວ	-6831
ລັບ	-6832
ີ້ນ	-6833
ຸ່ງ	-6834
ເຫດ	-6835
ແຫນ	-6836
▁62	-6837
▁DH	-6838
▁MD	-6839
▁Ne	-6840
▁UL	-6841
▁hè	-6842
▁lô	-6843
▁vĩ	-6844
▁ອຸ	-6845
▁ແຫ	-6846
Liên	-6847
ailb	-6848
char	-6849
face	-6850
ines	-6851
list	-6852
ning	-6853
ໍ້ໄຟ	-6854
▁(20	-6855
▁(40	-6856
▁304	-6857
▁Big	-6858
▁But	-6859
▁Ghi	-6860
▁Han	-6861
▁Hat	-6862
▁Hợp	-6863
▁Jul	-6864
▁Mid	-6865
▁Qua	-6866
▁Tim	-6867
▁cãi	-6868
▁gấp	-6869
▁leg	-6870
▁mài	-6871
▁pcs	-6872
▁Đến	-6873
▁ສາມ	-6874
annel	-6875
istan	-6876
ລະດັບ	-6877
ແຫນ້ນ	-6878
▁86-0	-6879
▁CÔNG	-6880
▁Form	-6881
▁Kiến	-6882
▁Lưới	-6883
▁Roll	-6884
▁Tele	-6885
▁Tiệc	-6886
▁card	-6887
▁ngàn	-6888
▁prot	-6889
▁đỉnh	-6890
▁ປ້າຍ	-6891
▁ຜ່ານ	-6892
ension	-6893
ilding	-6894
ormone	-6895
ຂະຫຍາຍ	-6896
ແທ້ຈິງ	-6897
▁Chain	-6898
▁Dương	-6899
▁Vương	-6900
ບໍ່ແມ່ນ	-6901
▁Cheats	-6902
▁Jizera	-6903
▁Nguyên	-6904
▁String	-6905
▁Tesser	-6906
▁ຄອບຄົວ	-6907
▁ໂຮງຮຽນ	-6908
ສະຫນາຈັກ	-6909
ເຂັ້ມແຂງ	-6910
▁ເຮັດວຽກ	-6911
▁Dongguan	-6912
▁Passport	-6913
▁Dedusting	-6914
▁ນັບຕັ້ງແຕ່	-6915
3-	-6916
4-	-6917
:1	-6918
AK	-6919
BF	-6920
Bộ	-6921
CI	-6922
CT	-6923
SH	-6924
dB	-6925
fs	-6926
lp	-6927
uo	-6928
ẫy	-6929
▁໌	-6930
Com	-6931
jin	-6932
lad	-6933
mar	-6934
obe	-6935
ove	-6936
ກະດ	-6937
ກະທ	-6938
ມໄຟ	-6939
ລາສ	-6940
ວົງ	-6941
້ວນ	-6942
ủng	-6943
▁91	-6944
▁96	-6945
▁Bh	-6946
▁JB	-6947
▁Lý	-6948
▁ON	-6949
▁dã	-6950
▁dò	-6951
▁hổ	-6952
▁ru	-6953
-300	-6954
.1.1	-6955
74-8	-6956
Book	-6957
avel	-6958
ello	-6959
ener	-6960
flex	-6961
olyp	-6962
port	-6963
ການທ	-6964
ອກາດ	-6965
▁1.8	-6966
▁APK	-6967
▁AUD	-6968
▁Acr	-6969
▁Cáp	-6970
▁ITS	-6971
▁Lot	-6972
▁Mọi	-6973
▁Pvc	-6974
▁Ske	-6975
▁TOP	-6976
▁War	-6977
▁chợ	-6978
▁lợp	-6979
▁mag	-6980
▁rob	-6981
▁trú	-6982
▁ຜິດ	-6983
▁ສົມ	-6984
▁ໂຄງ	-6985
▁ໂທຣ	-6986
Model	-6987
ORDER	-6988
alume	-6989
chiều	-6990
layer	-6991
odium	-6992
razil	-6993
xiang	-6994
ຍາຍາມ	-6995
ທີ່ເຄ	-6996
▁Bero	-6997
▁Bánh	-6998
▁Cann	-6999
▁Code	-7000
▁Giám	-7001
▁Hall	-7002
▁Prem	-7003
▁Spot	-7004
▁Toàn	-7005
▁chán	-7006
▁chép	-7007
▁chặt	-7008
▁chối	-7009
▁ninj	-7010
▁pump	-7011
▁treo	-7012
▁ປື້ມ	-7013
▁ເຈ້ຍ	-7014
ປະໂຫຍດ	-7015
▁Chống	-7016
▁Giống	-7017
▁KHÔNG	-7018
▁Print	-7019
▁Proxy	-7020
▁RideA	-7021
▁Sales	-7022
▁Vinyl	-7023
▁giọng	-7024
▁phiêu	-7025
▁super	-7026
▁★★★★★	-7027
jection	-7028
▁BORDER	-7029
▁Nghiên	-7030
▁Nickel	-7031
▁double	-7032
▁ແມ່ຍິງ	-7033
alvalume	-7034
▁Acrylic	-7035
▁Beroean	-7036
▁Gurgaon	-7037
▁Pickets	-7038
▁Scooter	-7039
▁Youtube	-7040
▁Province	-7041
ຮ້ອງສະຫມັກ	-7042
▁Tesseract	-7043
▁transposh	-7044
▁ການຄວບຄຸມ	-7045
▁ຄວາມສາມາດ	-7046
▁ເລືອກເອົາ	-7047
▁ຂະຫນາດບັນຈຸ	-7048
▁ຂໍ້ມູນຈໍາເພາະ	-7049
%)	-7050
08	-7051
CA	-7052
LS	-7053
NO	-7054
TD	-7055
TH	-7056
WG	-7057
ll	-7058
ສ້	-7059
ừu	-7060
.80	-7061
ala	-7062
aut	-7063
eel	-7064
ern	-7065
esc	-7066
jet	-7067
met	-7068
ums	-7069
urs	-7070
ãng	-7071
ດູນ	-7072
ທັນ	-7073
▁AD	-7074
▁Ax	-7075
▁CY	-7076
▁ES	-7077
▁HO	-7078
▁Kr	-7079
▁Ra	-7080
▁VI	-7081
▁dr	-7082
▁gỡ	-7083
▁tụ	-7084
▁vỡ	-7085
▁ຜະ	-7086
▁ແລ	-7087
▁≤0	-7088
arak	-7089
cast	-7090
onal	-7091
play	-7092
udio	-7093
ຜ່ອນ	-7094
ລັອກ	-7095
▁$1,	-7096
▁-40	-7097
▁6.0	-7098
▁APP	-7099
▁Apg	-7100
▁Buy	-7101
▁Dân	-7102
▁End	-7103
▁Hỏi	-7104
▁Jos	-7105
▁Nhờ	-7106
▁Phó	-7107
▁Put	-7108
▁Rom	-7109
▁Thử	-7110
▁Viv	-7111
▁kèm	-7112
▁lều	-7113
▁nắp	-7114
▁ລັງ	-7115
▁ສິນ	-7116
▁ແດງ	-7117
▁ໃສ່	-7118
12345	-7119
9001:	-7120
ກະທົບ	-7121
ການໂທ	-7122
ບນ້ໍາ	-7123
ປະຈໍາ	-7124
ພິເສດ	-7125
ັງຈາກ	-7126
ົວພັນ	-7127
▁1050	-7128
▁Buổi	-7129
▁Drop	-7130
▁Găng	-7131
▁Kính	-7132
▁Quay	-7133
▁RFID	-7134
▁Tong	-7135
▁Trip	-7136
▁Viện	-7137
▁Will	-7138
▁chai	-7139
▁dính	-7140
▁giấc	-7141
▁lặng	-7142
▁nàng	-7143
▁tags	-7144
▁tách	-7145
▁xinh	-7146
ທີ່ນີ້	-7147
ສໍາຄັນ	-7148
ອີເມລ໌	-7149
ແຮງດັນ	-7150
▁Organ	-7151
▁World	-7152
▁cheat	-7153
▁phanh	-7154
▁quyển	-7155
ຖືກຕ້ອງ	-7156
▁Canada	-7157
▁Canton	-7158
▁County	-7159
▁NINGBO	-7160
▁Review	-7161
▁Rooder	-7162
▁Tester	-7163
▁ກໍາລັງ	-7164
▁ພຣະອົງ	-7165
▁ພາກຮຽນ	-7166
▁ຫນ້າຈໍ	-7167
ateboard	-7168
ເຄື່ອງມື	-7169
▁printer	-7170
▁Skeleton	-7171
▁Connector	-7172
▁ລະດັບຄວາມ	-7173
ໂຮງງານຜະລິດ	-7174
/8	-7175
OH	-7176
RT	-7177
UP	-7178
Up	-7179
iq	-7180
mi	-7181
ni	-7182
oa	-7183
ແດ	-7184
-27	-7185
360	-7186
Des	-7187
ama	-7188
ima	-7189
ini	-7190
ouk	-7191
ulf	-7192
ຍົກ	-7193
ແມ່	-7194
່ວາ	-7195
▁DB	-7196
▁EC	-7197
▁Of	-7198
▁Py	-7199
▁Sy	-7200
▁cũ	-7201
▁mê	-7202
▁tị	-7203
▁vỏ	-7204
▁ໃຜ	-7205
ains	-7206
ally	-7207
ants	-7208
dong	-7209
iday	-7210
jing	-7211
ລະປະ	-7212
▁0.9	-7213
▁121	-7214
▁5.0	-7215
▁GBP	-7216
▁Hum	-7217
▁Kar	-7218
▁NEW	-7219
▁Tri	-7220
▁Tùy	-7221
▁VIP	-7222
▁Vir	-7223
▁acr	-7224
▁bãi	-7225
▁bìa	-7226
▁chó	-7227
▁coi	-7228
▁hẹn	-7229
▁len	-7230
▁mon	-7231
▁nhở	-7232
▁sôi	-7233
▁tàn	-7234
▁tốn	-7235
▁ທີມ	-7236
▁ບານ	-7237
▁ມົນ	-7238
▁ຫມາ	-7239
Shirt	-7240
entas	-7241
ision	-7242
pping	-7243
ropyl	-7244
ບັນຫາ	-7245
ສະອາດ	-7246
ເຫຼືອ	-7247
▁1080	-7248
▁Back	-7249
▁Ball	-7250
▁HBOT	-7251
▁Kids	-7252
▁Liệu	-7253
▁Nhấn	-7254
▁kiệm	-7255
▁mach	-7256
▁mỏng	-7257
▁trộn	-7258
▁ຂ້າງ	-7259
▁ຈ່າຍ	-7260
change	-7261
eather	-7262
ທີ່ເຄຍ	-7263
▁2018.	-7264
▁Hydro	-7265
▁Plate	-7266
▁Roger	-7267
▁phỏng	-7268
▁thoải	-7269
▁thăng	-7270
▁trùng	-7271
▁vương	-7272
▁ເພີ່ມ	-7273
ແຫ່ງຊາດ	-7274
ໃຫ້ເຫັນ	-7275
▁Motors	-7276
▁Plasma	-7277
▁ເຊື່ອມ	-7278
▁Ceramic	-7279
▁Cuentas	-7280
▁Flatbed	-7281
▁ຊົ່ວໂມງ	-7282
▁Electron	-7283
▁ຜູ້ສະຫນອງ	-7284
▁ໂທຣຫາພວກເຮົາ	-7285
AE	-7286
NC	-7287
PO	-7288
Sp	-7289
ຂໍ	-7290
າຊ	-7291
”,	-7292
▁Ư	-7293
-55	-7294
-70	-7295
302	-7296
307	-7297
4.5	-7298
Jar	-7299
acy	-7300
ani	-7301
ham	-7302
jon	-7303
ple	-7304
umm	-7305
ຂຽວ	-7306
ຈັນ	-7307
ບາງ	-7308
ຜິວ	-7309
ລິນ	-7310
ສາມ	-7311
ເມນ	-7312
ແຂນ	-7313
ແປດ	-7314
ແຮງ	-7315
▁EM	-7316
▁HY	-7317
▁He	-7318
▁Lễ	-7319
▁So	-7320
▁Vị	-7321
▁mì	-7322
▁ໄພ	-7323
abin	-7324
acqu	-7325
arat	-7326
case	-7327
enue	-7328
ield	-7329
qiao	-7330
ກ່ອງ	-7331
ຽງໄຮ	-7332
ເຕັມ	-7333
▁(11	-7334
▁Bút	-7335
▁Bốn	-7336
▁Căn	-7337
▁Eva	-7338
▁Gar	-7339
▁Lạc	-7340
▁MAC	-7341
▁Rem	-7342
▁Roy	-7343
▁TCP	-7344
▁Vol	-7345
▁WPC	-7346
▁apk	-7347
▁bit	-7348
▁cẩn	-7349
▁dán	-7350
▁gặt	-7351
▁mét	-7352
▁Đàn	-7353
▁Đúc	-7354
▁đúp	-7355
▁ຍານ	-7356
▁ທຽນ	-7357
▁ສາດ	-7358
▁ໂມງ	-7359
-1500	-7360
.2013	-7361
iller	-7362
obile	-7363
ublic	-7364
ນະສົມ	-7365
ພາຍໃນ	-7366
ເດືອນ	-7367
ເວົ້າ	-7368
▁Bulk	-7369
▁Cixi	-7370
▁Down	-7371
▁Iron	-7372
▁Mail	-7373
▁Penn	-7374
▁Plug	-7375
▁Priv	-7376
▁Tang	-7377
▁Wood	-7378
▁huấn	-7379
▁lùng	-7380
▁ngân	-7381
▁nhãn	-7382
▁type	-7383
▁ຕ້ານ	-7384
▁ປຸ່ມ	-7385
▁ຫມູ່	-7386
enturi	-7387
ilicon	-7388
ພົວພັນ	-7389
ິ່ນປົວ	-7390
▁Azure	-7391
▁House	-7392
▁Photo	-7393
▁State	-7394
▁Trans	-7395
▁Tread	-7396
▁giành	-7397
▁hoàng	-7398
▁sướng	-7399
▁tuyển	-7400
▁ເບີໂທ	-7401
ຂອງຂ້ອຍ	-7402
ຕັ້ງຄ່າ	-7403
▁Camera	-7404
▁Flight	-7405
ນະສົມບັດ	-7406
ມາດຕະຖານ	-7407
▁Bowflex	-7408
▁Display	-7409
▁Lyophil	-7410
▁Package	-7411
▁Vintage	-7412
▁acrylic	-7413
▁ເອກະຊົນ	-7414
▁Pressure	-7415
▁ຊອບແວທີ່	-7416
ອຸດສາຫະກໍາ	-7417
ໃນປັດຈຸບັນ	-7418
▁ເຄື່ອງຈັກ	-7419
▁ເຕັກໂນໂລຊີ	-7420
▁Lyophilized	-7421
▁ຈີນຜູ້ຜະລິດ	-7422
6"	-7423
6*	-7424
AB	-7425
MI	-7426
UL	-7427
XD	-7428
ho	-7429
hr	-7430
iu	-7431
ta	-7432
ຕໍ	-7433
ວະ	-7434
ັສ	-7435
ủa	-7436
——	-7437
,50	-7438
128	-7439
134	-7440
700	-7441
990	-7442
="6	-7443
For	-7444
ibr	-7445
ita	-7446
ito	-7447
put	-7448
rad	-7449
sen	-7450
tim	-7451
win	-7452
ກ້າ	-7453
ຄວນ	-7454
ຈັບ	-7455
ຈຸດ	-7456
ບົດ	-7457
ສວນ	-7458
ອງໂ	-7459
ິ້ງ	-7460
ົ້ວ	-7461
ແນນ	-7462
ແອວ	-7463
ໂພກ	-7464
▁#4	-7465
▁$4	-7466
▁(9	-7467
▁4)	-7468
▁84	-7469
▁93	-7470
▁CJ	-7471
▁DA	-7472
▁EP	-7473
▁Ev	-7474
▁II	-7475
▁Vi	-7476
▁cờ	-7477
▁nô	-7478
▁sk	-7479
▁tờ	-7480
▁ưa	-7481
▁ປາ	-7482
▁ໂດ	-7483
▁ໂຕ	-7484
-150	-7485
-500	-7486
1390	-7487
6113	-7488
Slot	-7489
Time	-7490
edia	-7491
isha	-7492
mark	-7493
ones	-7494
ovel	-7495
ນັ່ງ	-7496
ວິທີ	-7497
ແຫ້ງ	-7498
ໄຮໂດ	-7499
▁(18	-7500
▁(50	-7501
▁50%	-7502
▁Cou	-7503
▁Dev	-7504
▁Feb	-7505
▁Gem	-7506
▁Hủy	-7507
▁Kaw	-7508
▁Kem	-7509
▁Khe	-7510
▁MIU	-7511
▁Pad	-7512
▁VPN	-7513
▁Vận	-7514
▁bữa	-7515
▁equ	-7516
▁leo	-7517
▁lộn	-7518
▁noi	-7519
▁rắn	-7520
▁rỗi	-7521
▁tạm	-7522
▁Ánh	-7523
▁ຊັບ	-7524
▁ເລກ	-7525
ected	-7526
enger	-7527
stone	-7528
ຫນຶ່ງ	-7529
ເຮືອນ	-7530
▁....	-7531
▁0.01	-7532
▁1100	-7533
▁1400	-7534
▁ANSI	-7535
▁CSGO	-7536
▁Chen	-7537
▁Clip	-7538
▁Coun	-7539
▁Mand	-7540
▁Mart	-7541
▁Mass	-7542
▁Spin	-7543
▁Tran	-7544
▁soạn	-7545
▁thói	-7546
▁thầu	-7547
▁thừa	-7548
▁trấn	-7549
▁tươi	-7550
▁wind	-7551
▁ປ້ອງ	-7552
▁ຮ້ານ	-7553
▁ເທິງ	-7554
ection	-7555
ifunct	-7556
orrent	-7557
ຈໍາກັດ	-7558
ຊີ້ວັດ	-7559
▁Class	-7560
▁Cryst	-7561
▁Doanh	-7562
▁Frank	-7563
▁Mater	-7564
▁North	-7565
▁Pilon	-7566
▁Promo	-7567
▁Smith	-7568
▁Tường	-7569
▁USMLE	-7570
▁Views	-7571
▁cajon	-7572
▁khủng	-7573
▁ກາຕູນ	-7574
itioner	-7575
ລະຫວ່າງ	-7576
ອະນຸຍາດ	-7577
▁Avenue	-7578
▁Brazil	-7579
▁Island	-7580
▁Valent	-7581
▁ອະໄຫລ່	-7582
▁ອິນເດຍ	-7583
iqdesign	-7584
▁Company	-7585
▁Cyclone	-7586
▁SlotJar	-7587
▁tattoos	-7588
▁ສະຊອບແວ	-7589
▁Exchange	-7590
▁ທໍາມະຊາດ	-7591
▁ປະສົບການ	-7592
▁Injection	-7593
▁ໂດຍທົ່ວໄປ	-7594
refinecolor	-7595
▁ການຄາດຄະເນ	-7596
▁2.6.4.16113	-7597
▁Instrumental	-7598
▁ການຊໍາລະເງິນ	-7599
▁ຕິດຕໍ່ພວກເຮົາ	-7600
Ar	-7601
LD	-7602
PR	-7603
mq	-7604
nb	-7605
sy	-7606
uc	-7607
ùm	-7608
▁າ	-7609
▁ໆ	-7610
▁ໍ	-7611
-36	-7612
112	-7613
232	-7614
ERY	-7615
Máy	-7616
ety	-7617
gin	-7618
ild	-7619
ona	-7620
rpm	-7621
ule	-7622
uộm	-7623
wen	-7624
yds	-7625
ຫມີ	-7626
ເທີ	-7627
ແຜນ	-7628
▁89	-7629
▁=>	-7630
▁SI	-7631
▁XU	-7632
▁ZY	-7633
▁tà	-7634
▁ແຟ	-7635
="10	-7636
ONDA	-7637
acen	-7638
ebob	-7639
enna	-7640
isco	-7641
izza	-7642
xbet	-7643
ນິທິ	-7644
ວນີ້	-7645
ະນິດ	-7646
ເຄມີ	-7647
ໄຟລ໌	-7648
▁(36	-7649
▁+/-	-7650
▁0.7	-7651
▁11.	-7652
▁139	-7653
▁218	-7654
▁420	-7655
▁Ave	-7656
▁Bus	-7657
▁Cây	-7658
▁Del	-7659
▁Fit	-7660
▁Hou	-7661
▁Jai	-7662
▁Lat	-7663
▁Lee	-7664
▁Leg	-7665
▁Mas	-7666
▁Mer	-7667
▁Nơi	-7668
▁RSS	-7669
▁Run	-7670
▁Rất	-7671
▁Sle	-7672
▁Syn	-7673
▁Tit	-7674
▁Tor	-7675
▁Vân	-7676
▁giơ	-7677
▁hái	-7678
▁lin	-7679
▁mãn	-7680
▁sót	-7681
▁zlp	-7682
▁đốt	-7683
▁đồi	-7684
▁ທອງ	-7685
▁ພົບ	-7686
▁ວາງ	-7687
▁ເຫລ	-7688
▁ເອງ	-7689
▁ແຮງ	-7690
Point	-7691
amber	-7692
asaki	-7693
axoph	-7694
sting	-7695
ກະບອກ	-7696
ປະມານ	-7697
ແຫນ່ງ	-7698
▁0.00	-7699
▁6063	-7700
▁Bull	-7701
▁Diễn	-7702
▁Edge	-7703
▁File	-7704
▁Jiao	-7705
▁Nhấp	-7706
▁Rich	-7707
▁Sáng	-7708
▁TGJS	-7709
▁West	-7710
▁Xiao	-7711
▁Xuân	-7712
▁cưới	-7713
▁khen	-7714
▁lồng	-7715
▁Điển	-7716
▁ກ່ອນ	-7717
▁ງ່າຍ	-7718
▁ທ້າຍ	-7719
▁ນໍ້າ	-7720
▁ປ່ອຍ	-7721
▁ເກີດ	-7722
▁ເຄືອ	-7723
eptide	-7724
ບ່ງປັນ	-7725
ອັນດັບ	-7726
▁Color	-7727
▁Money	-7728
▁Robot	-7729
▁Sound	-7730
▁chủng	-7731
▁ຕ່າງໆ	-7732
▁ໂມດູນ	-7733
acquard	-7734
ongebob	-7735
ເງິນຂອງ	-7736
ໍາແຫນ່ງ	-7737
▁Chuyên	-7738
▁Hippie	-7739
▁Huawei	-7740
▁Joseph	-7741
▁Magnet	-7742
▁Marcie	-7743
▁Pallet	-7744
▁SERIES	-7745
▁oxford	-7746
▁ສໍາຄັນ	-7747
.07.2018	-7748
ailbreak	-7749
axophone	-7750
essenger	-7751
▁Premium	-7752
▁Resorts	-7753
▁Saracen	-7754
▁Trading	-7755
▁ຄວາມຖີ່	-7756
ເລີ່ມຕົ້ນ	-7757
▁86-755-2	-7758
▁Fittings	-7759
▁ການຕິດຕັ້ງ	-7760
▁ຄວາມຫນາແຫນ້ນ	-7761
",	-7762
',	-7763
AF	-7764
HC	-7765
MB	-7766
ti	-7767
ÁY	-7768
ກ້	-7769
-5)	-7770
118	-7771
260	-7772
30,	-7773
949	-7774
EAT	-7775
exe	-7776
rol	-7777
uff	-7778
vas	-7779
ưởi	-7780
ຕູ້	-7781
ພັບ	-7782
ຟອມ	-7783
ສົດ	-7784
ຸຂະ	-7785
ເກດ	-7786
▁CW	-7787
▁DV	-7788
▁JS	-7789
▁JT	-7790
▁MY	-7791
▁SJ	-7792
▁Vợ	-7793
▁ar	-7794
▁or	-7795
▁sn	-7796
▁ໂຊ	-7797
▁ໄຂ	-7798
2000	-7799
Kelo	-7800
abol	-7801
acle	-7802
flon	-7803
hong	-7804
lymp	-7805
utor	-7806
wind	-7807
ຫນົດ	-7808
ຫລາຍ	-7809
ຫົ່ມ	-7810
ະນຸດ	-7811
ເລັກ	-7812
ເຮົາ	-7813
ໂຫຼດ	-7814
▁(15	-7815
▁(51	-7816
▁175	-7817
▁195	-7818
▁2.3	-7819
▁2.4	-7820
▁2.8	-7821
▁205	-7822
▁330	-7823
▁574	-7824
▁630	-7825
▁7.5	-7826
▁Bab	-7827
▁Bãi	-7828
▁Chó	-7829
▁DRK	-7830
▁Hel	-7831
▁Nan	-7832
▁Ros	-7833
▁Ton	-7834
▁bọc	-7835
▁cừu	-7836
▁dis	-7837
▁dâm	-7838
▁dập	-7839
▁huy	-7840
▁môn	-7841
▁mùi	-7842
▁mắn	-7843
▁quỉ	-7844
▁sen	-7845
▁tần	-7846
▁vây	-7847
▁vẹn	-7848
▁xóm	-7849
▁đeo	-7850
▁ຈອງ	-7851
▁ດັບ	-7852
▁ລົມ	-7853
▁ສອນ	-7854
▁ສະຖ	-7855
-1000	-7856
.2019	-7857
/2018	-7858
amine	-7859
apter	-7860
aulic	-7861
falls	-7862
ongee	-7863
ບາຍດີ	-7864
ສະຕິກ	-7865
ໍາລອງ	-7866
▁CANN	-7867
▁ITIL	-7868
▁Ninh	-7869
▁Teng	-7870
▁Truy	-7871
▁With	-7872
▁chạm	-7873
▁giặt	-7874
▁hand	-7875
▁hằng	-7876
▁nghề	-7877
▁phẫu	-7878
▁tiềm	-7879
▁tịnh	-7880
▁viễn	-7881
▁xoắn	-7882
▁điệu	-7883
▁ກິລາ	-7884
ທົນທານ	-7885
ແລະການ	-7886
▁2019,	-7887
▁7.4.7	-7888
▁Enter	-7889
▁Girls	-7890
▁Horiz	-7891
▁Istan	-7892
▁Olymp	-7893
▁Shirt	-7894
▁Sihan	-7895
▁chừng	-7896
▁nhuộm	-7897
▁ປະທານ	-7898
▁ອາຄານ	-7899
▁ແກ້ໄຂ	-7900
ດໍາເນີນ	-7901
▁ComPro	-7902
▁Geocon	-7903
▁Letter	-7904
▁Odisha	-7905
▁Piston	-7906
▁Shovel	-7907
▁Spring	-7908
▁Thomas	-7909
▁hentai	-7910
▁nghiện	-7911
▁pallet	-7912
▁Limited	-7913
▁Trailer	-7914
▁ພັດທະນາ	-7915
▁Istanbul	-7916
▁Kawasaki	-7917
▁SoftKelo	-7918
ຂະຫນາດໃຫຍ່	-7919
ໃຫ້ພວກເຮົາ	-7920
▁Marketing	-7921
▁Mountains	-7922
▁ຕົວຊີ້ວັດ	-7923
ທີ່ດີທີ່ສຸດ	-7924
ເງິນຂອງບັນທຶກ	-7925
De	-7926
HP	-7927
KV	-7928
RA	-7929
ci	-7930
js	-7931
yb	-7932
ຍກ	-7933
ພູ	-7934
ộm	-7935
---	-7936
136	-7937
170	-7938
235	-7939
240	-7940
410	-7941
?”.	-7942
Box	-7943
aga	-7944
axi	-7945
bao	-7946
eek	-7947
men	-7948
row	-7949
tek	-7950
tám	-7951
yle	-7952
ກຸນ	-7953
ດອກ	-7954
ທັບ	-7955
ພົບ	-7956
ຢາກ	-7957
ສູບ	-7958
ເຊລ	-7959
ເວນ	-7960
ỗng	-7961
▁$1	-7962
▁(+	-7963
▁(7	-7964
▁5)	-7965
▁94	-7966
▁gà	-7967
▁vẽ	-7968
▁Đa	-7969
▁Đề	-7970
▁ຕໍ	-7971
7574	-7972
airs	-7973
aver	-7974
iler	-7975
ngth	-7976
ຕລາຍ	-7977
ນຸ່ງ	-7978
ຫຍັດ	-7979
ຫນັງ	-7980
ແລະສ	-7981
▁000	-7982
▁128	-7983
▁14:	-7984
▁15%	-7985
▁15:	-7986
▁16:	-7987
▁185	-7988
▁365	-7989
▁8.9	-7990
▁Cái	-7991
▁Ess	-7992
▁Fax	-7993
▁Jog	-7994
▁Jun	-7995
▁Ken	-7996
▁Lor	-7997
▁Mem	-7998
▁Nhĩ	-7999
▁Sep	-8000
▁She	-8001
▁Sok	-8002
▁Tel	-8003
▁Trở	-8004
▁Tối	-8005
▁Wol	-8006
▁ham	-8007
▁hào	-8008
▁lam	-8009
▁lốp	-8010
▁men	-8011
▁sấy	-8012
▁đói	-8013
▁ຂັບ	-8014
▁ດຽວ	-8015
▁ຟັງ	-8016
▁ຫັດ	-8017
▁ເມວ	-8018
▁ໂຣກ	-8019
actor	-8020
apore	-8021
embly	-8022
erved	-8023
eware	-8024
iness	-8025
olley	-8026
ridge	-8027
ຕ່ອງໂ	-8028
▁Bank	-8029
▁Demo	-8030
▁From	-8031
▁HÀNG	-8032
▁Join	-8033
▁Over	-8034
▁Patt	-8035
▁Volt	-8036
▁Wave	-8037
▁Yang	-8038
▁axit	-8039
▁bass	-8040
▁giấu	-8041
▁matt	-8042
▁ninh	-8043
▁trộm	-8044
▁ກູໂກ	-8045
▁ຢ່າລ	-8046
▁ຫນູນ	-8047
▁ເຕົາ	-8048
▁ເຢັນ	-8049
▁ແຂວງ	-8050
angers	-8051
iverse	-8052
yptocr	-8053
ຈໍາລອງ	-8054
ຸຂະພາບ	-8055
▁Artie	-8056
▁Block	-8057
▁Grade	-8058
▁Music	-8059
▁Phong	-8060
▁Screw	-8061
▁Sheng	-8062
▁Trade	-8063
▁Ultra	-8064
▁XNUMX	-8065
▁duyệt	-8066
▁huyết	-8067
▁insul	-8068
ຕ່ອງໂສ້	-8069
ພຣະຄຣິດ	-8070
ອັນຕລາຍ	-8071
ະນັກງານ	-8072
▁86-755	-8073
▁Candle	-8074
▁Jacket	-8075
▁Jaishi	-8076
▁Pongee	-8077
▁Zipper	-8078
▁carbon	-8079
▁truyện	-8080
ropylene	-8081
ຄຸນນະພາບ	-8082
▁Control	-8083
▁Desktop	-8084
▁Eyelash	-8085
▁ຂາຍສົ່ງ	-8086
▁ທຸລະກິດ	-8087
▁ນ້ໍາມັນ	-8088
▁Solenoid	-8089
▁download	-8090
▁ການແກ້ໄຂ	-8091
▁Songjiang	-8092
▁ທ່ານສາມາດ	-8093
▁Production	-8094
▁ຄຸນນະສົມບັດ	-8095
▁ນ້ໍາຫນັກຂອງ	-8096
▁ວິທະຍາໄລຂອງ	-8097
!”	-8098
8"	-8099
Co	-8100
DE	-8101
GL	-8102
GN	-8103
HH	-8104
PT	-8105
RI	-8106
íp	-8107
ຂາ	-8108
ນ້	-8109
ວ່	-8110
ẢI	-8111
ằn	-8112
ỡi	-8113
”?	-8114
-35	-8115
.25	-8116
122	-8117
2">	-8118
99€	-8119
ART	-8120
ITE	-8121
SPY	-8122
for	-8123
mil	-8124
ກູ້	-8125
ຍືດ	-8126
ພີກ	-8127
ສັບ	-8128
ຫາກ	-8129
ຫີນ	-8130
ແຕກ	-8131
▁#7	-8132
▁77	-8133
▁CU	-8134
▁GD	-8135
▁KI	-8136
▁LR	-8137
▁LS	-8138
▁PO	-8139
▁SW	-8140
▁Ub	-8141
▁bo	-8142
▁bờ	-8143
▁cỏ	-8144
▁lũ	-8145
▁mu	-8146
▁mờ	-8147
▁nổ	-8148
▁om	-8149
▁ro	-8150
▁tú	-8151
▁ໄຊ	-8152
ides	-8153
oung	-8154
ward	-8155
ຄ້າຍ	-8156
ລ້ອມ	-8157
ອາຍຸ	-8158
ື້ອຍ	-8159
ົ່ານ	-8160
ເນີດ	-8161
ເມີນ	-8162
ແກັສ	-8163
້ວາງ	-8164
▁(33	-8165
▁186	-8166
▁260	-8167
▁760	-8168
▁Chế	-8169
▁Dut	-8170
▁Gần	-8171
▁KYD	-8172
▁LAS	-8173
▁Lap	-8174
▁Lay	-8175
▁Lev	-8176
▁Los	-8177
▁PJS	-8178
▁SMD	-8179
▁Thổ	-8180
▁Toy	-8181
▁Trẻ	-8182
▁XML	-8183
▁XPE	-8184
▁Yin	-8185
▁dọc	-8186
▁gọn	-8187
▁lad	-8188
▁nêu	-8189
▁nảy	-8190
▁thả	-8191
▁đãi	-8192
▁ງາມ	-8193
▁ຍິງ	-8194
▁ດອກ	-8195
▁ອີກ	-8196
/2016	-8197
Tháng	-8198
adise	-8199
aging	-8200
aking	-8201
ality	-8202
osite	-8203
ກປ່ຽນ	-8204
ກໍາມະ	-8205
ທີ່ດີ	-8206
ເລເຊີ	-8207
▁Bóng	-8208
▁Dưới	-8209
▁Hiển	-8210
▁Land	-8211
▁Make	-8212
▁Note	-8213
▁Phật	-8214
▁Pipe	-8215
▁Qing	-8216
▁Rose	-8217
▁Siêu	-8218
▁Stan	-8219
▁Time	-8220
▁Tinh	-8221
▁Type	-8222
▁chat	-8223
▁chìm	-8224
▁comp	-8225
▁ghép	-8226
▁hiến	-8227
▁khía	-8228
▁khải	-8229
▁kịch	-8230
▁ngon	-8231
▁ngẫu	-8232
▁ngọt	-8233
▁thảy	-8234
▁thỏa	-8235
▁tiếc	-8236
▁ກ່າວ	-8237
▁ຄັ້ງ	-8238
▁ຫນັບ	-8239
▁ເຕັມ	-8240
▁≤200	-8241
edding	-8242
iscuss	-8243
online	-8244
ubarak	-8245
umatic	-8246
ພີກເຊລ	-8247
ອກນ້ໍາ	-8248
ໍລະກົດ	-8249
▁Admin	-8250
▁Brass	-8251
▁Khark	-8252
▁Linen	-8253
▁Mixer	-8254
▁Study	-8255
▁hydro	-8256
▁pixel	-8257
▁robot	-8258
▁ພາຍໃນ	-8259
▁ໂຄມໄຟ	-8260
ຄວາມຄິດ	-8261
▁Truyền	-8262
▁Trưởng	-8263
▁Turkey	-8264
▁ກວດສອບ	-8265
▁ລາຍການ	-8266
▁ໂຮງແຮມ	-8267
▁Bearing	-8268
▁Channel	-8269
▁Impulse	-8270
▁Molding	-8271
▁ການບໍລິ	-8272
▁ຂອງທ່ານ	-8273
▁ສະບາຍດີ	-8274
▁ສັງກະສີ	-8275
▁Paradise	-8276
▁Sihanouk	-8277
▁Supplier	-8278
▁Whatsapp	-8279
▁clarinet	-8280
▁container	-8281
▁ຄອມພິວເຕີ	-8282
▁ການກໍ່ສ້າງ	-8283
▁ປະສິດທິພາບ	-8284
▁ການຝຶກອົບຮົມ	-8285
▁ສູງສຸດທີ່ເຄຍ	-8286
04	-8287
Dr	-8288
LM	-8289
OX	-8290
Or	-8291
To	-8292
di	-8293
me	-8294
my	-8295
pt	-8296
sa	-8297
tụ	-8298
ໄມ	-8299
ໍກ	-8300
ẻo	-8301
-29	-8302
-45	-8303
.04	-8304
.16	-8305
/60	-8306
1.0	-8307
140	-8308
230	-8309
310	-8310
801	-8311
888	-8312
:51	-8313
AND	-8314
EST	-8315
IAN	-8316
IDE	-8317
atr	-8318
ced	-8319
fer	-8320
irc	-8321
kok	-8322
ຈິດ	-8323
ຍາກ	-8324
ນອນ	-8325
ືອດ	-8326
ເຂດ	-8327
ỳnh	-8328
▁*)	-8329
▁IC	-8330
▁MC	-8331
▁Mo	-8332
▁NZ	-8333
▁Ol	-8334
▁Tế	-8335
▁XS	-8336
▁YJ	-8337
▁Yi	-8338
▁Yu	-8339
▁mg	-8340
▁op	-8341
OTOR	-8342
Site	-8343
aven	-8344
chen	-8345
gang	-8346
idge	-8347
iles	-8348
item	-8349
rist	-8350
ural	-8351
ກ່ວາ	-8352
ຢ້ຽມ	-8353
ະສາດ	-8354
່ນອນ	-8355
▁(86	-8356
▁1-2	-8357
▁122	-8358
▁480	-8359
▁Bel	-8360
▁CAD	-8361
▁Chí	-8362
▁DNS	-8363
▁Get	-8364
▁Gun	-8365
▁HCL	-8366
▁Ham	-8367
▁Laz	-8368
▁Lựa	-8369
▁MUM	-8370
▁Mov	-8371
▁Quá	-8372
▁Quỹ	-8373
▁Rab	-8374
▁Tex	-8375
▁Tuỳ	-8376
▁Xăm	-8377
▁Yes	-8378
▁bug	-8379
▁cat	-8380
▁chì	-8381
▁dịp	-8382
▁hàm	-8383
▁nit	-8384
▁non	-8385
▁ren	-8386
▁rou	-8387
▁str	-8388
▁sub	-8389
▁sưu	-8390
▁túc	-8391
▁đáy	-8392
▁ກອບ	-8393
▁ຊອບ	-8394
▁ຊີ້	-8395
▁ດັດ	-8396
▁ໄວ້	-8397
-2000	-8398
ersey	-8399
etate	-8400
imate	-8401
prise	-8402
uting	-8403
ຕ່າງໆ	-8404
ລົດໄຟ	-8405
ວັນທີ	-8406
ື່ສານ	-8407
ຽວນີ້	-8408
ເປືອກ	-8409
▁0.05	-8410
▁3500	-8411
▁9001	-8412
▁APEC	-8413
▁Amer	-8414
▁Belt	-8415
▁Biểu	-8416
▁Bệnh	-8417
▁Cond	-8418
▁Dung	-8419
▁Flow	-8420
▁Gall	-8421
▁Hero	-8422
▁Kate	-8423
▁Khác	-8424
▁Paul	-8425
▁Prec	-8426
▁Shar	-8427
▁Solo	-8428
▁Viết	-8429
▁Wtám	-8430
▁alto	-8431
▁găng	-8432
▁Đúng	-8433
▁ປະຕິ	-8434
▁ຫມາກ	-8435
▁ຫລັງ	-8436
▁ແທ້ໆ	-8437
Online	-8438
amping	-8439
ຄ້າຍຄື	-8440
ອັງກິດ	-8441
ຮັບຮອງ	-8442
ເລື່ອງ	-8443
▁Graph	-8444
▁Share	-8445
▁White	-8446
▁huống	-8447
▁miệng	-8448
▁ຂ້າພະ	-8449
▁ປະກາດ	-8450
▁ມໍເຕີ	-8451
readbag	-8452
▁Hoster	-8453
▁Orange	-8454
▁ການຕໍ່	-8455
▁ຜູ້ຊາຍ	-8456
▁ຢ່າລືມ	-8457
ethylene	-8458
ຊົງກະບອກ	-8459
ທ່ອງທ່ຽວ	-8460
ສູ່ລະບົບ	-8461
▁Crystal	-8462
▁Service	-8463
▁Spotify	-8464
▁ທໍາມະດາ	-8465
▁ຫ້ອງການ	-8466
▁Training	-8467
▁passport	-8468
▁Coinfalls	-8469
▁protected	-8470
▁ລະຫັດສິນຄ້າ	-8471
▁ສະແດງໃຫ້ເຫັນ	-8472
▁ສ້າງຕັ້ງຂຶ້ນ	-8473
▁ຄໍາຮ້ອງສະຫມັກ	-8474
/7	-8475
09	-8476
AA	-8477
AO	-8478
EI	-8479
TP	-8480
dg	-8481
kt	-8482
ຕ໌	-8483
ຣດ	-8484
-57	-8485
.23	-8486
002	-8487
102	-8488
99%	-8489
AME	-8490
BET	-8491
Cle	-8492
EEL	-8493
ERS	-8494
GHT	-8495
SQL	-8496
Tin	-8497
don	-8498
hen	-8499
new	-8500
odi	-8501
oga	-8502
urb	-8503
wug	-8504
đun	-8505
ຊິກ	-8506
ຍລະ	-8507
ຍົນ	-8508
ຕິດ	-8509
ບອນ	-8510
ລີ່	-8511
ອີ້	-8512
ິ້ມ	-8513
ູ້ນ	-8514
ເກງ	-8515
ໂພງ	-8516
ໄກ່	-8517
້າມ	-8518
▁#,	-8519
▁97	-8520
▁CL	-8521
▁CM	-8522
▁CV	-8523
▁CẢ	-8524
▁EV	-8525
▁Je	-8526
▁Ms	-8527
▁PT	-8528
▁SC	-8529
▁TC	-8530
▁be	-8531
▁gr	-8532
▁no	-8533
▁pu	-8534
▁sm	-8535
▁vá	-8536
▁ຫະ	-8537
▁ແພ	-8538
▁ồn	-8539
andr	-8540
ette	-8541
http	-8542
igin	-8543
ison	-8544
ites	-8545
leti	-8546
ngày	-8547
qing	-8548
rine	-8549
thon	-8550
ຊັ່ນ	-8551
ມະເລ	-8552
ເຄີຍ	-8553
▁$50	-8554
▁(17	-8555
▁1/2	-8556
▁21:	-8557
▁3.1	-8558
▁686	-8559
▁Bos	-8560
▁CIS	-8561
▁Den	-8562
▁Dry	-8563
▁Exp	-8564
▁GIÁ	-8565
▁Huệ	-8566
▁Ign	-8567
▁Jum	-8568
▁Lần	-8569
▁Lập	-8570
▁Men	-8571
▁MÁY	-8572
▁Quê	-8573
▁TIN	-8574
▁Tom	-8575
▁Tần	-8576
▁báu	-8577
▁bọn	-8578
▁chà	-8579
▁col	-8580
▁cột	-8581
▁dọn	-8582
▁gợi	-8583
▁jet	-8584
▁kín	-8585
▁lau	-8586
▁sắm	-8587
▁ກາຍ	-8588
▁ຄາວ	-8589
▁ຈັກ	-8590
▁ດໍາ	-8591
▁ນາຍ	-8592
▁ມຸມ	-8593
▁ເທດ	-8594
Quick	-8595
ative	-8596
email	-8597
inton	-8598
otion	-8599
wugas	-8600
ອີເມວ	-8601
▁Alex	-8602
▁Canh	-8603
▁Cũng	-8604
▁Data	-8605
▁Gear	-8606
▁Hard	-8607
▁Lead	-8608
▁Linh	-8609
▁MYHH	-8610
▁Main	-8611
▁Meta	-8612
▁ghét	-8613
▁giục	-8614
▁lego	-8615
▁nhằm	-8616
▁plas	-8617
▁quot	-8618
▁Đình	-8619
▁ຈົ່ງ	-8620
▁ພ້ອມ	-8621
▁ສະເຕ	-8622
▁ອ່ອນ	-8623
▁ຮ່ວມ	-8624
▁ເກັບ	-8625
▁ແຕ່ງ	-8626
▁ແມັດ	-8627
icheng	-8628
inting	-8629
ivirus	-8630
umball	-8631
ກວດສອບ	-8632
ມະເລັງ	-8633
ົ້າອີ້	-8634
▁+8615	-8635
▁April	-8636
▁Cross	-8637
▁Phiếu	-8638
▁Voice	-8639
▁huyền	-8640
▁servo	-8641
▁ຊຽງໄຮ	-8642
shopify	-8643
ຕ້ານທານ	-8644
ປ້ອງກັນ	-8645
ວກເຮົາມ	-8646
ສົນທະນາ	-8647
ເດັກຍິງ	-8648
▁86-311	-8649
▁Cookie	-8650
▁Linked	-8651
▁Marble	-8652
▁Prepar	-8653
▁Window	-8654
▁series	-8655
▁thuyền	-8656
▁ກໍລະນີ	-8657
▁ມົນທົນ	-8658
▁ສະຖານີ	-8659
▁ສະເຫນີ	-8660
ສ້າງຕັ້ງ	-8661
▁Firefox	-8662
▁Jiangsu	-8663
▁Private	-8664
▁discuss	-8665
▁spindle	-8666
▁ຍີ່ປຸ່ນ	-8667
▁ຕ້ອງການ	-8668
▁Building	-8669
▁ລົງທະບຽນ	-8670
▁Cartridge	-8671
▁Singapore	-8672
▁spongebob	-8673
▁ຕົ້ນສະບັບ	-8674
▁ອະລູມິນຽມ	-8675
▁Microfiber	-8676
▁Waterproof	-8677
▁ການປິ່ນປົວ	-8678
▁ເຄື່ອງນຸ່ງ	-8679
▁ເດືອນກໍລະກົດ	-8680
▁cryptocurrency	-8681
06	-8682
::	-8683
Hg	-8684
RH	-8685
ba	-8686
hy	-8687
ny	-8688
ÀY	-8689
ຕຸ	-8690
ພີ	-8691
ủi	-8692
-24	-8693
/05	-8694
123	-8695
234	-8696
3.5	-8697
303	-8698
320	-8699
420	-8700
886	-8701
:05	-8702
:53	-8703
Búp	-8704
ENT	-8705
INA	-8706
Ind	-8707
eko	-8708
oma	-8709
udd	-8710
uxi	-8711
ຈິນ	-8712
ຊອບ	-8713
ຍົມ	-8714
ດານ	-8715
ລໍາ	-8716
ຫາວ	-8717
ອິນ	-8718
າກິ	-8719
ເຈີ	-8720
▁8.	-8721
▁Hạ	-8722
▁Ky	-8723
▁LO	-8724
▁Oh	-8725
▁Pa	-8726
▁QC	-8727
▁Tỷ	-8728
▁Vu	-8729
▁Xả	-8730
▁lụ	-8731
▁ml	-8732
▁nụ	-8733
▁tw	-8734
▁tớ	-8735
▁up	-8736
▁xạ	-8737
▁Đà	-8738
▁ຄູ	-8739
▁ທິ	-8740
,500	-8741
3.70	-8742
77-6	-8743
ETAL	-8744
Mình	-8745
Tech	-8746
apol	-8747
aron	-8748
ense	-8749
erig	-8750
ging	-8751
iant	-8752
idad	-8753
last	-8754
rost	-8755
umma	-8756
ກິລາ	-8757
▁***	-8758
▁10.	-8759
▁340	-8760
▁440	-8761
▁5.1	-8762
▁Bơm	-8763
▁DXF	-8764
▁Dom	-8765
▁Dầu	-8766
▁Dệt	-8767
▁ECO	-8768
▁Fle	-8769
▁Giu	-8770
▁Hui	-8771
▁IEC	-8772
▁NBR	-8773
▁Nex	-8774
▁PPS	-8775
▁Pcb	-8776
▁Saw	-8777
▁Thí	-8778
▁Trị	-8779
▁Tàu	-8780
▁UAE	-8781
▁Vấn	-8782
▁bạo	-8783
▁cản	-8784
▁des	-8785
▁fil	-8786
▁gía	-8787
▁mat	-8788
▁ong	-8789
▁res	-8790
▁thở	-8791
▁ướt	-8792
▁ຕົກ	-8793
▁ມັກ	-8794
▁ແຂນ	-8795
China	-8796
ander	-8797
ction	-8798
minal	-8799
namfg	-8800
ondon	-8801
sheng	-8802
ຈະກໍາ	-8803
ໍາລົງ	-8804
▁1250	-8805
▁Biển	-8806
▁East	-8807
▁Lãnh	-8808
▁Ming	-8809
▁Nhìn	-8810
▁Real	-8811
▁Sign	-8812
▁Tape	-8813
▁Thậm	-8814
▁Tuần	-8815
▁Wash	-8816
▁Yong	-8817
▁blog	-8818
▁chúc	-8819
▁cảng	-8820
▁kênh	-8821
▁miêu	-8822
▁phím	-8823
▁spin	-8824
▁thấu	-8825
▁thắc	-8826
▁trạm	-8827
▁vang	-8828
▁xứng	-8829
▁điên	-8830
▁ນ້ອຍ	-8831
▁ສະມາ	-8832
▁ເກີບ	-8833
ograph	-8834
ຂຶ້ນໄປ	-8835
ຄວາມໄວ	-8836
ປະຫຍັດ	-8837
ັບປິ້ງ	-8838
່ຽວຊານ	-8839
▁Lucks	-8840
▁Night	-8841
▁Texas	-8842
▁Tweet	-8843
▁Twill	-8844
▁Young	-8845
▁cương	-8846
▁nhàng	-8847
▁screw	-8848
hatsapp	-8849
niverse	-8850
ສຸດທ້າຍ	-8851
▁123...	-8852
▁Forums	-8853
▁Friday	-8854
▁Thread	-8855
▁acerig	-8856
▁cookie	-8857
▁ການນໍາ	-8858
▁ພຽງແຕ່	-8859
.09.2018	-8860
cription	-8861
neumatic	-8862
▁Browser	-8863
▁Kharkiv	-8864
▁Mubarak	-8865
▁ບໍ່ແມ່ນ	-8866
▁ສ້າງແບບ	-8867
▁Machines	-8868
▁ສະເຕນເລດ	-8869
▁Hydraulic	-8870
▁ເຂົ້າຮ່ວມ	-8871
ັບປິ້ງມໍເຕີ	-8872
▁ຫງວນລິຂະສິດ	-8873
▁Sihanoukville	-8874
▁ສ້າງແບບຈໍາລອງ	-8875
."	-8876
AV	-8877
IU	-8878
hi	-8879
si	-8880
ບາ	-8881
!!!	-8882
.86	-8883
01,	-8884
010	-8885
225	-8886
229	-8887
280	-8888
333	-8889
605	-8890
:57	-8891
Biz	-8892
ESS	-8893
Min	-8894
arr	-8895
ben	-8896
bro	-8897
bug	-8898
ega	-8899
fan	-8900
ira	-8901
jie	-8902
kin	-8903
oen	-8904
oor	-8905
rey	-8906
war	-8907
ຄົງ	-8908
ທາດ	-8909
ບວນ	-8910
ມາດ	-8911
ຫາຍ	-8912
ິມະ	-8913
ຸດທ	-8914
▁2-	-8915
▁KD	-8916
▁KG	-8917
▁Kể	-8918
▁RI	-8919
▁SL	-8920
▁Sĩ	-8921
▁Tủ	-8922
▁Xu	-8923
▁ab	-8924
▁ko	-8925
▁nề	-8926
▁ລີ	-8927
1-99	-8928
book	-8929
eing	-8930
epad	-8931
info	-8932
ippi	-8933
ogen	-8934
osph	-8935
untu	-8936
xian	-8937
ລຸ້ນ	-8938
ແຂ່ງ	-8939
▁'01	-8940
▁(19	-8941
▁0.4	-8942
▁2.7	-8943
▁4.6	-8944
▁680	-8945
▁690	-8946
▁7,5	-8947
▁90%	-8948
▁99,	-8949
▁AMP	-8950
▁Bol	-8951
▁Bot	-8952
▁Bọt	-8953
▁Cấp	-8954
▁Fer	-8955
▁Flo	-8956
▁Fri	-8957
▁IPv	-8958
▁Ice	-8959
▁Jar	-8960
▁Job	-8961
▁KTM	-8962
▁Lib	-8963
▁Lit	-8964
▁MOQ	-8965
▁Mah	-8966
▁Moz	-8967
▁Môi	-8968
▁Nev	-8969
▁Oxy	-8970
▁Phí	-8971
▁Tác	-8972
▁bớt	-8973
▁dại	-8974
▁dốc	-8975
▁kẹp	-8976
▁mar	-8977
▁ray	-8978
▁tỏa	-8979
▁Đài	-8980
▁đập	-8981
▁ຈົດ	-8982
▁ພັບ	-8983
/2015	-8984
Trang	-8985
aysia	-8986
elect	-8987
ening	-8988
izing	-8989
owder	-8990
ລິນຍາ	-8991
ັງຄານ	-8992
າຊາກິ	-8993
າດຊາຍ	-8994
ີດີໂອ	-8995
ເຊື້ອ	-8996
▁(3.5	-8997
▁Anal	-8998
▁Bing	-8999
▁Curl	-9000
▁Dùng	-9001
▁Ever	-9002
▁Gang	-9003
▁Gióp	-9004
▁HDMI	-9005
▁Hiểu	-9006
▁Inch	-9007
▁Khám	-9008
▁Loan	-9009
▁Name	-9010
▁SPMK	-9011
▁Sept	-9012
▁Spec	-9013
▁Team	-9014
▁Thai	-9015
▁Trực	-9016
▁châm	-9017
▁chổi	-9018
▁giàu	-9019
▁hoạn	-9020
▁long	-9021
▁mult	-9022
▁quán	-9023
▁ຈຶ່ງ	-9024
Static	-9025
acetam	-9026
ithium	-9027
ຍລະມັນ	-9028
ຕະຫຼອດ	-9029
ບໍ່ໄດ້	-9030
ລູກຄ້າ	-9031
▁2018,	-9032
▁Autom	-9033
▁Intel	-9034
▁Lamin	-9035
▁Point	-9036
▁Satin	-9037
▁forex	-9038
▁tráng	-9039
▁ປະຈໍາ	-9040
Cleaner	-9041
issippi	-9042
ກໍາຫນົດ	-9043
ຫຸ້ມຂອງ	-9044
ອະທິບາຍ	-9045
ຸດທະສາດ	-9046
▁100000	-9047
▁Castle	-9048
▁Disney	-9049
▁Khuyến	-9050
▁Marvel	-9051
▁Meleti	-9052
▁Oracle	-9053
▁Relays	-9054
▁Sodium	-9055
▁Switch	-9056
▁Temper	-9057
▁Ubuntu	-9058
▁Ukrain	-9059
▁cheats	-9060
▁thoảng	-9061
▁ຈໍາກັດ	-9062
/01/2017	-9063
ະນະກໍາມະ	-9064
▁Bonuses	-9065
▁Hormone	-9066
▁Michael	-9067
▁machine	-9068
▁ຄໍາເຫັນ	-9069
▁ບ່ອນທີ່	-9070
▁ປັບແຕ່ງ	-9071
▁ພວກເຂົາ	-9072
▁ພາກສ່ວນ	-9073
▁ມູນນິທິ	-9074
▁ໂຄງສ້າງ	-9075
androlone	-9076
ification	-9077
ຄວາມສະອາດ	-9078
▁Assembly	-9079
▁Dreadbag	-9080
▁Knitting	-9081
▁Metrobus	-9082
▁Recovery	-9083
▁Reserved	-9084
▁Tengzhou	-9085
▁ການເຄືອບ	-9086
▁ຄາວາຊາກິ	-9087
▁ອາເມລິກາ	-9088
▁Pneumatic	-9089
▁PocketWin	-9090
▁Valentine	-9091
▁ການທົດສອບ	-9092
▁ການປັບປຸງ	-9093
▁ຄວາມໄວການ	-9094
ifunctional	-9095
ໂທລະສັບມືຖື	-9096
▁Electronic	-9097
▁hoverboard	-9098
▁ຊື່ຂອງທ່ານ	-9099
▁Mississippi	-9100
▁ຄວາມຕ້ານທານ	-9101
▁ຕິດຕັ້ງຜ່ານ	-9102
▁ປະຫວັດສາດຂອງ	-9103
▁ຢ່າລືມກ່ຽວກັບ	-9104
................	-9105
")	-9106
,1	-9107
.:	-9108
/6	-9109
AH	-9110
Al	-9111
BA	-9112
Cr	-9113
EA	-9114
Fl	-9115
It	-9116
KA	-9117
MW	-9118
RE	-9119
TR	-9120
TY	-9121
mẹ	-9122
tt	-9123
ọa	-9124
.65	-9125
.91	-9126
114	-9127
132	-9128
2-2	-9129
202	-9130
40,	-9131
414	-9132
608	-9133
757	-9134
Cam	-9135
Lao	-9136
Ltd	-9137
PRO	-9138
Tôi	-9139
VID	-9140
Xem	-9141
aya	-9142
eda	-9143
ena	-9144
ght	-9145
ika	-9146
jar	-9147
pha	-9148
ste	-9149
use	-9150
ướp	-9151
ຍອດ	-9152
ດຽວ	-9153
ຕັນ	-9154
ຕົງ	-9155
ພຶດ	-9156
ມື້	-9157
ສີດ	-9158
ັກຊ	-9159
ເບີ	-9160
ເອດ	-9161
ແລນ	-9162
▁#3	-9163
▁#9	-9164
▁BC	-9165
▁Cố	-9166
▁HZ	-9167
▁Ke	-9168
▁Lê	-9169
▁OK	-9170
▁Ul	-9171
▁mb	-9172
▁mũ	-9173
▁mộ	-9174
▁nở	-9175
▁Đo	-9176
Land	-9177
avan	-9178
esis	-9179
icon	-9180
iron	-9181
lace	-9182
ທາລະ	-9183
ຫວັນ	-9184
ີຊ່າ	-9185
ຶກສາ	-9186
ຸມພາ	-9187
▁+34	-9188
▁102	-9189
▁118	-9190
▁12.	-9191
▁3.3	-9192
▁3.7	-9193
▁Add	-9194
▁Bet	-9195
▁Bìa	-9196
▁CSG	-9197
▁Cai	-9198
▁Che	-9199
▁Cur	-9200
▁Dải	-9201
▁FCC	-9202
▁Fan	-9203
▁GET	-9204
▁Giữ	-9205
▁Hom	-9206
▁LLC	-9207
▁Lou	-9208
▁Nac	-9209
▁Nắc	-9210
▁Opp	-9211
▁Suy	-9212
▁Sân	-9213
▁Tas	-9214
▁UPS	-9215
▁Unl	-9216
▁Yan	-9217
▁cắp	-9218
▁dao	-9219
▁gai	-9220
▁kem	-9221
▁lâm	-9222
▁mèo	-9223
▁mũi	-9224
▁mệt	-9225
▁mọc	-9226
▁ntụ	-9227
▁rèn	-9228
▁săn	-9229
▁tit	-9230
▁túy	-9231
▁đan	-9232
▁đấm	-9233
▁ຈິງ	-9234
▁ມາດ	-9235
Chúng	-9236
epher	-9237
ering	-9238
erson	-9239
house	-9240
ility	-9241
owers	-9242
tical	-9243
ustin	-9244
າກບອນ	-9245
ີນ້ໍາ	-9246
ົດລອງ	-9247
▁-...	-9248
▁2007	-9249
▁8000	-9250
▁Face	-9251
▁Heng	-9252
▁Kênh	-9253
▁Nozz	-9254
▁Oeko	-9255
▁PCBA	-9256
▁Rome	-9257
▁Saga	-9258
▁Sale	-9259
▁Side	-9260
▁Unit	-9261
▁York	-9262
▁bead	-9263
▁coff	-9264
▁dust	-9265
▁liền	-9266
▁làng	-9267
▁lưng	-9268
▁lệch	-9269
▁prev	-9270
▁quét	-9271
▁quận	-9272
▁đàng	-9273
▁ນ້ອງ	-9274
▁ສະພາ	-9275
▁ຫນົນ	-9276
▁ອະນາ	-9277
▁ເກມອ	-9278
2.7574	-9279
ONDALE	-9280
itemap	-9281
ondale	-9282
teroid	-9283
ຊານຕົງ	-9284
ລາງວັນ	-9285
ອັງຄານ	-9286
ໄປສະນີ	-9287
▁3.0.5	-9288
▁Angel	-9289
▁Chips	-9290
▁Flute	-9291
▁Found	-9292
▁Laura	-9293
▁Longs	-9294
▁PROMO	-9295
▁Plain	-9296
▁Price	-9297
▁Relay	-9298
▁Santa	-9299
▁Space	-9300
▁Staff	-9301
▁Watch	-9302
▁block	-9303
▁flash	-9304
▁huỳnh	-9305
▁photo	-9306
▁ປະຊຸມ	-9307
ization	-9308
ກຸນເງິນ	-9309
ກໍາເນີດ	-9310
ທະຍາສາດ	-9311
ຫມາະສົມ	-9312
ແລະຄວາມ	-9313
▁Emboss	-9314
▁Floral	-9315
▁Rocker	-9316
▁Roller	-9317
▁Soccer	-9318
▁Teflon	-9319
▁Vivlon	-9320
▁WeChat	-9321
▁ກໍານົດ	-9322
▁ຂະຫຍາຍ	-9323
▁ປະໂຫຍດ	-9324
▁ອັງກິດ	-9325
otropics	-9326
teknamfg	-9327
▁Chamber	-9328
▁Cordura	-9329
▁GoQuick	-9330
▁Koshibo	-9331
▁Ninjago	-9332
▁Powered	-9333
▁Surface	-9334
▁William	-9335
▁ປ້ອງກັນ	-9336
▁ລັກສະນະ	-9337
▁ຫົວຫນ້າ	-9338
ທີ່ແທ້ຈິງ	-9339
ເຄື່ອງຈັກ	-9340
▁Inverter	-9341
▁Security	-9342
▁Strength	-9343
▁Ultimate	-9344
▁ເຄືອຂ່າຍ	-9345
3.702.7574	-9346
▁Extrusion	-9347
▁Streaming	-9348
▁Unlimited	-9349
▁ການລົງທຶນ	-9350
▁ຄວາມປອດໄພ	-9351
▁ຜົນປະໂຫຍດ	-9352
▁CANNONDALE	-9353
▁Cannondale	-9354
▁Enterprise	-9355
▁Nootropics	-9356
▁ສົ່ງອີເມລ໌	-9357
ສະພາບອາກາດໃນ	-9358
▁ຮູບຊົງກະບອກ	-9359
▁ການເຊື່ອມຕໍ່	-9360
▁ມົນທົນຊານຕົງ	-9361
▁ສະພາບອາກາດໃນ	-9362
/€	-9363
2-	-9364
3"	-9365
7%	-9366
:>	-9367
DN	-9368
NT	-9369
PL	-9370
SE	-9371
fe	-9372
gr	-9373
ks	-9374
sl	-9375
zm	-9376
ແສ	-9377
ໃຜ	-9378
ໄດ	-9379
▁á	-9380
-33	-9381
/19	-9382
039	-9383
115	-9384
145	-9385
23)	-9386
3">	-9387
840	-9388
:30	-9389
PCS	-9390
ayo	-9391
cow	-9392
fsx	-9393
gro	-9394
ird	-9395
lit	-9396
mmy	-9397
ror	-9398
uto	-9399
you	-9400
yun	-9401
zer	-9402
ກອງ	-9403
ຈານ	-9404
ຍໍາ	-9405
ທຽບ	-9406
ບູນ	-9407
ປິດ	-9408
ພັດ	-9409
ຟັງ	-9410
ເປົ	-9411
ໄຫມ	-9412
▁#2	-9413
▁AF	-9414
▁CK	-9415
▁Cá	-9416
▁Cổ	-9417
▁DD	-9418
▁DO	-9419
▁Kẻ	-9420
▁LF	-9421
▁WM	-9422
▁dư	-9423
▁is	-9424
▁vờ	-9425
▁Đá	-9426
▁ຖະ	-9427
▁ໂກ	-9428
-888	-9429
-900	-9430
3000	-9431
33">	-9432
71">	-9433
="16	-9434
Bags	-9435
adel	-9436
alon	-9437
berg	-9438
chat	-9439
html	-9440
icks	-9441
ozer	-9442
pert	-9443
star	-9444
ucks	-9445
vard	-9446
wall	-9447
wing	-9448
ກໍລະ	-9449
ຈາລະ	-9450
ຕາລີ	-9451
ປື້ມ	-9452
ເລິກ	-9453
▁(28	-9454
▁(3)	-9455
▁(5)	-9456
▁114	-9457
▁116	-9458
▁167	-9459
▁2,5	-9460
▁203	-9461
▁64,	-9462
▁850	-9463
▁CIF	-9464
▁CMC	-9465
▁Cel	-9466
▁Cát	-9467
▁Deb	-9468
▁Far	-9469
▁Hạt	-9470
▁Jew	-9471
▁Lạp	-9472
▁Mad	-9473
▁Này	-9474
▁Pop	-9475
▁QUY	-9476
▁Ret	-9477
▁SPY	-9478
▁SQL	-9479
▁SXL	-9480
▁Ten	-9481
▁Tru	-9482
▁Wal	-9483
▁Zur	-9484
▁cre	-9485
▁cận	-9486
▁dàn	-9487
▁kil	-9488
▁lôi	-9489
▁off	-9490
▁pad	-9491
▁quạ	-9492
▁sex	-9493
▁sim	-9494
▁sét	-9495
▁sọc	-9496
▁ung	-9497
▁đậm	-9498
▁ຂຸດ	-9499
▁ທາດ	-9500
▁ນວນ	-9501
▁ສົດ	-9502
▁ເສຍ	-9503
▁ແປງ	-9504
-21-5	-9505
="1.1	-9506
Order	-9507
andex	-9508
eight	-9509
luoro	-9510
quito	-9511
tháng	-9512
ຄູ່ມື	-9513
ພະຈິກ	-9514
ິຖຸນາ	-9515
ໂບນັດ	-9516
▁1220	-9517
▁9:00	-9518
▁Band	-9519
▁Buck	-9520
▁CYFL	-9521
▁Conc	-9522
▁Cosm	-9523
▁Disp	-9524
▁Fort	-9525
▁Guan	-9526
▁Hiến	-9527
▁Hồng	-9528
▁Lang	-9529
▁Nhập	-9530
▁Nâng	-9531
▁Refr	-9532
▁Răng	-9533
▁Sock	-9534
▁Yiwu	-9535
▁báng	-9536
▁chậm	-9537
▁cược	-9538
▁phạt	-9539
▁súng	-9540
▁tháo	-9541
▁thêu	-9542
▁tưới	-9543
▁ương	-9544
▁ການໂ	-9545
▁ມ້ວນ	-9546
▁ສັ່ງ	-9547
Script	-9548
bright	-9549
ຄໍາວ່າ	-9550
ຜິດຊອບ	-9551
ໂຮງຮຽນ	-9552
▁86-05	-9553
▁91-99	-9554
▁Cisco	-9555
▁Clamp	-9556
▁Crypt	-9557
▁Hoàng	-9558
▁James	-9559
▁Janne	-9560
▁Pixel	-9561
▁Rover	-9562
▁Track	-9563
▁Zheng	-9564
▁ninja	-9565
▁ຂອບໃຈ	-9566
▁ບລັອກ	-9567
▁ຢູ່ໃນ	-9568
▁ອື່ນໆ	-9569
2018-01	-9570
oraemon	-9571
ປະຈຸບັນ	-9572
ສະຫະລັດ	-9573
ສໍາຫລັບ	-9574
ແລກປ່ຽນ	-9575
▁(2019)	-9576
▁86-769	-9577
▁Corpor	-9578
▁Giường	-9579
▁Linton	-9580
▁Master	-9581
▁Moscow	-9582
▁Payson	-9583
▁Safety	-9584
▁Travel	-9585
▁Zurich	-9586
▁crypto	-9587
▁ວັນສຸກ	-9588
▁ຫມໍ້ໄຟ	-9589
ຜົນກະທົບ	-9590
ລົງທະບຽນ	-9591
ອຸນຫະພູມ	-9592
▁Bangkok	-9593
▁Notepad	-9594
▁Ukraina	-9595
▁ຕ່ໍາສຸດ	-9596
▁ອາບນ້ໍາ	-9597
▁Comments	-9598
▁Deduster	-9599
▁Material	-9600
▁ການສຶກສາ	-9601
▁ຄວາມຮ້ອນ	-9602
▁ວັນອາທິດ	-9603
▁ເວັບໄຊຕ໌	-9604
▁ເສື້ອຜ້າ	-9605
ຂະຫນາດນ້ອຍ	-9606
▁Container	-9607
▁Guangdong	-9608
▁Machining	-9609
▁galvalume	-9610
▁ການໂຄສະນາ	-9611
▁ຄໍາແນະນໍາ	-9612
▁ຕົວຂຶ້ນໄປ	-9613
▁Customized	-9614
▁ການບໍລິໂພກ	-9615
▁ເດືອນກຸມພາ	-9616
▁Conditioner	-9617
▁ຈັດພີມມາໂດຍ	-9618
▁MobileCasino	-9619
▁Testosterone	-9620
▁ຕິດຕໍ່ພົວພັນ	-9621
/2	-9622
2"	-9623
3%	-9624
BM	-9625
BX	-9626
GG	-9627
HG	-9628
HY	-9629
Pl	-9630
TE	-9631
TL	-9632
gm	-9633
gu	-9634
ns	-9635
so	-9636
tg	-9637
ແມ	-9638
ộp	-9639
-0)	-9640
-48	-9641
-66	-9642
-76	-9643
.02	-9644
005	-9645
111	-9646
121	-9647
126	-9648
138	-9649
2.0	-9650
365	-9651
450	-9652
866	-9653
:07	-9654
:08	-9655
Con	-9656
Một	-9657
Ray	-9658
aba	-9659
aps	-9660
azụ	-9661
bow	-9662
dig	-9663
imb	-9664
isk	-9665
izh	-9666
lar	-9667
lim	-9668
lut	-9669
mAh	-9670
roz	-9671
tec	-9672
uel	-9673
ven	-9674
ÁCH	-9675
ຄັບ	-9676
ຊຽນ	-9677
ທິນ	-9678
ນາງ	-9679
ບຽບ	-9680
ພືດ	-9681
ລິບ	-9682
ອີກ	-9683
ເກີ	-9684
ໄຫຼ	-9685
▁(*	-9686
▁++	-9687
▁79	-9688
▁81	-9689
▁DP	-9690
▁Dễ	-9691
▁FP	-9692
▁GJ	-9693
▁HT	-9694
▁LD	-9695
▁Lò	-9696
▁Mi	-9697
▁Ok	-9698
▁Ti	-9699
▁Us	-9700
▁ZM	-9701
▁gõ	-9702
▁mL	-9703
▁má	-9704
▁mỡ	-9705
▁ĐÁ	-9706
▁Đô	-9707
▁ນຸ	-9708
-240	-9709
1500	-9710
6789	-9711
Fort	-9712
IRTS	-9713
Link	-9714
ONUS	-9715
Test	-9716
aber	-9717
akes	-9718
lica	-9719
oven	-9720
phin	-9721
ters	-9722
unds	-9723
unes	-9724
user	-9725
wood	-9726
ງ່າຍ	-9727
ບ້ານ	-9728
ຫລັງ	-9729
ເທິງ	-9730
້ນີ້	-9731
▁(%)	-9732
▁155	-9733
▁20.	-9734
▁215	-9735
▁25%	-9736
▁270	-9737
▁3.2	-9738
▁415	-9739
▁755	-9740
▁ALL	-9741
▁Alb	-9742
▁Bạc	-9743
▁CEE	-9744
▁Cut	-9745
▁EXW	-9746
▁FAC	-9747
▁GSM	-9748
▁Hun	-9749
▁KCN	-9750
▁Kon	-9751
▁Lắp	-9752
▁PAY	-9753
▁Pyr	-9754
▁Ren	-9755
▁SEO	-9756
▁Sửa	-9757
▁TED	-9758
▁THI	-9759
▁Tâm	-9760
▁URL	-9761
▁Vig	-9762
▁béo	-9763
▁bắn	-9764
▁côn	-9765
▁dãy	-9766
▁gom	-9767
▁gũi	-9768
▁kép	-9769
▁mạo	-9770
▁mỏi	-9771
▁nad	-9772
▁nứt	-9773
▁rác	-9774
▁thổ	-9775
▁top	-9776
▁xót	-9777
▁Đêm	-9778
▁đua	-9779
▁ກິດ	-9780
▁ຊາວ	-9781
▁ຕາຍ	-9782
▁ຕົນ	-9783
▁ປອກ	-9784
▁ຢືນ	-9785
▁ເພິ	-9786
▁ໂບດ	-9787
:86-0	-9788
caser	-9789
entic	-9790
iforn	-9791
oline	-9792
under	-9793
ustry	-9794
ທໍາມະ	-9795
ລະສານ	-9796
ສະກົດ	-9797
ເນື້ອ	-9798
ເພີ່ມ	-9799
▁$100	-9800
▁0.75	-9801
▁100,	-9802
▁Baby	-9803
▁Body	-9804
▁COIN	-9805
▁CPLA	-9806
▁Cams	-9807
▁Chăm	-9808
▁Cảng	-9809
▁Espa	-9810
▁Hose	-9811
▁LIVE	-9812
▁Lift	-9813
▁Lĩnh	-9814
▁Semi	-9815
▁Silk	-9816
▁Snow	-9817
▁Tank	-9818
▁Thức	-9819
▁Wuxi	-9820
▁Xiam	-9821
▁cướp	-9822
▁file	-9823
▁giọt	-9824
▁hang	-9825
▁hiệp	-9826
▁luân	-9827
▁mmHg	-9828
▁sưởi	-9829
▁tent	-9830
▁thuế	-9831
▁trân	-9832
▁xích	-9833
▁ມືຖື	-9834
▁ອາຍຸ	-9835
extile	-9836
fabric	-9837
loride	-9838
odcast	-9839
ການຈັດ	-9840
ຕົນເອງ	-9841
ລາຍງານ	-9842
ຫນ້າຈໍ	-9843
ໄປບ່ອນ	-9844
▁2018:	-9845
▁89.00	-9846
▁BONUS	-9847
▁Check	-9848
▁Clash	-9849
▁Deutz	-9850
▁Match	-9851
▁Niger	-9852
▁Paper	-9853
▁Rosin	-9854
▁Sarah	-9855
▁Start	-9856
▁Tower	-9857
▁Tuyết	-9858
▁sonic	-9859
▁sương	-9860
▁ພະອົງ	-9861
▁ພິເສດ	-9862
▁ມະນຸດ	-9863
Android	-9864
caserin	-9865
ersburg	-9866
ifornia	-9867
ບໍລິສຸດ	-9868
ພວກເຂົາ	-9869
ພຶດສະພາ	-9870
ເງິນຝາກ	-9871
ເອກະສານ	-9872
ແມ່ນຍໍາ	-9873
▁August	-9874
▁Rights	-9875
▁School	-9876
▁coffee	-9877
▁ວັນຈັນ	-9878
▁Battery	-9879
▁Deutsch	-9880
▁Hosting	-9881
▁PRChina	-9882
▁Program	-9883
▁ກໍ່ສ້າງ	-9884
▁ດາວໂຫຼດ	-9885
▁ບໍລິເວນ	-9886
▁ພະຍາຍາມ	-9887
▁ເດັກຍິງ	-9888
▁ແລະຂ້ອຍ	-9889
ublicidad	-9890
▁Industry	-9891
▁Jiaozhou	-9892
▁ທໍ່ເຫຼັກ	-9893
ການກັ່ນຕອງ	-9894
ຂອງພຣະຄຣິດ	-9895
ໍາລົງຊີວິດ	-9896
▁86-574-86	-9897
▁Antivirus	-9898
▁Certified	-9899
▁Downlight	-9900
▁Halloween	-9901
▁Jailbreak	-9902
▁Precision	-9903
▁ຄຸນປະຫຍັດ	-9904
▁ລະຫັດເງິນ	-9905
▁ວັນອັງຄານ	-9906
▁California	-9907
▁Petersburg	-9908
▁SharePoint	-9909
▁ການປົກຫຸ້ມຂອງ	-9910
▁91-993.702.7574	-9911
,,	-9912
05	-9913
CW	-9914
FA	-9915
FG	-9916
GI	-9917
HO	-9918
PK	-9919
UK	-9920
bi	-9921
ea	-9922
hz	-9923
pi	-9924
ÂN	-9925
ກູ	-9926
ຄວ	-9927
ຸບ	-9928
ໂຟ	-9929
ễn	-9930
!”.	-9931
-2,	-9932
-75	-9933
-89	-9934
.14	-9935
.18	-9936
.85	-9937
/06	-9938
016	-9939
15)	-9940
204	-9941
21)	-9942
222	-9943
25,	-9944
285	-9945
304	-9946
399	-9947
856	-9948
Fun	-9949
MPA	-9950
SON	-9951
Van	-9952
Web	-9953
asy	-9954
cnc	-9955
fit	-9956
hol	-9957
iev	-9958
ism	-9959
ius	-9960
iễm	-9961
sam	-9962
ຂັນ	-9963
ທັດ	-9964
ບາດ	-9965
ປອງ	-9966
ມວນ	-9967
ແດນ	-9968
ໂຕຣ	-9969
ໄຫວ	-9970
▁83	-9971
▁9.	-9972
▁<5	-9973
▁AO	-9974
▁Au	-9975
▁DF	-9976
▁EU	-9977
▁KN	-9978
▁OR	-9979
▁QQ	-9980
▁Sứ	-9981
▁Uy	-9982
▁XP	-9983
▁cú	-9984
▁iT	-9985
▁kn	-9986
▁kì	-9987
▁kệ	-9988
▁pc	-9989
▁rơ	-9990
▁rỡ	-9991
▁sl	-9992
▁vả	-9993
▁âu	-9994
▁ôm	-9995
▁Ưu	-9996
▁ຄະ	-9997
▁ດາ	-9998
▁ເຍ	-9999
▁ແວ	-10000
0000	-10001
1200	-10002
2017	-10003
="24	-10004
BRID	-10005
agon	-10006
amas	-10007
ared	-10008
back	-10009
bide	-10010
coco	-10011
cret	-10012
hình	-10013
ican	-10014
iece	-10015
ishi	-10016
onda	-10017
ongo	-10018
ured	-10019
urop	-10020
utch	-10021
well	-10022
ກ່ຽວ	-10023
ຂັ້ນ	-10024
ຂ້າງ	-10025
ຝ້າຍ	-10026
ວິຊາ	-10027
ສັ້ນ	-10028
ຫລັກ	-10029
ຫາວິ	-10030
ະນາຍ	-10031
ເຄືອ	-10032
▁!!!	-10033
▁(14	-10034
▁(45	-10035
▁737	-10036
▁980	-10037
▁>>>	-10038
▁AIR	-10039
▁AUT	-10040
▁Ash	-10041
▁Bên	-10042
▁CPA	-10043
▁CRM	-10044
▁Ear	-10045
▁Fas	-10046
▁Fis	-10047
▁Fol	-10048
▁Gab	-10049
▁Jia	-10050
▁NAS	-10051
▁NGH	-10052
▁Nut	-10053
▁OFF	-10054
▁Raz	-10055
▁SEN	-10056
▁Sho	-10057
▁TSJ	-10058
▁Veg	-10059
▁Vis	-10060
▁bag	-10061
▁bận	-10062
▁cor	-10063
▁ctn	-10064
▁dia	-10065
▁dịu	-10066
▁dồi	-10067
▁gen	-10068
▁nấu	-10069
▁sam	-10070
▁tây	-10071
▁tẩy	-10072
▁vay	-10073
▁vội	-10074
▁xưa	-10075
▁đệm	-10076
▁ຂວດ	-10077
▁ຍາດ	-10078
▁ນອກ	-10079
▁ປວດ	-10080
▁ລືມ	-10081
▁ອັບ	-10082
-3000	-10083
.0.30	-10084
chang	-10085
dozer	-10086
eller	-10087
inger	-10088
không	-10089
ombie	-10090
ruary	-10091
thers	-10092
ຖະກິດ	-10093
ເຊືອກ	-10094
ເຕັ້ນ	-10095
ເສື້ອ	-10096
▁$500	-10097
▁0.07	-10098
▁9000	-10099
▁Bolt	-10100
▁Bond	-10101
▁Caps	-10102
▁Cour	-10103
▁Disc	-10104
▁Diêu	-10105
▁Food	-10106
▁GAME	-10107
▁Jess	-10108
▁Phản	-10109
▁Pill	-10110
▁Rack	-10111
▁Rule	-10112
▁Thủy	-10113
▁Tiện	-10114
▁Tray	-10115
▁Tích	-10116
▁WLAN	-10117
▁biện	-10118
▁csgo	-10119
▁khao	-10120
▁ngừa	-10121
▁sửng	-10122
▁đuối	-10123
▁ຕະຫຼ	-10124
▁ຫນົມ	-10125
▁ເຄີຍ	-10126
▁ເວັບ	-10127
▁ໂທລະ	-10128
asonic	-10129
ending	-10130
opping	-10131
rading	-10132
utions	-10133
ຈາລະນາ	-10134
ຜູ້ໃຊ້	-10135
ແນນສຽງ	-10136
ໂຮງແຮມ	-10137
ໃຊ້ວຽກ	-10138
▁20000	-10139
▁COVID	-10140
▁Chuẩn	-10141
▁Coins	-10142
▁Estar	-10143
▁Grand	-10144
▁Hacks	-10145
▁Parts	-10146
▁Putin	-10147
▁Spark	-10148
▁Suite	-10149
▁Therm	-10150
▁Villa	-10151
▁khuất	-10152
▁thiệt	-10153
▁ສັນຍາ	-10154
▁ເທື່ອ	-10155
▁ເລກທີ	-10156
▁ໂບນັດ	-10157
ensions	-10158
ຢຍລະມັນ	-10159
ແຕກຕ່າງ	-10160
▁10.000	-10161
▁Canvas	-10162
▁HYBRID	-10163
▁Merced	-10164
▁Nguyễn	-10165
▁Royale	-10166
▁Screen	-10167
▁Thưởng	-10168
▁Virgin	-10169
▁plasma	-10170
▁vector	-10171
▁ຄໍາຕອບ	-10172
▁ລົດຈັກ	-10173
▁ສະຫນາມ	-10174
▁ເລື່ອນ	-10175
▁ເອີຣົບ	-10176
essional	-10177
ະນາຍຄວາມ	-10178
▁Charger	-10179
▁Edition	-10180
▁Rangers	-10181
▁Silicon	-10182
▁gumball	-10183
▁jackpot	-10184
▁sitemap	-10185
▁ຂໍ້ຄວາມ	-10186
ຄືນໄປບ່ອນ	-10187
▁JanneAir	-10188
▁Malaysia	-10189
▁Mosquito	-10190
▁Messenger	-10191
▁ການຈັດການ	-10192
▁ການເຊື່ອມ	-10193
▁Galvanized	-10194
▁Skateboard	-10195
▁ການກັ່ນຕອງ	-10196
▁ການຕັ້ງຄ່າ	-10197
▁ການປົກປ້ອງ	-10198
▁ບົດຄວາມທີ່	-10199
▁ປື້ມບັນທຶກ	-10200
▁ຄຸນນະພາບສູງ	-10201
▁ແຮງດັນໄຟຟ້າ	-10202
▁ເຕັບປິ້ງມໍເຕີ	-10203
/9	-10204
1.	-10205
9%	-10206
CK	-10207
EG	-10208
KM	-10209
OK	-10210
RB	-10211
bl	-10212
nt	-10213
ím	-10214
ຊູ	-10215
ລ້	-10216
ແຄ	-10217
ẹt	-10218
ợn	-10219
-47	-10220
-8)	-10221
.11	-10222
.28	-10223
.34	-10224
.42	-10225
004	-10226
1,5	-10227
155	-10228
163	-10229
227	-10230
290	-10231
355	-10232
514	-10233
630	-10234
850	-10235
909	-10236
:02	-10237
CHO	-10238
CSA	-10239
GHz	-10240
IDS	-10241
JIA	-10242
ONE	-10243
OOD	-10244
avi	-10245
red	-10246
rox	-10247
uki	-10248
wir	-10249
yin	-10250
ມັກ	-10251
ມຸງ	-10252
ສູ້	-10253
ຮອບ	-10254
ະຕິ	-10255
ານາ	-10256
່າກ	-10257
້າວ	-10258
▁"(	-10259
▁$0	-10260
▁82	-10261
▁AN	-10262
▁Ah	-10263
▁Cả	-10264
▁GE	-10265
▁JG	-10266
▁JH	-10267
▁LG	-10268
▁Mu	-10269
▁Mạ	-10270
▁PV	-10271
▁RJ	-10272
▁Xã	-10273
▁sô	-10274
▁vã	-10275
▁ái	-10276
▁ốc	-10277
-120	-10278
.1.2	-10279
111,	-10280
163.	-10281
2016	-10282
EATS	-10283
Port	-10284
Spot	-10285
avor	-10286
ners	-10287
pull	-10288
visa	-10289
ຊະນະ	-10290
ຕຸລາ	-10291
ຣັ່ງ	-10292
ສິ້ນ	-10293
ອາໄສ	-10294
ອື່ນ	-10295
າມັນ	-10296
ົດສະ	-10297
ເທີງ	-10298
ເນັດ	-10299
ເສີນ	-10300
ເສົາ	-10301
ເອັນ	-10302
ແທ້ໆ	-10303
▁03:	-10304
▁310	-10305
▁Ank	-10306
▁Apk	-10307
▁Bak	-10308
▁CES	-10309
▁Cyp	-10310
▁DHL	-10311
▁Hán	-10312
▁Hữu	-10313
▁Lối	-10314
▁NFC	-10315
▁Oil	-10316
▁Phổ	-10317
▁Pul	-10318
▁Raw	-10319
▁SEA	-10320
▁SMT	-10321
▁Son	-10322
▁Trợ	-10323
▁Xếp	-10324
▁bối	-10325
▁lận	-10326
▁lật	-10327
▁lốc	-10328
▁man	-10329
▁ngu	-10330
▁rel	-10331
▁rãi	-10332
▁rực	-10333
▁scr	-10334
▁thự	-10335
▁váy	-10336
▁wit	-10337
▁ĐÂU	-10338
▁đắp	-10339
▁ຂີ້	-10340
▁ຍາກ	-10341
▁ບາບ	-10342
▁ພາດ	-10343
▁ລອງ	-10344
▁້ໍາ	-10345
.2017	-10346
16949	-10347
ATION	-10348
activ	-10349
anced	-10350
istic	-10351
ixels	-10352
lobal	-10353
odeon	-10354
ource	-10355
urner	-10356
yster	-10357
ປະທານ	-10358
ມີແສງ	-10359
ສີຂາວ	-10360
ສຸດທິ	-10361
ຫນ່ວຍ	-10362
ຫນ່າງ	-10363
ຫນ່າຍ	-10364
ໍານາດ	-10365
▁1547	-10366
▁4500	-10367
▁6061	-10368
▁Diam	-10369
▁ECHO	-10370
▁Fast	-10371
▁Lite	-10372
▁Logo	-10373
▁ROHS	-10374
▁Roof	-10375
▁Trục	-10376
▁Tỉnh	-10377
▁Zeal	-10378
▁chặn	-10379
▁giãn	-10380
▁khuy	-10381
▁kiềm	-10382
▁ngợi	-10383
▁nhịn	-10384
▁nồng	-10385
▁para	-10386
▁song	-10387
▁tháp	-10388
▁thổi	-10389
▁trưa	-10390
▁xoáy	-10391
▁ທະເລ	-10392
▁ທຸກໆ	-10393
▁ສະຖາ	-10394
▁ຫຼ້າ	-10395
▁ຮ່າງ	-10396
▁ເຄັດ	-10397
.0.180	-10398
/2019)	-10399
Design	-10400
Trader	-10401
apolis	-10402
ground	-10403
iation	-10404
izerou	-10405
ທີ່ຢູ່	-10406
ສູນເສຍ	-10407
ສົມບັດ	-10408
ຸ້ມຄອງ	-10409
▁0.868	-10410
▁Austr	-10411
▁Huang	-10412
▁JBoss	-10413
▁Jumma	-10414
▁Ngoại	-10415
▁Quick	-10416
▁Shock	-10417
▁Thống	-10418
▁Xiang	-10419
▁eBook	-10420
▁hoảng	-10421
▁nghèo	-10422
▁nhuận	-10423
▁pizza	-10424
▁polyp	-10425
▁viếng	-10426
▁ສີຂຽວ	-10427
▁ເຊື່ອ	-10428
▁ເພິ່ນ	-10429
ຊ່ຽວຊານ	-10430
ດາວໂຫລດ	-10431
ດູດຝຸ່ນ	-10432
ພື້ນຖານ	-10433
ຫວຽດນາມ	-10434
▁86-532	-10435
▁Advent	-10436
▁Boeing	-10437
▁CHEATS	-10438
▁Canber	-10439
▁Decker	-10440
▁Fabric	-10441
▁Nozzle	-10442
▁Outlet	-10443
▁Rabies	-10444
▁Wallet	-10445
▁Xiamen	-10446
▁equina	-10447
▁khoảnh	-10448
▁roller	-10449
▁ທຽນຈິນ	-10450
▁ຜູ້ຂຽນ	-10451
▁ລູກຄ້າ	-10452
▁ສາຍແອວ	-10453
▁ຫົວພິມ	-10454
▁ອັບເດດ	-10455
▁ເພື່ອນ	-10456
▁ແນ່ນອນ	-10457
ເຄືອຂ່າຍ	-10458
▁Fitness	-10459
▁Friends	-10460
▁Grating	-10461
▁Harvard	-10462
▁Horizon	-10463
▁Jizerou	-10464
▁Stretch	-10465
▁Voltage	-10466
▁Wolford	-10467
▁Zealand	-10468
▁virtual	-10469
▁ຄວາມຮູ້	-10470
▁ປະລິນຍາ	-10471
▁ສໍາຫລັບ	-10472
ເຂົ້າຮ່ວມ	-10473
▁February	-10474
▁roulette	-10475
▁ດັ່ງນັ້ນ	-10476
▁ນັ້ນແມ່ນ	-10477
▁ພະນັກງານ	-10478
▁ເກົ້າອີ້	-10479
▁ໄລຍະເວລາ	-10480
ດໍາເນີນງານ	-10481
ຫາວິທະຍາໄລ	-10482
▁Solutions	-10483
▁butterfly	-10484
▁omniverse	-10485
▁ຄວາມໄວສູງ	-10486
▁ຄະນະກໍາມະ	-10487
▁JavaScript	-10488
▁Lorcaserin	-10489
▁galvanized	-10490
▁ຂະຫນາດກ່ອງ	-10491
▁ຂະຫນາດໃຫຍ່	-10492
▁ປີສ້າງຕັ້ງ	-10493
ຄວາມອາດສາມາດ	-10494
▁Corporation	-10495
▁Nickelodeon	-10496
▁ຈັດພີມມາສຸດ	-10497
▁ສາດສະຫນາຈັກ	-10498
▁ເດືອນມິຖຸນາ	-10499
Ad	-10500
EY	-10501
FD	-10502
IE	-10503
QC	-10504
Re	-10505
Sc	-10506
fb	-10507
ja	-10508
mV	-10509
px	-10510
sd	-10511
vo	-10512
ÀO	-10513
éc	-10514
ໄອ	-10515
ẤP	-10516
ặm	-10517
ỷu	-10518
-31	-10519
-74	-10520
.26	-10521
/20	-10522
/25	-10523
12)	-10524
15,	-10525
166	-10526
169	-10527
209	-10528
210	-10529
28)	-10530
330	-10531
393	-10532
5">	-10533
550	-10534
7.5	-10535
74)	-10536
752	-10537
758	-10538
805	-10539
98%	-10540
:56	-10541
:58	-10542
="8	-10543
ICE	-10544
MHz	-10545
Tex	-10546
The	-10547
Xin	-10548
bor	-10549
cho	-10550
cil	-10551
cle	-10552
dBm	-10553
ece	-10554
hui	-10555
iễu	-10556
lbs	-10557
lue	-10558
omp	-10559
rat	-10560
rel	-10561
try	-10562
uru	-10563
ươm	-10564
ກົນ	-10565
ດິດ	-10566
ຖ້າ	-10567
ບັງ	-10568
ຣິກ	-10569
ລາດ	-10570
ລ່າ	-10571
ວິນ	-10572
ເພງ	-10573
ເມດ	-10574
ແພງ	-10575
້າທ	-10576
▁",	-10577
▁Af	-10578
▁Bí	-10579
▁Ca	-10580
▁Cà	-10581
▁Dy	-10582
▁FM	-10583
▁LU	-10584
▁Om	-10585
▁Rõ	-10586
▁TD	-10587
▁Ty	-10588
▁UC	-10589
▁VK	-10590
▁VM	-10591
▁VS	-10592
▁YM	-10593
▁av	-10594
▁cu	-10595
▁dì	-10596
▁eo	-10597
▁ep	-10598
▁hà	-10599
▁hô	-10600
▁li	-10601
▁lỡ	-10602
▁nạ	-10603
▁sê	-10604
▁uế	-10605
▁êm	-10606
▁ĐƯ	-10607
▁ສື	-10608
▁ອິ	-10609
▁ແດ	-10610
▁ແອ	-10611
▁ໄຮ	-10612
-125	-10613
-220	-10614
.0.0	-10615
2004	-10616
XBET	-10617
afer	-10618
appy	-10619
avas	-10620
gory	-10621
hatr	-10622
ista	-10623
ival	-10624
izab	-10625
izit	-10626
loro	-10627
made	-10628
meng	-10629
olin	-10630
onel	-10631
onge	-10632
oose	-10633
ords	-10634
phot	-10635
quir	-10636
rill	-10637
room	-10638
undg	-10639
ying	-10640
zuki	-10641
ຂ້ອງ	-10642
ດ່ວນ	-10643
ທະນະ	-10644
ປຸ່ມ	-10645
ຼລິກ	-10646
ເຫມີ	-10647
▁(24	-10648
▁(4)	-10649
▁(60	-10650
▁1.9	-10651
▁137	-10652
▁156	-10653
▁158	-10654
▁3/4	-10655
▁40,	-10656
▁550	-10657
▁6.5	-10658
▁70%	-10659
▁ATM	-10660
▁Bác	-10661
▁CTC	-10662
▁Cfb	-10663
▁Chì	-10664
▁DWG	-10665
▁Dat	-10666
▁Dol	-10667
▁Gao	-10668
▁HRC	-10669
▁Hen	-10670
▁Loa	-10671
▁NZD	-10672
▁PLT	-10673
▁PST	-10674
▁Quả	-10675
▁Rap	-10676
▁Rup	-10677
▁SPC	-10678
▁Tóm	-10679
▁TẢI	-10680
▁Ven	-10681
▁Vui	-10682
▁Wik	-10683
▁Won	-10684
▁Xám	-10685
▁Yue	-10686
▁ZLP	-10687
▁bổn	-10688
▁cấm	-10689
▁div	-10690
▁góa	-10691
▁gạt	-10692
▁gấu	-10693
▁gậy	-10694
▁hỗn	-10695
▁khứ	-10696
▁mel	-10697
▁nát	-10698
▁nét	-10699
▁reg	-10700
▁say	-10701
▁sụp	-10702
▁tem	-10703
▁thơ	-10704
▁thợ	-10705
▁tệp	-10706
▁vắc	-10707
▁xao	-10708
▁zip	-10709
▁đắn	-10710
▁ກະຕ	-10711
▁ຂົນ	-10712
▁ດູດ	-10713
▁ຕຽງ	-10714
▁ບິນ	-10715
▁ສັງ	-10716
▁ແກ້	-10717
333]:	-10718
="0.8	-10719
@163.	-10720
Forex	-10721
Haber	-10722
Người	-10723
XNUMX	-10724
addle	-10725
ayuan	-10726
ether	-10727
idget	-10728
oenix	-10729
oreal	-10730
times	-10731
trong	-10732
ulong	-10733
ກັນຍາ	-10734
ທັນວາ	-10735
ສາກົນ	-10736
ະລຸນາ	-10737
ື້ນີ້	-10738
ເຊື່ອ	-10739
ເຕືອນ	-10740
ໂອກາດ	-10741
▁0.35	-10742
▁0001	-10743
▁3,0%	-10744
▁ASME	-10745
▁Acid	-10746
▁Benz	-10747
▁Fans	-10748
▁Feat	-10749
▁Girl	-10750
▁Giúp	-10751
▁Glas	-10752
▁HTML	-10753
▁Khởi	-10754
▁Lazy	-10755
▁Moto	-10756
▁Ngôn	-10757
▁Remo	-10758
▁Sống	-10759
▁Tren	-10760
▁Xian	-10761
▁Yoga	-10762
▁alfa	-10763
▁binh	-10764
▁bạch	-10765
▁chip	-10766
▁chìa	-10767
▁city	-10768
▁phái	-10769
▁trơn	-10770
▁trầm	-10771
▁trốn	-10772
▁ຝ້າຍ	-10773
▁ລັອກ	-10774
▁ຮົ້ວ	-10775
▁ຮ້ອງ	-10776
▁ເສົາ	-10777
▁ໂດລາ	-10778
bugpot	-10779
ipment	-10780
ກໍາລັງ	-10781
ປະກະຕິ	-10782
ພຽງແຕ່	-10783
ມື້ນີ້	-10784
ໂມຊັ່ນ	-10785
▁Auger	-10786
▁CHINA	-10787
▁Drive	-10788
▁Harem	-10789
▁LASER	-10790
▁Patti	-10791
▁River	-10792
▁Seoul	-10793
▁Shaft	-10794
▁Stone	-10795
▁Swing	-10796
▁Xiong	-10797
▁buông	-10798
▁games	-10799
▁khiêu	-10800
▁khiếp	-10801
▁lamin	-10802
▁nhiễm	-10803
▁nướng	-10804
▁punch	-10805
▁thỉnh	-10806
▁trứng	-10807
▁ຈຸດເດ	-10808
▁ສີແດງ	-10809
▁ອີເມລ	-10810
-07-201	-10811
izabeth	-10812
lasting	-10813
uddhatr	-10814
unction	-10815
ລັກສະນະ	-10816
ສົ່ງອອກ	-10817
ເຕີເນັດ	-10818
▁Fisayo	-10819
▁Indian	-10820
▁Jogger	-10821
▁Khoảng	-10822
▁Lining	-10823
▁London	-10824
▁Reader	-10825
▁Themes	-10826
▁Update	-10827
▁ຜູ້ທີ່	-10828
▁ມີຄວາມ	-10829
▁ສະນັ້ນ	-10830
▁ຫນັງສື	-10831
▁ເຫດຜົນ	-10832
039333]:	-10833
osilicon	-10834
shipping	-10835
ວິທະຍາໄລ	-10836
ເກີດຂື້ນ	-10837
ໄຮໂດຼລິກ	-10838
▁Comment	-10839
▁Network	-10840
▁Quality	-10841
▁Shepher	-10842
▁Starter	-10843
▁Stepper	-10844
▁Tianjin	-10845
▁Trimmer	-10846
▁ມັນແມ່ນ	-10847
▁ລາຄາຖືກ	-10848
▁ຫຼ້າສຸດ	-10849
▁ອະທິບາຍ	-10850
="0.833">	-10851
avascript	-10852
▁86-574-6	-10853
▁Canberra	-10854
▁Ignition	-10855
▁Jacquard	-10856
▁Mercedes	-10857
▁Printing	-10858
▁ການຜະລິດ	-10859
▁ການເຂົ້າ	-10860
▁ຕໍາແຫນ່ງ	-10861
▁ປອກເປືອກ	-10862
▁Bulldozer	-10863
▁Composite	-10864
▁Elizabeth	-10865
▁bugbugpot	-10866
▁ການຮັບຮອງ	-10867
▁ໄຟອັນຕລາຍ	-10868
uddhatrends	-10869
▁0086-574-8	-10870
▁ເດືອນກັນຍາ	-10871
▁ເດືອນພະຈິກ	-10872
▁ແສງສະຫວ່າງ	-10873
▁ເດືອນພຶດສະພາ	-10874
▁Organosilicon	-10875
▁ສໍາລັບເດັກຍິງ	-10876
▁ເຄື່ອງນຸ່ງຫົ່ມ	-10877
▁Multifunctional	-10878
▁ຄວາມເປັນສ່ວນຕົວ	-10879
▁ຕົວຂຶ້ນໄປຈໍານວນ	-10880
$1	-10881
AG	-10882
KN	-10883
Na	-10884
PY	-10885
TV	-10886
hu	-10887
qi	-10888
íu	-10889
ຈິ	-10890
ຊະ	-10891
ຍຸ	-10892
-7)	-10893
-88	-10894
-98	-10895
.19	-10896
.24	-10897
.45	-10898
/32	-10899
104	-10900
129	-10901
18:	-10902
195	-10903
245	-10904
282	-10905
3.0	-10906
33,	-10907
40)	-10908
756	-10909
995	-10910
:52	-10911
ERT	-10912
ICK	-10913
IFA	-10914
Man	-10915
Max	-10916
PPT	-10917
RAR	-10918
afe	-10919
bay	-10920
cus	-10921
ees	-10922
eme	-10923
eon	-10924
ior	-10925
low	-10926
opy	-10927
osp	-10928
ovo	-10929
rob	-10930
tai	-10931
ten	-10932
ຍິນ	-10933
ນເນ	-10934
ພຽງ	-10935
ຢືມ	-10936
ລາມ	-10937
ສອນ	-10938
ຫມໍ	-10939
ຫລື	-10940
ຫົນ	-10941
ະສິ	-10942
ິຕິ	-10943
ເຫຍ	-10944
ແວດ	-10945
ແຮ່	-10946
ໂຄງ	-10947
▁$5	-10948
▁AV	-10949
▁GL	-10950
▁GM	-10951
▁GR	-10952
▁HJ	-10953
▁MU	-10954
▁Na	-10955
▁Nữ	-10956
▁RD	-10957
▁RM	-10958
▁SG	-10959
▁SY	-10960
▁VC	-10961
▁WP	-10962
▁mỹ	-10963
▁tỉ	-10964
▁wh	-10965
▁ຕີ	-10966
▁ໄມ	-10967
Form	-10968
anol	-10969
anth	-10970
bags	-10971
cess	-10972
clog	-10973
elin	-10974
flat	-10975
heng	-10976
ibal	-10977
inth	-10978
look	-10979
ours	-10980
plor	-10981
quin	-10982
razy	-10983
rodu	-10984
ship	-10985
stru	-10986
talk	-10987
test	-10988
uter	-10989
wear	-10990
ຊ່ວຍ	-10991
ນເນີ	-10992
ອ່ອນ	-10993
ເທຣດ	-10994
▁$10	-10995
▁020	-10996
▁1.4	-10997
▁151	-10998
▁3.4	-10999
▁575	-11000
▁610	-11001
▁Arr	-11002
▁BMP	-11003
▁Bre	-11004
▁Bug	-11005
▁CAR	-11006
▁CAT	-11007
▁CPU	-11008
▁CSS	-11009
▁Chữ	-11010
▁Duy	-11011
▁FDA	-11012
▁Hal	-11013
▁Hex	-11014
▁Hầu	-11015
▁Kap	-11016
▁Kẽm	-11017
▁LST	-11018
▁Lip	-11019
▁Low	-11020
▁Lốp	-11021
▁Lớn	-11022
▁Mex	-11023
▁Mun	-11024
▁NCS	-11025
▁Pur	-11026
▁RAM	-11027
▁Sat	-11028
▁SẢN	-11029
▁Wel	-11030
▁Wen	-11031
▁bik	-11032
▁bầy	-11033
▁bẫy	-11034
▁dải	-11035
▁gay	-11036
▁hoà	-11037
▁nhé	-11038
▁oem	-11039
▁phô	-11040
▁rau	-11041
▁rpm	-11042
▁rắc	-11043
▁rộn	-11044
▁san	-11045
▁ten	-11046
▁ກິນ	-11047
▁ກົມ	-11048
▁ຍົນ	-11049
▁ຖັງ	-11050
▁ບັບ	-11051
▁ປອດ	-11052
▁ປາກ	-11053
▁ປຸກ	-11054
▁ພຽງ	-11055
▁ສັບ	-11056
▁ອອນ	-11057
▁ອະນ	-11058
▁ເສດ	-11059
akarn	-11060
china	-11061
ching	-11062
elfie	-11063
imber	-11064
mania	-11065
meter	-11066
onent	-11067
oshop	-11068
rozen	-11069
undsv	-11070
width	-11071
ຂາຍໃນ	-11072
ນິຍົມ	-11073
ປະມວນ	-11074
ສະກັດ	-11075
ັກສູດ	-11076
ຽບທຽບ	-11077
▁0,5%	-11078
▁3200	-11079
▁5588	-11080
▁Circ	-11081
▁Coff	-11082
▁Cổng	-11083
▁Dian	-11084
▁Dino	-11085
▁Encr	-11086
▁Film	-11087
▁Fold	-11088
▁Golf	-11089
▁Gong	-11090
▁Good	-11091
▁HPLC	-11092
▁Hiệp	-11093
▁Josh	-11094
▁Lady	-11095
▁Màng	-11096
▁Para	-11097
▁Pass	-11098
▁Pupp	-11099
▁Russ	-11100
▁Sexy	-11101
▁Sòng	-11102
▁Taxi	-11103
▁Trao	-11104
▁Vịnh	-11105
▁XUẤT	-11106
▁cake	-11107
▁chùm	-11108
▁cong	-11109
▁khói	-11110
▁khốn	-11111
▁kids	-11112
▁lũng	-11113
▁lưỡi	-11114
▁nitơ	-11115
▁pháo	-11116
▁quái	-11117
▁rung	-11118
▁rừng	-11119
▁thun	-11120
▁Đoàn	-11121
▁đinh	-11122
▁đống	-11123
▁ຖິ້ມ	-11124
▁ປ່ອງ	-11125
▁ຢ້ານ	-11126
▁ຫວັງ	-11127
▁ເກາະ	-11128
▁ໂຫຼດ	-11129
clogic	-11130
icator	-11131
loader	-11132
ugated	-11133
ushion	-11134
ຄອບຄົວ	-11135
ຄໍາຖາມ	-11136
ພາກຮຽນ	-11137
ລາຍການ	-11138
ຫົວຂໍ້	-11139
ເຫຍື້ອ	-11140
ເຫລືອງ	-11141
ເອີຣົບ	-11142
້ວາງໃຈ	-11143
▁Activ	-11144
▁Adobe	-11145
▁Angle	-11146
▁Bosun	-11147
▁Brand	-11148
▁Canon	-11149
▁Codes	-11150
▁Cyber	-11151
▁Ether	-11152
▁Filed	-11153
▁Front	-11154
▁Green	-11155
▁Input	-11156
▁Lotus	-11157
▁MOTOR	-11158
▁Mario	-11159
▁Meter	-11160
▁Nexus	-11161
▁Nhiệm	-11162
▁Peter	-11163
▁Pharm	-11164
▁Quart	-11165
▁Randy	-11166
▁Solid	-11167
▁Stick	-11168
▁Upper	-11169
▁Vegas	-11170
▁clamp	-11171
▁elect	-11172
▁mFort	-11173
▁ngạch	-11174
▁thạch	-11175
▁trăng	-11176
▁vinyl	-11177
▁ການກະ	-11178
▁ນະຄອນ	-11179
▁ຫນ້ອຍ	-11180
▁ໃນການ	-11181
ຕາຕະລາງ	-11182
ນີ້ແມ່ນ	-11183
ນ້ໍາມັນ	-11184
ປະເທດໄທ	-11185
ພື້ນທີ່	-11186
ຫ້ອງການ	-11187
ແຂ່ງຂັນ	-11188
ແວດລ້ອມ	-11189
▁0755-2	-11190
▁Applic	-11191
▁Button	-11192
▁Client	-11193
▁Coupon	-11194
▁Duster	-11195
▁Equina	-11196
▁Intell	-11197
▁Jersey	-11198
▁Keygen	-11199
▁Laptop	-11200
▁Market	-11201
▁Martin	-11202
▁Phosph	-11203
▁Plugin	-11204
▁Sealed	-11205
▁Sleeve	-11206
▁Taslan	-11207
▁ການຄ້າ	-11208
▁ຄວບຄຸມ	-11209
▁ຕົ້ນຕໍ	-11210
▁ທໍາອິດ	-11211
▁ອອກຈາກ	-11212
▁ອະນາໄມ	-11213
inthians	-11214
ປະມວນຜົນ	-11215
ຜູ້ເຂົ້າ	-11216
ສະກົດຈິດ	-11217
▁Acetate	-11218
▁Austral	-11219
▁Medical	-11220
▁Mozilla	-11221
▁Nigeria	-11222
▁Profile	-11223
▁Slotjar	-11224
▁Trolley	-11225
▁Webcams	-11226
▁rikoooo	-11227
▁ດໍາເນີນ	-11228
▁ປະຕິທິນ	-11229
▁ພື້ນຖານ	-11230
▁ລາຄາຂາຍ	-11231
▁ຫຼັງຈາກ	-11232
▁ຮ່າງກາຍ	-11233
▁ແບ່ງປັນ	-11234
ທົນທານຕໍ່	-11235
▁80.0.180	-11236
▁Hangzhou	-11237
▁LinkedIn	-11238
▁Magnetic	-11239
▁RayHaber	-11240
▁Shepherd	-11241
▁Shopping	-11242
▁Snapchat	-11243
▁Stepping	-11244
▁Threaded	-11245
▁mFortune	-11246
▁ກິດຈະກໍາ	-11247
▁ລະບົບການ	-11248
:86-0755-2	-11249
ຂອງບໍລິສັດ	-11250
▁Component	-11251
▁Guangzhou	-11252
▁Litbright	-11253
▁Packaging	-11254
▁September	-11255
▁Zhongshan	-11256
▁ເດືອນມີນາ	-11257
▁Foundation	-11258
▁Industries	-11259
▁MetaTrader	-11260
▁ການເຮັດວຽກ	-11261
▁Corinthians	-11262
▁ດໍາລົງຊີວິດ	-11263
▁ນະໂຍບາຍຄວາມ	-11264
▁ບົດຄວາມຕໍ່ໄປ	-11265
▁ມະຫາວິທະຍາໄລ	-11266
▁ລະບົບຕ່ອງໂສ້	-11267
▁polypropylene	-11268
▁ເປັນຫຍັງເລືອກ	-11269
▁ພັດທະນາການຜະລິດ	-11270
07	-11271
4"	-11272
BB	-11273
BK	-11274
CF	-11275
FI	-11276
HI	-11277
HQ	-11278
SW	-11279
WW	-11280
YS	-11281
ga	-11282
jo	-11283
no	-11284
ຄູ	-11285
ປູ	-11286
ện	-11287
,5%	-11288
-28	-11289
-32	-11290
-4)	-11291
-58	-11292
.13	-11293
.31	-11294
.72	-11295
.74	-11296
007	-11297
008	-11298
014	-11299
019	-11300
152	-11301
19)	-11302
213	-11303
219	-11304
313	-11305
325	-11306
44)	-11307
60,	-11308
905	-11309
955	-11310
:38	-11311
:59	-11312
ALL	-11313
ASH	-11314
ASS	-11315
CCA	-11316
ERN	-11317
Khi	-11318
OSH	-11319
PAL	-11320
Sol	-11321
ado	-11322
agm	-11323
aic	-11324
aid	-11325
ait	-11326
ato	-11327
beh	-11328
gow	-11329
hon	-11330
iva	-11331
ket	-11332
los	-11333
orp	-11334
pad	-11335
phr	-11336
rar	-11337
rif	-11338
rot	-11339
saw	-11340
ugu	-11341
vis	-11342
xml	-11343
ຈະສ	-11344
ຊວງ	-11345
ຕີນ	-11346
ທູບ	-11347
ທຽມ	-11348
ພະນ	-11349
ວຽນ	-11350
ສິກ	-11351
ຮອດ	-11352
ເນຍ	-11353
ໃກ້	-11354
▁$2	-11355
▁5%	-11356
▁73	-11357
▁74	-11358
▁<0	-11359
▁<6	-11360
▁BT	-11361
▁Bề	-11362
▁CI	-11363
▁Cọ	-11364
▁KO	-11365
▁LI	-11366
▁Ni	-11367
▁Sẽ	-11368
▁bã	-11369
▁fr	-11370
▁hi	-11371
▁hư	-11372
▁ip	-11373
▁lê	-11374
▁pp	-11375
▁rỉ	-11376
▁wr	-11377
▁ຊູ	-11378
▁ໄກ	-11379
!!!!	-11380
36">	-11381
69">	-11382
="17	-11383
Drop	-11384
ECOV	-11385
EJIA	-11386
Espa	-11387
INCE	-11388
Mark	-11389
View	-11390
ades	-11391
atte	-11392
comb	-11393
door	-11394
elle	-11395
etra	-11396
hoặc	-11397
icol	-11398
inek	-11399
odeg	-11400
orge	-11401
oric	-11402
phia	-11403
puff	-11404
stop	-11405
tics	-11406
unge	-11407
ກາເຟ	-11408
ກ່າວ	-11409
ຄວ້າ	-11410
ທໍານ	-11411
ມ້ວນ	-11412
ລ້ຽງ	-11413
ອ້າງ	-11414
ເຕີ້	-11415
ເມສາ	-11416
ໂດລາ	-11417
ໃນປີ	-11418
▁(64	-11419
▁-25	-11420
▁061	-11421
▁127	-11422
▁2-8	-11423
▁235	-11424
▁245	-11425
▁3.6	-11426
▁40%	-11427
▁530	-11428
▁635	-11429
▁Ali	-11430
▁Are	-11431
▁Bio	-11432
▁Ble	-11433
▁CCN	-11434
▁Cad	-11435
▁CẢM	-11436
▁Dia	-11437
▁FOR	-11438
▁Fei	-11439
▁Ghé	-11440
▁Gấp	-11441
▁Kéo	-11442
▁LÀM	-11443
▁Lấy	-11444
▁Mol	-11445
▁Nau	-11446
▁Pak	-11447
▁Pas	-11448
▁Phu	-11449
▁Rig	-11450
▁Sal	-11451
▁Sus	-11452
▁TPR	-11453
▁Tad	-11454
▁Vai	-11455
▁Vim	-11456
▁bực	-11457
▁cốc	-11458
▁cục	-11459
▁dép	-11460
▁hẹp	-11461
▁lúa	-11462
▁lăm	-11463
▁lụa	-11464
▁ném	-11465
▁pen	-11466
▁set	-11467
▁sop	-11468
▁squ	-11469
▁sốc	-11470
▁tre	-11471
▁tím	-11472
▁tựa	-11473
▁vun	-11474
▁vân	-11475
▁Đan	-11476
▁Đứa	-11477
▁đáo	-11478
▁ກາວ	-11479
▁ຈິກ	-11480
▁ຈົນ	-11481
▁ນອນ	-11482
▁ສິບ	-11483
▁ສີ່	-11484
▁ຫານ	-11485
▁ຫ້າ	-11486
▁ແດ່	-11487
▁ໃຕ້	-11488
-1200	-11489
-1530	-11490
-2016	-11491
-21-6	-11492
9001,	-11493
arium	-11494
aving	-11495
cloud	-11496
droxy	-11497
earch	-11498
ifier	-11499
itian	-11500
reenh	-11501
watch	-11502
zania	-11503
ສະມາດ	-11504
ູ້ນໍາ	-11505
ເຊັ່ນ	-11506
▁0.02	-11507
▁0.45	-11508
▁12.5	-11509
▁146*	-11510
▁2.0%	-11511
▁2021	-11512
▁2300	-11513
▁2400	-11514
▁3600	-11515
▁5.50	-11516
▁Anch	-11517
▁Biên	-11518
▁Bông	-11519
▁Cell	-11520
▁Chaw	-11521
▁Comm	-11522
▁Core	-11523
▁DRCW	-11524
▁Dụng	-11525
▁Eric	-11526
▁Foot	-11527
▁Gian	-11528
▁Gift	-11529
▁Gram	-11530
▁Grow	-11531
▁JACK	-11532
▁Lamp	-11533
▁Mary	-11534
▁Mike	-11535
▁PART	-11536
▁Phẩm	-11537
▁Quân	-11538
▁Shut	-11539
▁Spir	-11540
▁Vlad	-11541
▁bolt	-11542
▁cart	-11543
▁chẩn	-11544
▁cool	-11545
▁dâng	-11546
▁giam	-11547
▁giãi	-11548
▁giỏi	-11549
▁gạch	-11550
▁khái	-11551
▁liều	-11552
▁lướt	-11553
▁ngón	-11554
▁ngục	-11555
▁nhạy	-11556
▁prof	-11557
▁rơle	-11558
▁size	-11559
▁tàng	-11560
▁vành	-11561
▁xoay	-11562
▁Đáng	-11563
▁ເຮືອ	-11564
▁ແຂ່ງ	-11565
▁ແຈ້ງ	-11566
▁ແຟັກ	-11567
▁ໂທຫາ	-11568
▁ໃນປີ	-11569
atural	-11570
ensile	-11571
ooster	-11572
ortele	-11573
phragm	-11574
ຄົ້ນຫາ	-11575
ຈັດການ	-11576
ຢູ່ທີ່	-11577
ລາສສິກ	-11578
ສົມບູນ	-11579
ຫົນທາງ	-11580
ະສິກໍາ	-11581
ໂຕຣນິກ	-11582
▁0.867	-11583
▁30000	-11584
▁50/60	-11585
▁50000	-11586
▁86-13	-11587
▁Adder	-11588
▁Alpha	-11589
▁Audio	-11590
▁Break	-11591
▁Broad	-11592
▁Capac	-11593
▁Click	-11594
▁Georg	-11595
▁Honda	-11596
▁Honey	-11597
▁Jerry	-11598
▁Nhanh	-11599
▁Patch	-11600
▁Plush	-11601
▁Rally	-11602
▁Sling	-11603
▁Soken	-11604
▁TRUST	-11605
▁Thích	-11606
▁Trách	-11607
▁Tuyển	-11608
▁flute	-11609
▁khuỷu	-11610
▁sight	-11611
▁titan	-11612
▁water	-11613
▁ຊອກຫາ	-11614
ECOVERY	-11615
odegrad	-11616
youtube	-11617
ຖ່າຍຮູບ	-11618
ທະນະທໍາ	-11619
ເມີນຜົນ	-11620
ໃຫມ່ຂອງ	-11621
▁43.0.2	-11622
▁Dollar	-11623
▁Greenh	-11624
▁Iphone	-11625
▁Others	-11626
▁Oxygen	-11627
▁PAYPAL	-11628
▁Random	-11629
▁Sponge	-11630
▁Suzuki	-11631
▁Transp	-11632
▁WinRAR	-11633
▁iTunes	-11634
▁khoang	-11635
▁ngưỡng	-11636
▁ດຽວນີ້	-11637
▁ສະຫມັກ	-11638
▁ແບບຟອມ	-11639
SlotSite	-11640
adelphia	-11641
cryptocr	-11642
izitinek	-11643
ກ່ຽວຂ້ອງ	-11644
ພາດສະຕິກ	-11645
ວາງສະແດງ	-11646
▁0086-13	-11647
▁Caravan	-11648
▁Colonel	-11649
▁Contact	-11650
▁Modular	-11651
▁Project	-11652
▁Remover	-11653
▁Thunder	-11654
▁Venturi	-11655
▁website	-11656
▁ຂ່າວສານ	-11657
▁ຂ້ອຍບໍ່	-11658
▁ຊື່ເຄມີ	-11659
▁ປົກກະຕິ	-11660
▁ຫມາຍເຫດ	-11661
clogiccom	-11662
ຄຣິດສະມາດ	-11663
ຄົນອັບເດດ	-11664
▁FaceTime	-11665
▁November	-11666
▁ນັກສຶກສາ	-11667
▁ອົງປະກອບ	-11668
ຫນ້າທໍາອິດ	-11669
ເລັກໂຕຣນິກ	-11670
▁Chawakarn	-11671
▁Discovery	-11672
▁saxophone	-11673
▁ຂະຫນາດຂອງ	-11674
▁ຄຸນສົມບັດ	-11675
▁ຜົນໄດ້ຮັບ	-11676
▁ລະຫັດຜ່ານ	-11677
▁ໃບອະນຸຍາດ	-11678
:86-0755-28	-11679
apublicidad	-11680
odegradable	-11681
ສາດສະຫນາຈັກ	-11682
▁Extensions	-11683
▁VirtualBox	-11684
▁insulation	-11685
▁microfiber	-11686
▁ການແກ້ໄຂໃນ	-11687
▁ຂອງພວກເຮົາ	-11688
............	-11689
▁TopSlotSite	-11690
▁trclogiccom	-11691
▁ອຸປະກອນເສີມ	-11692
▁Buddhatrends	-11693
▁Philadelphia	-11694
▁ລະດັບຄວາມສູງ	-11695
izitinekortele	-11696
ແລະຄວາມຕ້ອງການ	-11697
▁ນ້ໍາຫນັກສຸດທິ	-11698
▁ອັບເດດຫຼ້າສຸດ	-11699
▁ບົດຄວາມທີ່ຜ່ານ	-11700
BT	-11701
FT	-11702
GM	-11703
GP	-11704
HT	-11705
KO	-11706
RN	-11707
RP	-11708
TO	-11709
cz	-11710
eh	-11711
je	-11712
mh	-11713
qq	-11714
xx	-11715
ຈມ	-11716
ແຊ	-11717
່ຍ	-11718
ớc	-11719
ụt	-11720
-83	-11721
-9)	-11722
.27	-11723
.75	-11724
.77	-11725
/08	-11726
013	-11727
127	-11728
20)	-11729
206	-11730
255	-11731
404	-11732
408	-11733
50)	-11734
705	-11735
707	-11736
750	-11737
804	-11738
994	-11739
:09	-11740
:50	-11741
ECT	-11742
FCL	-11743
Get	-11744
ITS	-11745
NET	-11746
UNG	-11747
apt	-11748
chi	-11749
edi	-11750
egu	-11751
mas	-11752
mic	-11753
mmX	-11754
olv	-11755
oob	-11756
ova	-11757
trl	-11758
uda	-11759
uko	-11760
zhu	-11761
ກອບ	-11762
ຂັດ	-11763
ທອງ	-11764
ນເດ	-11765
ບຸນ	-11766
ປາກ	-11767
ປິນ	-11768
ຟລີ	-11769
ສີ່	-11770
ແກ້	-11771
ແຍກ	-11772
▁#1	-11773
▁//	-11774
▁8)	-11775
▁BK	-11776
▁BV	-11777
▁Bé	-11778
▁Dư	-11779
▁Hm	-11780
▁Iv	-11781
▁NP	-11782
▁OM	-11783
▁PI	-11784
▁Rh	-11785
▁SX	-11786
▁Sô	-11787
▁UH	-11788
▁WJ	-11789
▁XX	-11790
▁ZD	-11791
▁af	-11792
▁tơ	-11793
▁uy	-11794
▁vú	-11795
▁xà	-11796
▁ám	-11797
▁ຈໍ	-11798
▁ດູ	-11799
▁ແຄ	-11800
▁ແມ	-11801
▁ủy	-11802
-250	-11803
-380	-11804
015@	-11805
Fran	-11806
Tiến	-11807
Wave	-11808
agle	-11809
anel	-11810
anes	-11811
atri	-11812
auge	-11813
ault	-11814
cing	-11815
comm	-11816
ebar	-11817
enny	-11818
ests	-11819
lose	-11820
loth	-11821
nhai	-11822
ront	-11823
uric	-11824
utan	-11825
ກິ່ງ	-11826
ຄັ້ງ	-11827
ຈມຕີ	-11828
ຈຶ່ງ	-11829
ຊິ້ນ	-11830
ດັ່ງ	-11831
ປ້າຍ	-11832
ຫລາດ	-11833
ະການ	-11834
ຸມັດ	-11835
ເຈ້ຍ	-11836
ເທົາ	-11837
ເບີກ	-11838
▁0-5	-11839
▁148	-11840
▁192	-11841
▁22:	-11842
▁325	-11843
▁334	-11844
▁390	-11845
▁5.2	-11846
▁518	-11847
▁720	-11848
▁780	-11849
▁8.8	-11850
▁950	-11851
▁99%	-11852
▁Abs	-11853
▁Bad	-11854
▁Bor	-11855
▁Bức	-11856
▁CÁC	-11857
▁DIY	-11858
▁DMD	-11859
▁EEC	-11860
▁FRP	-11861
▁Fog	-11862
▁Giỏ	-11863
▁Her	-11864
▁Hub	-11865
▁Huy	-11866
▁Khí	-11867
▁Kun	-11868
▁Lug	-11869
▁Lâm	-11870
▁Nav	-11871
▁Nit	-11872
▁Ram	-11873
▁STE	-11874
▁Sắp	-11875
▁TEM	-11876
▁Tầm	-11877
▁VCI	-11878
▁VPS	-11879
▁WCB	-11880
▁Wan	-11881
▁Xác	-11882
▁bội	-11883
▁cấy	-11884
▁cởi	-11885
▁gạo	-11886
▁gập	-11887
▁gối	-11888
▁har	-11889
▁keo	-11890
▁key	-11891
▁lát	-11892
▁par	-11893
▁pcb	-11894
▁quỹ	-11895
▁rad	-11896
▁ste	-11897
▁súc	-11898
▁trễ	-11899
▁vấp	-11900
▁vất	-11901
▁xâm	-11902
▁xóa	-11903
▁Đảm	-11904
▁Đầm	-11905
▁Đột	-11906
▁ຊາດ	-11907
▁ຍອດ	-11908
▁ທິດ	-11909
▁ນົກ	-11910
▁ປັນ	-11911
▁ພືດ	-11912
▁ສາກ	-11913
▁ຫມໍ	-11914
89.00	-11915
="1.2	-11916
Adele	-11917
Flare	-11918
Không	-11919
abase	-11920
aller	-11921
alves	-11922
aruto	-11923
eroon	-11924
field	-11925
haber	-11926
hours	-11927
ibaba	-11928
ining	-11929
ordan	-11930
oshan	-11931
paper	-11932
pport	-11933
tdown	-11934
ປະດັບ	-11935
ພະນັນ	-11936
ເທົ່າ	-11937
ແລະສີ	-11938
▁(1,0	-11939
▁10.1	-11940
▁1280	-11941
▁1550	-11942
▁1950	-11943
▁Acer	-11944
▁Aich	-11945
▁Biến	-11946
▁Carl	-11947
▁Cass	-11948
▁Dept	-11949
▁Door	-11950
▁Duty	-11951
▁FIFA	-11952
▁FXCC	-11953
▁Fish	-11954
▁Ford	-11955
▁Giày	-11956
▁Hill	-11957
▁Hung	-11958
▁Info	-11959
▁Insp	-11960
▁Khăn	-11961
▁MACH	-11962
▁MPPT	-11963
▁Nema	-11964
▁Nhạc	-11965
▁Qian	-11966
▁TCCA	-11967
▁Toán	-11968
▁Whit	-11969
▁Wifi	-11970
▁WinM	-11971
▁chốc	-11972
▁dũng	-11973
▁hoãn	-11974
▁hoại	-11975
▁khéo	-11976
▁mill	-11977
▁măng	-11978
▁ngơi	-11979
▁nhấp	-11980
▁nhịp	-11981
▁ofer	-11982
▁over	-11983
▁roll	-11984
▁rách	-11985
▁snow	-11986
▁stud	-11987
▁tart	-11988
▁thẩm	-11989
▁tiệc	-11990
▁đoạt	-11991
▁ຍື່ນ	-11992
▁ດ້ານ	-11993
▁ທະນາ	-11994
▁ລຸ້ນ	-11995
▁ແຂ້ວ	-11996
▁ແຕ້ມ	-11997
▁ແຫ່ງ	-11998
307302	-11999
acelet	-12000
lastic	-12001
otland	-12002
ottery	-12003
plorer	-12004
setnet	-12005
ຈະເປັນ	-12006
ເອັນຊີ	-12007
ໂຮງງານ	-12008
▁(866)	-12009
▁2017.	-12010
▁Chrom	-12011
▁Crazy	-12012
▁Hoang	-12013
▁Holms	-12014
▁Jumbo	-12015
▁Magic	-12016
▁Mahar	-12017
▁Maria	-12018
▁Minne	-12019
▁Monop	-12020
▁Ninja	-12021
▁Posts	-12022
▁Razor	-12023
▁Shack	-12024
▁Templ	-12025
▁Times	-12026
▁Turbo	-12027
▁brush	-12028
▁phụng	-12029
▁relay	-12030
▁tuyên	-12031
▁twill	-12032
▁ກະດານ	-12033
▁ທະຫານ	-12034
▁ບັນດາ	-12035
▁ປະມານ	-12036
▁ສັກຢາ	-12037
▁ສິດທິ	-12038
▁ອົງສາ	-12039
atrader	-12040
duction	-12041
enolone	-12042
ography	-12043
ຄໍາສັ່ງ	-12044
ຮູບເງົາ	-12045
ເຂົ້າໃຈ	-12046
▁Airbus	-12047
▁Berlin	-12048
▁Buckle	-12049
▁Chuyện	-12050
▁Expert	-12051
▁Mexico	-12052
▁Module	-12053
▁Munich	-12054
▁Pusher	-12055
▁Resort	-12056
▁Robert	-12057
▁Summer	-12058
▁Supply	-12059
▁Vladim	-12060
▁ກະລຸນາ	-12061
▁ປັບປຸງ	-12062
▁ລໍາໂພງ	-12063
▁ສິນຄ້າ	-12064
▁ໂຮງງານ	-12065
▁ໃນໄລຍະ	-12066
elerator	-12067
otrading	-12068
uancheng	-12069
undsvall	-12070
ຄວາມເຢັນ	-12071
ວກເຮົາມີ	-12072
▁0086-15	-12073
▁Adapter	-12074
▁Advance	-12075
▁Charles	-12076
▁Classic	-12077
▁Extract	-12078
▁Fenghua	-12079
▁Glasgow	-12080
▁Graphic	-12081
▁Optical	-12082
▁TRUSTED	-12083
▁Website	-12084
▁Wedding	-12085
▁Zhenhai	-12086
▁trailer	-12087
▁venturi	-12088
▁ກາງແຈ້ງ	-12089
▁ຄລາສສິກ	-12090
▁ຄວາມສຸກ	-12091
▁ຈົດຫມາຍ	-12092
▁ສະຖາບັນ	-12093
▁ສະມາຊິກ	-12094
▁ຮູບຮ່າງ	-12095
photoreal	-12096
ຊອບແວຫຼາຍ	-12097
▁0086-574	-12098
▁American	-12099
▁Globalso	-12100
▁Intellig	-12101
▁Stamping	-12102
▁Tanzania	-12103
▁beadlock	-12104
▁citycoco	-12105
▁ພິຈາລະນາ	-12106
ສໍາເລັດຂອງ	-12107
▁Extension	-12108
▁Protector	-12109
▁Websetnet	-12110
▁ການສະເຫນີ	-12111
▁ຄວາມລະອຽດ	-12112
▁ຊ່ວຍເຫຼືອ	-12113
▁CloudFlare	-12114
▁Controller	-12115
▁Metatrader	-12116
▁Soundcloud	-12117
▁ອິນເຕີເນັດ	-12118
▁ເດືອນທັນວາ	-12119
ການຝຶກອົບຮົມ	-12120
ດ້ານຜົນກະທົບ	-12121
▁Colonelwing	-12122
▁Minneapolis	-12123
▁polyethylene	-12124
▁ການນໍາສະເຫນີ	-12125
▁ຈໍານວນຜູ້ເຂົ້າ	-12126
▁ເບິ່ງຊອບແວຫຼາຍ	-12127
"]	-12128
->	-12129
Bo	-12130
CR	-12131
DB	-12132
NE	-12133
SG	-12134
Us	-12135
XI	-12136
xt	-12137
ÀI	-12138
òm	-12139
ýt	-12140
ຄໍ	-12141
ຖບ	-12142
▁q	-12143
-34	-12144
-37	-12145
-56	-12146
-6)	-12147
-92	-12148
.39	-12149
.55	-12150
.98	-12151
10-	-12152
116	-12153
159	-12154
17,	-12155
20,	-12156
205	-12157
231	-12158
308	-12159
319	-12160
326	-12161
356	-12162
728	-12163
75)	-12164
8">	-12165
8-1	-12166
8.8	-12167
90)	-12168
99,	-12169
998	-12170
ARE	-12171
ATE	-12172
Cân	-12173
LES	-12174
Nhà	-12175
ORK	-12176
ORT	-12177
OWN	-12178
Out	-12179
Sec	-12180
YRT	-12181
ams	-12182
aus	-12183
chn	-12184
cut	-12185
dam	-12186
emy	-12187
ful	-12188
gov	-12189
hrs	-12190
iOS	-12191
icy	-12192
ilt	-12193
kia	-12194
mVp	-12195
ofa	-12196
oxy	-12197
rui	-12198
run	-12199
tes	-12200
tin	-12201
ubs	-12202
val	-12203
với	-12204
ylv	-12205
ກອນ	-12206
ຂອບ	-12207
ຊວນ	-12208
ຕຽງ	-12209
ທີມ	-12210
ອາງ	-12211
ອີງ	-12212
ິຈິ	-12213
ີເມ	-12214
ົ່ນ	-12215
ແກນ	-12216
ແກະ	-12217
ແນກ	-12218
່ອມ	-12219
ếch	-12220
▁->	-12221
▁BB	-12222
▁CX	-12223
▁DG	-12224
▁Dj	-12225
▁FD	-12226
▁GA	-12227
▁GT	-12228
▁HC	-12229
▁IB	-12230
▁IV	-12231
▁KJ	-12232
▁Pt	-12233
▁Rơ	-12234
▁SM	-12235
▁Tv	-12236
▁Ut	-12237
▁XM	-12238
▁ev	-12239
▁fo	-12240
▁mỏ	-12241
▁os	-12242
▁ws	-12243
▁óc	-12244
▁ôn	-12245
▁ໂຟ	-12246
-0.6	-12247
-10)	-12248
-180	-12249
.500	-12250
1100	-12251
37">	-12252
67">	-12253
73">	-12254
="3.	-12255
Braz	-12256
EMIC	-12257
GEAR	-12258
High	-12259
LINE	-12260
PPER	-12261
acer	-12262
ason	-12263
bang	-12264
digy	-12265
emen	-12266
etic	-12267
fect	-12268
flow	-12269
iful	-12270
igan	-12271
imum	-12272
ique	-12273
kins	-12274
mesh	-12275
news	-12276
odia	-12277
onav	-12278
ream	-12279
rule	-12280
uary	-12281
ways	-12282
ylum	-12283
ômét	-12284
ຊື່ອ	-12285
ປະຊາ	-12286
ຢ້ານ	-12287
ລີ່ຍ	-12288
ລ້າງ	-12289
ຫຍິບ	-12290
ຮ້າຍ	-12291
ື້ອງ	-12292
ເກົາ	-12293
ເວັບ	-12294
ໂປໂລ	-12295
▁#10	-12296
▁$20	-12297
▁132	-12298
▁138	-12299
▁3,5	-12300
▁3.8	-12301
▁430	-12302
▁5,5	-12303
▁5.3	-12304
▁6,5	-12305
▁80%	-12306
▁9.6	-12307
▁960	-12308
▁AWS	-12309
▁Abu	-12310
▁Arc	-12311
▁Aud	-12312
▁Bed	-12313
▁Bob	-12314
▁Bụi	-12315
▁CWS	-12316
▁Don	-12317
▁DÂY	-12318
▁EFL	-12319
▁ESD	-12320
▁Env	-12321
▁FMS	-12322
▁Fai	-12323
▁Fed	-12324
▁Fun	-12325
▁GJJ	-12326
▁Hóa	-12327
▁JPG	-12328
▁Jud	-12329
▁Len	-12330
▁Lim	-12331
▁Lov	-12332
▁Luc	-12333
▁Lôn	-12334
▁Mei	-12335
▁Mất	-12336
▁NHI	-12337
▁NYE	-12338
▁Pic	-12339
▁Rez	-12340
▁Rio	-12341
▁Rub	-12342
▁Rug	-12343
▁SAE	-12344
▁Sai	-12345
▁Sir	-12346
▁Tie	-12347
▁Vài	-12348
▁Wax	-12349
▁Yun	-12350
▁bấy	-12351
▁bẩy	-12352
▁bắc	-12353
▁bốc	-12354
▁day	-12355
▁dec	-12356
▁dặm	-12357
▁dội	-12358
▁hét	-12359
▁log	-12360
▁lõi	-12361
▁max	-12362
▁nhi	-12363
▁nón	-12364
▁quê	-12365
▁tọa	-12366
▁voi	-12367
▁Đạo	-12368
▁ກົກ	-12369
▁ດົນ	-12370
▁ທົບ	-12371
▁ບອກ	-12372
▁ບາຍ	-12373
▁ຟ້າ	-12374
▁ມັງ	-12375
▁ລວດ	-12376
▁ສອບ	-12377
▁ແຂງ	-12378
▁ແນະ	-12379
▁ໄຫຼ	-12380
-2009	-12381
-6000	-12382
="1.4	-12383
Class	-12384
Cloud	-12385
Falls	-12386
aight	-12387
ample	-12388
ashfl	-12389
burgh	-12390
ccion	-12391
eedle	-12392
eland	-12393
ellow	-12394
games	-12395
gmail	-12396
ipple	-12397
otein	-12398
other	-12399
shirt	-12400
utsch	-12401
water	-12402
woven	-12403
ກວດກາ	-12404
ຄອນເທ	-12405
ຊີບໃນ	-12406
ປະລາດ	-12407
ສັກຢາ	-12408
ສີດໍາ	-12409
ຫນຸ່ມ	-12410
ິງຕັນ	-12411
ໂດເມນ	-12412
▁2800	-12413
▁4800	-12414
▁5.00	-12415
▁Actu	-12416
▁Arab	-12417
▁Axis	-12418
▁BLDC	-12419
▁Bldg	-12420
▁Chan	-12421
▁Chim	-12422
▁Cạnh	-12423
▁Diff	-12424
▁Disk	-12425
▁EPDM	-12426
▁Fang	-12427
▁Fest	-12428
▁Gard	-12429
▁Heat	-12430
▁HÀNH	-12431
▁Ital	-12432
▁Moon	-12433
▁Nông	-12434
▁Plan	-12435
▁Rain	-12436
▁RoHS	-12437
▁Shim	-12438
▁TGGD	-12439
▁TSJS	-12440
▁Tiết	-12441
▁Tuân	-12442
▁Xbox	-12443
▁Xung	-12444
▁buýt	-12445
▁bênh	-12446
▁bụng	-12447
▁chay	-12448
▁corr	-12449
▁dược	-12450
▁hard	-12451
▁hell	-12452
▁hước	-12453
▁muộn	-12454
▁ngắt	-12455
▁nhăn	-12456
▁ruột	-12457
▁rãnh	-12458
▁show	-12459
▁thắt	-12460
▁vồng	-12461
▁đằng	-12462
▁đụng	-12463
▁ຂ້ອງ	-12464
▁ຖ່ານ	-12465
▁ຫມວກ	-12466
▁ຫມຶກ	-12467
▁ອ້າຍ	-12468
▁ຮ້າຍ	-12469
▁ເພາະ	-12470
▁ເຫນີ	-12471
EJIANG	-12472
aratus	-12473
eshine	-12474
estane	-12475
ipedia	-12476
ipstop	-12477
leated	-12478
ometer	-12479
usheng	-12480
ການຊື້	-12481
ກໍລະນີ	-12482
ຄາສິໂນ	-12483
ດອກໄມ້	-12484
ທາລະນະ	-12485
ທີ່ບໍ່	-12486
ທໍານຽມ	-12487
ບວນການ	-12488
ລາຍຊື່	-12489
ສໍາອາງ	-12490
ານາຈັກ	-12491
ເສລີ່ຍ	-12492
▁+8618	-12493
▁-----	-12494
▁17:00	-12495
▁2013,	-12496
▁50-60	-12497
▁Bingo	-12498
▁Brown	-12499
▁Champ	-12500
▁Clean	-12501
▁Franc	-12502
▁Gương	-12503
▁Henry	-12504
▁Lathe	-12505
▁Liang	-12506
▁MySQL	-12507
▁Nauki	-12508
▁Ngươi	-12509
▁Penny	-12510
▁Quang	-12511
▁Rayon	-12512
▁Spect	-12513
▁TRANG	-12514
▁Tutor	-12515
▁Vimeo	-12516
▁chiếm	-12517
▁pulse	-12518
▁silic	-12519
▁thung	-12520
▁xưởng	-12521
▁ກໍາໄລ	-12522
▁ຄວາມຊ	-12523
▁ທີ່ມີ	-12524
▁ຫນຸ່ມ	-12525
▁ອາຊຽນ	-12526
▁ເນື້ອ	-12527
▁ໂອກາດ	-12528
2020-03	-12529
Lottery	-12530
ategory	-12531
cciones	-12532
ichrist	-12533
ຄວາມຫນາ	-12534
ປັບແຕ່ງ	-12535
ສຸຂະພາບ	-12536
▁$89.00	-12537
▁(5-10)	-12538
▁86-757	-12539
▁Anchor	-12540
▁Charge	-12541
▁Columb	-12542
▁Corner	-12543
▁Cosmos	-12544
▁Gaming	-12545
▁Hashfl	-12546
▁Heroes	-12547
▁Jordan	-12548
▁Methyl	-12549
▁Nevada	-12550
▁Pepper	-12551
▁Python	-12552
▁Schuko	-12553
▁Valves	-12554
▁harley	-12555
▁jacket	-12556
▁khuynh	-12557
▁khuyết	-12558
▁pixels	-12559
▁ກາງເກງ	-12560
▁ການຕອບ	-12561
▁ຄໍາສັບ	-12562
▁ໄວລຸ້ນ	-12563
.09.2013	-12564
ທໍາມະຊາດ	-12565
ສະກັດຈາກ	-12566
ົດສະຕາລີ	-12567
ເຫມາະສົມ	-12568
▁Cleaner	-12569
▁Coating	-12570
▁Houston	-12571
▁Jiulong	-12572
▁Kitchen	-12573
▁Pattern	-12574
▁Podcast	-12575
▁Replica	-12576
▁Rotator	-12577
▁Tianept	-12578
▁bassoon	-12579
▁kilômét	-12580
▁reprodu	-12581
▁ຄວາມງາມ	-12582
▁ດູດຝຸ່ນ	-12583
▁ທະນາຄານ	-12584
▁ເງິນກູ້	-12585
▁ເຕົາອົບ	-12586
ການທົດສອບ	-12587
ຄອນເທນເນີ	-12588
ເຄື່ອງພິມ	-12589
▁Adventus	-12590
▁Bearings	-12591
▁Business	-12592
▁Cameroon	-12593
▁Detector	-12594
▁Featured	-12595
▁Fenglong	-12596
▁Terminal	-12597
▁Virginia	-12598
▁ZHEJIANG	-12599
▁ທາງເລືອກ	-12600
▁ສິດທິພາບ	-12601
ຄວາມກົດດັນ	-12602
ປະຕິບັດການ	-12603
ປະສິດທິພາບ	-12604
▁Australia	-12605
▁Chengyang	-12606
▁CoinFalls	-12607
▁Countdown	-12608
▁Hashflare	-12609
▁Hongwugas	-12610
▁Monoplace	-12611
▁Photoshop	-12612
▁Technical	-12613
▁Transposh	-12614
▁Wordpress	-12615
▁ຄ່າທໍານຽມ	-12616
▁ໄດ້ຕະຫຼອດ	-12617
▁Greenhouse	-12618
▁ຂໍ້ກໍາຫນົດ	-12619
▁ລາຄາປະກະຕິ	-12620
▁ລາຄາເສລີ່ຍ	-12621
▁ວັດທະນະທໍາ	-12622
ເຮັດຄວາມເຢັນ	-12623
▁Instruments	-12624
▁ຄວາມແມ່ນຍໍາ	-12625
▁ວິທີການສ້າງ	-12626
▁ສິດທິພາບສູງ	-12627
▁Professional	-12628
▁ກັບຄືນໄປບ່ອນ	-12629
▁ຄວາມເຂັ້ມແຂງ	-12630
▁ໃບຢັ້ງຢືນການ	-12631
▁ເຂົ້າສູ່ລະບົບ	-12632
▁ເງິນຝາກຄໍາວ່າ	-12633
▁Cryptocurrency	-12634
▁ຄວາມສາມາດໃນການ	-12635
.’	-12636
6-	-12637
Ba	-12638
Op	-12639
SM	-12640
Si	-12641
XE	-12642
cu	-12643
gg	-12644
gl	-12645
kn	-12646
rs	-12647
vv	-12648
zi	-12649
ÀN	-12650
ês	-12651
ĩu	-12652
ກີ	-12653
ພໍ	-12654
ຢູ	-12655
ຣາ	-12656
ວີ	-12657
ໂຊ	-12658
-87	-12659
/03	-12660
01)	-12661
011	-12662
10)	-12663
108	-12664
131	-12665
198	-12666
284	-12667
3-2	-12668
306	-12669
33.	-12670
35,	-12671
366	-12672
4.2	-12673
41)	-12674
443	-12675
45)	-12676
485	-12677
6.5	-12678
603	-12679
772	-12680
802	-12681
806	-12682
88.	-12683
90%	-12684
902	-12685
980	-12686
:03	-12687
:04	-12688
ACH	-12689
ATA	-12690
Col	-12691
ECH	-12692
ECO	-12693
ISO	-12694
Mon	-12695
PCV	-12696
POT	-12697
RPM	-12698
VDC	-12699
aux	-12700
bie	-12701
but	-12702
che	-12703
eer	-12704
err	-12705
ewe	-12706
fid	-12707
fil	-12708
gie	-12709
ibe	-12710
icr	-12711
idi	-12712
ocs	-12713
olf	-12714
oug	-12715
shu	-12716
uli	-12717
ÀNH	-12718
ດິບ	-12719
ດຶງ	-12720
ພຸດ	-12721
ມຸມ	-12722
ີນິ	-12723
ຽວກ	-12724
ເຈຍ	-12725
ເຈນ	-12726
ແຜ່	-12727
ẵng	-12728
▁#8	-12729
▁'*	-12730
▁**	-12731
▁:)	-12732
▁Aj	-12733
▁BP	-12734
▁Bể	-12735
▁DW	-12736
▁GF	-12737
▁HE	-12738
▁HK	-12739
▁JF	-12740
▁LP	-12741
▁MK	-12742
▁MN	-12743
▁NF	-12744
▁NV	-12745
▁RT	-12746
▁Vô	-12747
▁XE	-12748
▁hr	-12749
▁hố	-12750
▁jw	-12751
▁ok	-12752
▁rc	-12753
▁si	-12754
▁sỹ	-12755
▁us	-12756
▁uv	-12757
▁vỗ	-12758
▁đà	-12759
▁ຈຸ	-12760
▁ຊາ	-12761
▁ໂພ	-12762
-002	-12763
-360	-12764
-738	-12765
3.40	-12766
4000	-12767
:86-	-12768
ache	-12769
afil	-12770
ahoo	-12771
aked	-12772
arge	-12773
atar	-12774
atiu	-12775
away	-12776
body	-12777
chin	-12778
eral	-12779
gant	-12780
gles	-12781
habi	-12782
ibon	-12783
mill	-12784
ocus	-12785
oman	-12786
otal	-12787
rice	-12788
rink	-12789
urai	-12790
uyao	-12791
ysis	-12792
ຊ່ອງ	-12793
ພລາສ	-12794
ລາມິ	-12795
ສະຫຼ	-12796
ະພາດ	-12797
ີເມວ	-12798
ເຊັນ	-12799
ເຊີຍ	-12800
ເພັດ	-12801
ເລີກ	-12802
▁(16	-12803
▁(22	-12804
▁(29	-12805
▁(76	-12806
▁0-4	-12807
▁025	-12808
▁086	-12809
▁107	-12810
▁117	-12811
▁152	-12812
▁159	-12813
▁165	-12814
▁189	-12815
▁20'	-12816
▁21.	-12817
▁290	-12818
▁3-4	-12819
▁3-8	-12820
▁303	-12821
▁311	-12822
▁447	-12823
▁45,	-12824
▁460	-12825
▁520	-12826
▁525	-12827
▁580	-12828
▁6.1	-12829
▁98%	-12830
▁ACC	-12831
▁ATA	-12832
▁Blo	-12833
▁Bra	-12834
▁Bát	-12835
▁CAO	-12836
▁Cin	-12837
▁Cậu	-12838
▁Cặp	-12839
▁DMC	-12840
▁DVR	-12841
▁Def	-12842
▁Dur	-12843
▁Dyn	-12844
▁Dấu	-12845
▁Fir	-12846
▁Fut	-12847
▁Gam	-12848
▁Gel	-12849
▁Hắn	-12850
▁IAA	-12851
▁ICO	-12852
▁IPG	-12853
▁JPY	-12854
▁Kev	-12855
▁Kid	-12856
▁Kop	-12857
▁Lai	-12858
▁Lub	-12859
▁Lun	-12860
▁Mực	-12861
▁NHÀ	-12862
▁Nên	-12863
▁Nền	-12864
▁Ped	-12865
▁Pig	-12866
▁Que	-12867
▁SEK	-12868
▁Sin	-12869
▁Sky	-12870
▁Sắt	-12871
▁TRƯ	-12872
▁Thi	-12873
▁Tod	-12874
▁Tắt	-12875
▁Vac	-12876
▁Vel	-12877
▁Vil	-12878
▁Vít	-12879
▁XHY	-12880
▁YES	-12881
▁aut	-12882
▁bia	-12883
▁csg	-12884
▁cắn	-12885
▁dẹp	-12886
▁lbs	-12887
▁lây	-12888
▁mol	-12889
▁nhã	-12890
▁nom	-12891
▁not	-12892
▁năn	-12893
▁nạp	-12894
▁nếp	-12895
▁nệm	-12896
▁pip	-12897
▁tab	-12898
▁tag	-12899
▁ván	-12900
▁xám	-12901
▁xốp	-12902
▁ຄົງ	-12903
▁ຈັບ	-12904
▁ຊົນ	-12905
▁ຍອມ	-12906
▁ນາມ	-12907
▁ຜັກ	-12908
▁ຜິວ	-12909
▁ຝຶກ	-12910
▁ພວງ	-12911
▁ຟລີ	-12912
▁ມິນ	-12913
▁ມຸງ	-12914
▁ລົບ	-12915
▁ສາວ	-12916
▁ເຕີ	-12917
▁ແຜ່	-12918
▁ໂຊກ	-12919
▁ໂຕນ	-12920
-2013	-12921
-3015	-12922
-9033	-12923
/2020	-12924
1,000	-12925
769-8	-12926
Những	-12927
PCVET	-12928
Shell	-12929
achin	-12930
acing	-12931
acket	-12932
actiC	-12933
echat	-12934
erine	-12935
ictor	-12936
ikora	-12937
names	-12938
onald	-12939
order	-12940
ottle	-12941
riend	-12942
rifug	-12943
uking	-12944
uteng	-12945
verin	-12946
ກາຕູນ	-12947
ຊະນິດ	-12948
ທິການ	-12949
ປຶກສາ	-12950
ຝຣັ່ງ	-12951
ລະບຽບ	-12952
ົ່ງຫຍ	-12953
ຽວກັນ	-12954
ເກົ່າ	-12955
ເຊົ່າ	-12956
ເຊົ້າ	-12957
▁----	-12958
▁1548	-12959
▁1914	-12960
▁2001	-12961
▁2100	-12962
▁8:30	-12963
▁Base	-12964
▁Bath	-12965
▁Beau	-12966
▁Boom	-12967
▁Bulb	-12968
▁CTNS	-12969
▁Chúc	-12970
▁Club	-12971
▁Coat	-12972
▁Coca	-12973
▁Dail	-12974
▁Dash	-12975
▁Dual	-12976
▁Dyed	-12977
▁Ease	-12978
▁Euro	-12979
▁Falk	-12980
▁Foil	-12981
▁Gate	-12982
▁Give	-12983
▁Hans	-12984
▁Hood	-12985
▁Jane	-12986
▁Jeff	-12987
▁Jomo	-12988
▁Kang	-12989
▁Lace	-12990
▁Load	-12991
▁Mont	-12992
▁Muốn	-12993
▁Mạch	-12994
▁NGÀY	-12995
▁Nghị	-12996
▁PPGI	-12997
▁Ping	-12998
▁Root	-12999
▁Stop	-13000
▁Ther	-13001
▁Trạm	-13002
▁Twin	-13003
▁Wang	-13004
▁Xinh	-13005
▁chải	-13006
▁cont	-13007
▁demo	-13008
▁hiếm	-13009
▁hung	-13010
▁hãng	-13011
▁khoẻ	-13012
▁khôi	-13013
▁muối	-13014
▁mãnh	-13015
▁ngạo	-13016
▁ngợp	-13017
▁nhọc	-13018
▁nắng	-13019
▁phot	-13020
▁star	-13021
▁test	-13022
▁thuỷ	-13023
▁thơm	-13024
▁thạo	-13025
▁thầm	-13026
▁trào	-13027
▁tube	-13028
▁wiki	-13029
▁điềm	-13030
▁ຊະນະ	-13031
▁ຍ່າງ	-13032
▁ທ່ຽວ	-13033
▁ນັ່ງ	-13034
▁ຫິມະ	-13035
▁ອະນຸ	-13036
▁ຮ່ອງ	-13037
▁ເຂັມ	-13038
▁ເພັດ	-13039
▁ເລີຍ	-13040
▁ແລ່ນ	-13041
▁ແຫ້ງ	-13042
-18:00	-13043
-738-5	-13044
Player	-13045
Sample	-13046
anoate	-13047
asives	-13048
atcher	-13049
aville	-13050
bridge	-13051
engers	-13052
ington	-13053
ission	-13054
ithuan	-13055
mobile	-13056
orning	-13057
ousine	-13058
ການພິມ	-13059
ຂັບລົດ	-13060
ຄອມພິວ	-13061
ຕົ້ນຕໍ	-13062
ປັບປຸງ	-13063
ພູເຂົາ	-13064
ລັດເຊຍ	-13065
ລ່າສັດ	-13066
ຫມໍ້ໄຟ	-13067
ຫາກວ່າ	-13068
ຮ່ວມມື	-13069
ັກກິ່ງ	-13070
ີນິເຈີ	-13071
ົ່ານີ້	-13072
ໂດຍກົງ	-13073
ໃຊ້ໄດ້	-13074
▁1,000	-13075
▁15000	-13076
▁2020,	-13077
▁86-15	-13078
▁Cabin	-13079
▁Chima	-13080
▁Cloth	-13081
▁Cobit	-13082
▁Crate	-13083
▁Dhabi	-13084
▁Final	-13085
▁Focus	-13086
▁Human	-13087
▁Jewel	-13088
▁Kenya	-13089
▁Khổng	-13090
▁Logic	-13091
▁Louis	-13092
▁METAL	-13093
▁Matiu	-13094
▁Matte	-13095
▁Medic	-13096
▁Panda	-13097
▁Sonic	-13098
▁Trust	-13099
▁Trịnh	-13100
▁Worth	-13101
▁Yuyao	-13102
▁chiết	-13103
▁giáng	-13104
▁holog	-13105
▁luồng	-13106
▁ngưng	-13107
▁siêng	-13108
▁smart	-13109
▁spool	-13110
▁thịnh	-13111
▁trinh	-13112
▁virus	-13113
▁ພະຍາດ	-13114
▁ຫມັ້ນ	-13115
▁ອະພາດ	-13116
▁ເຊົ່າ	-13117
athable	-13118
charger	-13119
ibrator	-13120
olypden	-13121
ຄຸນະພາບ	-13122
ຜູ້ໃຫຍ່	-13123
ລາມິເຕີ	-13124
ຮ່າງກາຍ	-13125
ົ້າຫມາຍ	-13126
▁8.2.35	-13127
▁Bucket	-13128
▁Domain	-13129
▁Editor	-13130
▁Handle	-13131
▁JobDes	-13132
▁Kaplan	-13133
▁Kosher	-13134
▁Marine	-13135
▁Meihua	-13136
▁Option	-13137
▁PRINCE	-13138
▁Photos	-13139
▁Sketch	-13140
▁Sports	-13141
▁Taylor	-13142
▁choáng	-13143
▁filter	-13144
▁webcam	-13145
▁zombie	-13146
▁ຕົນເອງ	-13147
▁ທອງແດງ	-13148
▁ທີ່ພັກ	-13149
▁ນໍາທິດ	-13150
▁ວັນພຸດ	-13151
▁ສູນເສຍ	-13152
▁ຮຽນຮູ້	-13153
▁ເຫດການ	-13154
,000,000	-13155
actiCool	-13156
urethane	-13157
ຊື່ອີເມວ	-13158
ປະເພດຂອງ	-13159
ລາຍລະອຽດ	-13160
ແມ່ນຫຍັງ	-13161
▁Bracket	-13162
▁Carbide	-13163
▁Chengdu	-13164
▁Diamond	-13165
▁Electro	-13166
▁Element	-13167
▁Holding	-13168
▁JACKPOT	-13169
▁NCPCVET	-13170
▁Partner	-13171
▁Rolling	-13172
▁Russell	-13173
▁Textile	-13174
▁Vietnam	-13175
▁Webtalk	-13176
▁lithium	-13177
▁nghiêng	-13178
▁stretch	-13179
▁ການສ້າງ	-13180
▁ວັນເສົາ	-13181
▁ສຸດທ້າຍ	-13182
▁ອາຍແກັສ	-13183
▁ແຂ່ງລົດ	-13184
ການນໍາໃຊ້	-13185
ເຄື່ອງຕັດ	-13186
ເຄື່ອນໄຫວ	-13187
ໄດ້ຮັບການ	-13188
▁0086-311	-13189
▁Bracelet	-13190
▁Explorer	-13191
▁Handmade	-13192
▁Solution	-13193
▁Telegram	-13194
▁Vladimir	-13195
▁Woodwind	-13196
▁Zhongtai	-13197
▁ຈຸດເດືອດ	-13198
▁ບ່ອນນັ່ງ	-13199
▁ສະພາແຫ່ງ	-13200
▁ອະພາດເມນ	-13201
ຄອມພິວເຕີ້	-13202
▁Apparatus	-13203
▁Cambridge	-13204
▁Catalogue	-13205
▁Guangming	-13206
▁Powerpuff	-13207
▁ຂໍ້ກໍານົດ	-13208
▁ຊື່ຜູ້ໃຊ້	-13209
▁ບົດລາຍງານ	-13210
▁ເດືອນຕຸລາ	-13211
▁ເລີ່ມຕົ້ນ	-13212
▁ແສງຕາເວັນ	-13213
▁ໂລຫະປະສົມ	-13214
ບາຍຄວາມຮ້ອນ	-13215
▁corrugated	-13216
▁ການຕໍ່ຕ້ານ	-13217
▁ຂະຫນາດນ້ອຍ	-13218
▁ແນວຄວາມຄິດ	-13219
ການເກັບຮັກສາ	-13220
▁Application	-13221
▁ຜະລິດແນນສຽງ	-13222
▁ສານສະກັດຈາກ	-13223
▁HBOTteknamfg	-13224
▁Intelligence	-13225
▁ການເກັບຮັກສາ	-13226
▁ທໍາຄວາມສະອາດ	-13227
▁ເຮັດໃຫ້ມີແສງ	-13228
criptionSample	-13229
▁reproducciones	-13230
%;	-13231
')	-13232
,4	-13233
2:	-13234
4?	-13235
DU	-13236
FO	-13237
HX	-13238
My	-13239
Ni	-13240
WE	-13241
XP	-13242
cf	-13243
eu	-13244
kV	-13245
lm	-13246
lr	-13247
rx	-13248
uv	-13249
ຕມ	-13250
ທໍ	-13251
ໃຊ	-13252
ໄຈ	-13253
ợt	-13254
-3)	-13255
-46	-13256
.17	-13257
.22	-13258
/09	-13259
/13	-13260
/16	-13261
017	-13262
12,	-13263
133	-13264
16,	-13265
185	-13266
239	-13267
247	-13268
334	-13269
336	-13270
344	-13271
650	-13272
66"	-13273
67"	-13274
678	-13275
692	-13276
763	-13277
773	-13278
777	-13279
781	-13280
80,	-13281
809	-13282
86)	-13283
885	-13284
92"	-13285
98,	-13286
:01	-13287
:37	-13288
="7	-13289
="9	-13290
AMP	-13291
Bus	-13292
Bắt	-13293
FTA	-13294
GSI	-13295
HAN	-13296
Hub	-13297
INS	-13298
Kgs	-13299
NRL	-13300
Off	-13301
PER	-13302
RON	-13303
Ser	-13304
TLE	-13305
Thứ	-13306
aza	-13307
bin	-13308
boy	-13309
buy	-13310
ely	-13311
gar	-13312
ges	-13313
gon	-13314
hex	-13315
igz	-13316
ils	-13317
max	-13318
một	-13319
nal	-13320
nov	-13321
obo	-13322
olo	-13323
pes	-13324
psi	-13325
ret	-13326
tit	-13327
uls	-13328
unk	-13329
êsP	-13330
đại	-13331
ươn	-13332
ຈຽງ	-13333
ຕານ	-13334
ຕິນ	-13335
ຖີບ	-13336
ປານ	-13337
ມ້າ	-13338
ລັງ	-13339
ຫຼີ	-13340
ຶ້ມ	-13341
ເຫນ	-13342
ແກມ	-13343
ແທກ	-13344
▁$3	-13345
▁(°	-13346
▁(“	-13347
▁+0	-13348
▁0-	-13349
▁AK	-13350
▁GO	-13351
▁Ga	-13352
▁IU	-13353
▁KB	-13354
▁Ki	-13355
▁MM	-13356
▁RK	-13357
▁TE	-13358
▁Ts	-13359
▁VA	-13360
▁WA	-13361
▁ZR	-13362
▁au	-13363
▁id	-13364
▁kw	-13365
▁mò	-13366
▁rồ	-13367
▁vé	-13368
▁£,	-13369
▁ກິ	-13370
▁ນ້	-13371
▁ພູ	-13372
-2.5	-13373
-400	-13374
-860	-13375
.815	-13376
.889	-13377
1111	-13378
39">	-13379
????	-13380
FLIP	-13381
INST	-13382
Ital	-13383
____	-13384
arus	-13385
avar	-13386
cher	-13387
edit	-13388
endy	-13389
etts	-13390
ever	-13391
flix	-13392
head	-13393
iana	-13394
kers	-13395
kytn	-13396
lang	-13397
lian	-13398
link	-13399
omet	-13400
omic	-13401
onto	-13402
ough	-13403
roof	-13404
tons	-13405
unde	-13406
urne	-13407
uộng	-13408
ການໂ	-13409
ດື່ມ	-13410
ດ້າຍ	-13411
ປະຕິ	-13412
ມາໄລ	-13413
ສະຫມ	-13414
ຫມູ່	-13415
ົ່າກ	-13416
ເກາະ	-13417
ເກີນ	-13418
ເກີບ	-13419
ເຂັມ	-13420
ເຜີຍ	-13421
ເສັງ	-13422
▁#12	-13423
▁(23	-13424
▁04:	-13425
▁1-6	-13426
▁1.7	-13427
▁13.	-13428
▁153	-13429
▁157	-13430
▁164	-13431
▁173	-13432
▁176	-13433
▁183	-13434
▁19.	-13435
▁193	-13436
▁198	-13437
▁204	-13438
▁213	-13439
▁25!	-13440
▁265	-13441
▁30-	-13442
▁317	-13443
▁4.4	-13444
▁4.8	-13445
▁6.9	-13446
▁776	-13447
▁8.0	-13448
▁926	-13449
▁:::	-13450
▁ATY	-13451
▁Bei	-13452
▁Bin	-13453
▁Bir	-13454
▁Bấy	-13455
▁CCC	-13456
▁COL	-13457
▁Cab	-13458
▁Cám	-13459
▁Cột	-13460
▁Dam	-13461
▁Dan	-13462
▁Dẫn	-13463
▁Giê	-13464
▁Giả	-13465
▁Gon	-13466
▁Guy	-13467
▁HBX	-13468
▁HOT	-13469
▁How	-13470
▁Hẳn	-13471
▁III	-13472
▁Ins	-13473
▁JIS	-13474
▁Jay	-13475
▁Jim	-13476
▁Las	-13477
▁MDF	-13478
▁Maj	-13479
▁Nic	-13480
▁Nào	-13481
▁Oem	-13482
▁Rau	-13483
▁Rui	-13484
▁SFP	-13485
▁Spy	-13486
▁Tam	-13487
▁Tar	-13488
▁Thú	-13489
▁Tol	-13490
▁WEF	-13491
▁aas	-13492
▁acc	-13493
▁ant	-13494
▁bóp	-13495
▁bôi	-13496
▁bưu	-13497
▁bẩn	-13498
▁củi	-13499
▁dâu	-13500
▁fre	-13501
▁gas	-13502
▁hex	-13503
▁hoạ	-13504
▁hòm	-13505
▁hận	-13506
▁kèn	-13507
▁lol	-13508
▁mạn	-13509
▁neo	-13510
▁nài	-13511
▁nồi	-13512
▁oct	-13513
▁pdf	-13514
▁quỳ	-13515
▁rot	-13516
▁run	-13517
▁she	-13518
▁sầu	-13519
▁tam	-13520
▁táo	-13521
▁tóm	-13522
▁tấu	-13523
▁tụi	-13524
▁Đất	-13525
▁Đầy	-13526
▁ກຽມ	-13527
▁ຄອມ	-13528
▁ຄັນ	-13529
▁ຄ້າ	-13530
▁ຈິດ	-13531
▁ດິນ	-13532
▁ທວນ	-13533
▁ທົນ	-13534
▁ພີ່	-13535
▁ມີດ	-13536
▁ສີດ	-13537
▁ສູ່	-13538
▁ສົງ	-13539
▁ຫາຍ	-13540
▁ຮອບ	-13541
▁ເບີ	-13542
▁ເຫຼ	-13543
▁ແກນ	-13544
▁ໂກນ	-13545
61000	-13546
86055	-13547
="1.3	-13548
Cheng	-13549
achus	-13550
aisDe	-13551
ament	-13552
bodia	-13553
craft	-13554
elded	-13555
emake	-13556
ffeta	-13557
iable	-13558
ingle	-13559
ogram	-13560
oking	-13561
onsin	-13562
ortop	-13563
otype	-13564
qiang	-13565
uster	-13566
ດົນຕີ	-13567
ປະທັບ	-13568
ລະພາບ	-13569
ສະວິດ	-13570
ສີຟ້າ	-13571
ຫນ້ອຍ	-13572
ເປົ່າ	-13573
▁(107	-13574
▁(200	-13575
▁0574	-13576
▁13.6	-13577
▁1994	-13578
▁2002	-13579
▁2003	-13580
▁2600	-13581
▁4.37	-13582
▁9.99	-13583
▁Anim	-13584
▁Anod	-13585
▁Area	-13586
▁BOOD	-13587
▁Bass	-13588
▁Boot	-13589
▁Bung	-13590
▁Chip	-13591
▁Chạy	-13592
▁Cảnh	-13593
▁Easy	-13594
▁FAQs	-13595
▁Fuse	-13596
▁GDPR	-13597
▁INOX	-13598
▁Khái	-13599
▁Lily	-13600
▁Midd	-13601
▁NGAY	-13602
▁Next	-13603
▁Nide	-13604
▁Niềm	-13605
▁Nẵng	-13606
▁Rods	-13607
▁Shop	-13608
▁Suốt	-13609
▁TGSI	-13610
▁Teac	-13611
▁Tenn	-13612
▁Thịt	-13613
▁Thỏa	-13614
▁Tuổi	-13615
▁Vert	-13616
▁Vùng	-13617
▁Zeng	-13618
▁Zhou	-13619
▁appr	-13620
▁bùng	-13621
▁flex	-13622
▁gián	-13623
▁hero	-13624
▁khoe	-13625
▁kiêu	-13626
▁lang	-13627
▁muôn	-13628
▁play	-13629
▁sườn	-13630
▁sắng	-13631
▁trật	-13632
▁vạch	-13633
▁xiết	-13634
▁xăng	-13635
▁đấng	-13636
▁đẳng	-13637
▁ຄລິບ	-13638
▁ຊ້ໍາ	-13639
▁ປະຊາ	-13640
▁ສັ້ນ	-13641
▁ສໍານ	-13642
▁ຫມັກ	-13643
▁ຮຸ້ນ	-13644
▁ເຈາະ	-13645
▁ເຕັກ	-13646
▁ເມລິ	-13647
▁ເລັດ	-13648
Chương	-13649
Direct	-13650
acking	-13651
asting	-13652
bolone	-13653
convey	-13654
edical	-13655
ersion	-13656
ionate	-13657
iscuit	-13658
lulose	-13659
methyl	-13660
netron	-13661
olPort	-13662
ration	-13663
rictly	-13664
uguêsP	-13665
ຄົງທີ່	-13666
ດຽວກັນ	-13667
ທົດລອງ	-13668
ທົດສອບ	-13669
ບໍ່ແຮ່	-13670
ຜິດພາດ	-13671
ວ່າມັນ	-13672
ສະຖານີ	-13673
ສັງຄົມ	-13674
ສື່ສານ	-13675
ິຈິຕອນ	-13676
ຸ່ນຍົນ	-13677
ເບື້ອງ	-13678
ເລື່ອນ	-13679
ເອດເອດ	-13680
▁0086-	-13681
▁1-888	-13682
▁19:00	-13683
▁3,00€	-13684
▁8.2.3	-13685
▁Blade	-13686
▁Botan	-13687
▁Braun	-13688
▁Child	-13689
▁Diode	-13690
▁Dường	-13691
▁EVFTA	-13692
▁Ester	-13693
▁Guard	-13694
▁Insul	-13695
▁Label	-13696
▁Layer	-13697
▁Loose	-13698
▁Modem	-13699
▁Oxide	-13700
▁Punch	-13701
▁Rapid	-13702
▁Rotor	-13703
▁STAND	-13704
▁Scott	-13705
▁Servo	-13706
▁Sites	-13707
▁Solar	-13708
▁Spool	-13709
▁Story	-13710
▁Style	-13711
▁Surin	-13712
▁THÀNH	-13713
▁Thuộc	-13714
▁Trượt	-13715
▁Wafer	-13716
▁buồng	-13717
▁cross	-13718
▁cưỡng	-13719
▁khẳng	-13720
▁mixer	-13721
▁nương	-13722
▁pitch	-13723
▁thiệp	-13724
▁trừng	-13725
▁ວີຊ່າ	-13726
▁ສະພາບ	-13727
atalyst	-13728
enticed	-13729
ication	-13730
ickness	-13731
kytnice	-13732
yanuric	-13733
ylvania	-13734
ກາງແຈ້ງ	-13735
ກາຍເປັນ	-13736
ການເງິນ	-13737
ຫຼັງຈາກ	-13738
ອະນຸມັດ	-13739
ອາຍແກັສ	-13740
ເຫັນໄດ້	-13741
ແບ່ງປັນ	-13742
ໄຮໂດລິກ	-13743
▁0086-0	-13744
▁44.0.2	-13745
▁50,000	-13746
▁Bonded	-13747
▁Chiang	-13748
▁Clutch	-13749
▁DryAir	-13750
▁EaseUS	-13751
▁Essent	-13752
▁Feeder	-13753
▁Hentai	-13754
▁Huaxin	-13755
▁Hunter	-13756
▁Lounge	-13757
▁Needle	-13758
▁Nights	-13759
▁Oyster	-13760
▁Phường	-13761
▁Prince	-13762
▁Raycus	-13763
▁Search	-13764
▁Sheets	-13765
▁Stefan	-13766
▁Sublim	-13767
▁Truyện	-13768
▁Xiaomi	-13769
▁aasraw	-13770
▁asylum	-13771
▁nghênh	-13772
▁trương	-13773
▁violin	-13774
▁ການພິມ	-13775
▁ທົ່ວໄປ	-13776
▁ຢູ່ທູບ	-13777
▁ສະຫນອງ	-13778
▁ສີນ້ໍາ	-13779
▁ອໍານາດ	-13780
51486055	-13781
ສະຖານທີ່	-13782
▁86-21-5	-13783
▁Airpull	-13784
▁Angeles	-13785
▁Cookies	-13786
▁January	-13787
▁Laotian	-13788
▁Longyou	-13789
▁Monitor	-13790
▁Netflix	-13791
▁Richina	-13792
▁STEPPER	-13793
▁Scratch	-13794
▁Spindle	-13795
▁Striped	-13796
▁Updated	-13797
▁Yinzhou	-13798
▁bitcoin	-13799
▁ninjago	-13800
▁peptide	-13801
▁samurai	-13802
▁steroid	-13803
▁taffeta	-13804
▁ການຄົ້ນ	-13805
▁ຂາຍຮ້ອນ	-13806
▁ຕາຫນ່າງ	-13807
▁ມັນເປັນ	-13808
▁ສຸຂະພາບ	-13809
▁ຫມາຍເລກ	-13810
▁ອັບໂຫລດ	-13811
▁ເຄັດລັບ	-13812
achusetts	-13813
ຄວາມປອດໄພ	-13814
ຫນ້າສົນໃຈ	-13815
ໃນປະຈຸບັນ	-13816
ໃບຢັ້ງຢືນ	-13817
▁Anderson	-13818
▁Avengers	-13819
▁COINFLIP	-13820
▁Diffuser	-13821
▁Flexible	-13822
▁Freemake	-13823
▁Scotland	-13824
▁Stanford	-13825
▁ຄວາມເບີກ	-13826
▁ຍຸດທະສາດ	-13827
▁ເຢຍລະມັນ	-13828
▁ເສັ້ນທາງ	-13829
▁ໃຊ້ລະຫັດ	-13830
aisDeutsch	-13831
ການຕິດຕັ້ງ	-13832
ຄົ້ນບໍ່ແຮ່	-13833
ແສງສະຫວ່າງ	-13834
ໃຫ້ບໍລິການ	-13835
▁2016-2017	-13836
▁Rokytnice	-13837
▁Saxophone	-13838
▁collector	-13839
▁magnetron	-13840
▁ການຕະຫຼາດ	-13841
▁ການສື່ສານ	-13842
▁ພວກເຮົາມີ	-13843
▁ສະກຸນເງິນ	-13844
▁ຮັບຜິດຊອບ	-13845
▁ແຮງດັນສູງ	-13846
conveyortop	-13847
▁Management	-13848
▁PowerShell	-13849
▁Tianeptine	-13850
▁blockchain	-13851
▁javascript	-13852
▁ຄໍາອະທິບາຍ	-13853
▁ແມ່ນຫຍັງຄື	-13854
olPortuguêsP	-13855
▁EnglishEspa	-13856
▁PlayLottery	-13857
▁apprenticed	-13858
▁ກ່ອນຫນ້ານີ້	-13859
▁ຂໍຂອບໃຈທ່ານ	-13860
▁ຄວາມບໍລິສຸດ	-13861
▁ໂທຫາພວກເຮົາ	-13862
▁ຄວາມໄວສູງສຸດ	-13863
▁ຖະຫນົນຫົນທາງ	-13864
▁Biodegradable	-13865
▁Certification	-13866
▁ວິທີການຕິດຕັ້ງ	-13867
▁MobileCasinoFun	-13868
!"	-13869
%.	-13870
1"	-13871
1%	-13872
?’	-13873
Dv	-13874
GA	-13875
JH	-13876
Pr	-13877
SC	-13878
Su	-13879
Vì	-13880
YZ	-13881
ZY	-13882
dy	-13883
mx	-13884
sj	-13885
số	-13886
wo	-13887
yc	-13888
ງ່	-13889
ຜີ	-13890
ຟູ	-13891
ລຸ	-13892
ຮູ	-13893
ẢO	-13894
-84	-13895
/15	-13896
00,	-13897
006	-13898
109	-13899
11,	-13900
139	-13901
151	-13902
153	-13903
167	-13904
18)	-13905
265	-13906
269	-13907
293	-13908
315	-13909
354	-13910
358	-13911
401	-13912
406	-13913
409	-13914
436	-13915
510	-13916
531	-13917
609	-13918
708	-13919
716	-13920
807	-13921
85"	-13922
855	-13923
868	-13924
:10	-13925
:26	-13926
:54	-13927
Bay	-13928
Cập	-13929
HFC	-13930
INO	-13931
OWH	-13932
Pay	-13933
Piv	-13934
VER	-13935
VPN	-13936
ami	-13937
apy	-13938
atu	-13939
cfu	-13940
fig	-13941
gal	-13942
hau	-13943
hot	-13944
inn	-13945
jan	-13946
lov	-13947
mao	-13948
nan	-13949
nhe	-13950
nic	-13951
ohm	-13952
oke	-13953
ori	-13954
pat	-13955
plc	-13956
ral	-13957
rss	-13958
urt	-13959
usk	-13960
vid	-13961
xyz	-13962
ượn	-13963
ຄາດ	-13964
ຄາມ	-13965
ຈາຍ	-13966
ຊອກ	-13967
ຊິດ	-13968
ຜັກ	-13969
ຜັດ	-13970
ລານ	-13971
ລິດ	-13972
ົາກ	-13973
ເຕະ	-13974
ເວີ	-13975
ໂດດ	-13976
້ວງ	-13977
▁$6	-13978
▁BF	-13979
▁Bổ	-13980
▁Cụ	-13981
▁DL	-13982
▁HW	-13983
▁IR	-13984
▁KW	-13985
▁LƯ	-13986
▁MF	-13987
▁Ny	-13988
▁Pp	-13989
▁RA	-13990
▁SR	-13991
▁TA	-13992
▁WW	-13993
▁Zi	-13994
▁dĩ	-13995
▁km	-13996
▁rễ	-13997
▁tạ	-13998
▁đố	-13999
▁ຂາ	-14000
▁ພີ	-14001
▁ຟໍ	-14002
▁ຫຍ	-14003
▁ເຜ	-14004
▁ức	-14005
-130	-14006
01">	-14007
1234	-14008
1300	-14009
1400	-14010
1600	-14011
2015	-14012
2055	-14013
34">	-14014
:100	-14015
="15	-14016
Card	-14017
Cast	-14018
Disk	-14019
Gram	-14020
Info	-14021
OCON	-14022
OWER	-14023
Plus	-14024
Viet	-14025
Việt	-14026
Zhen	-14027
agen	-14028
alin	-14029
anti	-14030
band	-14031
bank	-14032
bert	-14033
brid	-14034
down	-14035
edge	-14036
elen	-14037
elop	-14038
essa	-14039
esun	-14040
eton	-14041
held	-14042
iety	-14043
ikov	-14044
ious	-14045
isoc	-14046
kang	-14047
onia	-14048
oons	-14049
ores	-14050
othy	-14051
otta	-14052
pers	-14053
phen	-14054
real	-14055
rier	-14056
roin	-14057
role	-14058
slot	-14059
sych	-14060
thew	-14061
ulph	-14062
vert	-14063
wang	-14064
xing	-14065
yong	-14066
zzer	-14067
ກເກດ	-14068
ກ່ອນ	-14069
ດູແລ	-14070
ທະເລ	-14071
ສະມາ	-14072
ເຕົາ	-14073
▁$54	-14074
▁'',	-14075
▁1,0	-14076
▁1,7	-14077
▁131	-14078
▁136	-14079
▁147	-14080
▁16.	-14081
▁16/	-14082
▁17'	-14083
▁224	-14084
▁228	-14085
▁254	-14086
▁256	-14087
▁4.2	-14088
▁422	-14089
▁560	-14090
▁595	-14091
▁6.7	-14092
▁8.1	-14093
▁8.5	-14094
▁890	-14095
▁992	-14096
▁BBQ	-14097
▁BTC	-14098
▁Bia	-14099
▁Bru	-14100
▁CFR	-14101
▁CPT	-14102
▁Chú	-14103
▁CẤP	-14104
▁Cực	-14105
▁DNA	-14106
▁Dar	-14107
▁EST	-14108
▁GMT	-14109
▁GUI	-14110
▁Gối	-14111
▁Hết	-14112
▁Ill	-14113
▁Keo	-14114
▁Kne	-14115
▁LEE	-14116
▁Leo	-14117
▁Lót	-14118
▁Mak	-14119
▁Meg	-14120
▁Mấy	-14121
▁Mức	-14122
▁NOW	-14123
▁Nap	-14124
▁Nom	-14125
▁OSP	-14126
▁PHP	-14127
▁PNG	-14128
▁POL	-14129
▁PSI	-14130
▁Phù	-14131
▁Phố	-14132
▁Pud	-14133
▁RAD	-14134
▁RCA	-14135
▁Rib	-14136
▁SET	-14137
▁Sig	-14138
▁Sup	-14139
▁Syr	-14140
▁Sáo	-14141
▁Sạc	-14142
▁THE	-14143
▁TUV	-14144
▁Tek	-14145
▁Tho	-14146
▁Thơ	-14147
▁Tre	-14148
▁Trụ	-14149
▁Tóc	-14150
▁Tôn	-14151
▁VAT	-14152
▁Vắc	-14153
▁Wig	-14154
▁ago	-14155
▁ang	-14156
▁ans	-14157
▁cối	-14158
▁cụm	-14159
▁doc	-14160
▁dám	-14161
▁dạn	-14162
▁eng	-14163
▁gam	-14164
▁gãy	-14165
▁hân	-14166
▁imp	-14167
▁khố	-14168
▁léo	-14169
▁lọt	-14170
▁mốc	-14171
▁nến	-14172
▁oán	-14173
▁thọ	-14174
▁tuy	-14175
▁tỏi	-14176
▁vặt	-14177
▁xộn	-14178
▁Đĩa	-14179
▁Đổi	-14180
▁ຈື່	-14181
▁ຊຕມ	-14182
▁ບຸກ	-14183
▁ຝາກ	-14184
▁ສາງ	-14185
▁ຫັນ	-14186
▁ຮອງ	-14187
▁ແຕກ	-14188
▁ແທນ	-14189
▁ໃກ້	-14190
3033.	-14191
="1.9	-14192
="2.0	-14193
Piece	-14194
Slots	-14195
Thiết	-14196
achel	-14197
admin	-14198
akers	-14199
aniel	-14200
brane	-14201
conia	-14202
ctile	-14203
ebies	-14204
emesh	-14205
ental	-14206
etime	-14207
iesel	-14208
ittle	-14209
iture	-14210
itute	-14211
lines	-14212
merce	-14213
obita	-14214
piece	-14215
tings	-14216
unnel	-14217
words	-14218
ກະທູ້	-14219
ຍາກອນ	-14220
ຖະບານ	-14221
ທິຖານ	-14222
ປະສົງ	-14223
ລິເມດ	-14224
ວຍງາມ	-14225
ສັນຍາ	-14226
ສີແດງ	-14227
ຫຼີ້ນ	-14228
ອາຊີບ	-14229
ອາດຈະ	-14230
ັກຊີນ	-14231
ັກສອນ	-14232
າດການ	-14233
ືອບິນ	-14234
ເດັ່ນ	-14235
ໂດລິກ	-14236
ໂຟນເດ	-14237
້າທາຍ	-14238
▁(1,5	-14239
▁(1,6	-14240
▁10.5	-14241
▁100!	-14242
▁2.11	-14243
▁86-3	-14244
▁APIC	-14245
▁Asph	-14246
▁Beam	-14247
▁Bots	-14248
▁Bush	-14249
▁Cath	-14250
▁Chưa	-14251
▁Càng	-14252
▁Dành	-14253
▁Dược	-14254
▁Ener	-14255
▁Engr	-14256
▁Fram	-14257
▁Gems	-14258
▁Hits	-14259
▁Hole	-14260
▁Just	-14261
▁KHÁC	-14262
▁Kure	-14263
▁Lake	-14264
▁Lanc	-14265
▁Laun	-14266
▁Lear	-14267
▁Loop	-14268
▁Mega	-14269
▁NHÂN	-14270
▁PPGL	-14271
▁Pham	-14272
▁Porn	-14273
▁Rộng	-14274
▁Sher	-14275
▁Siem	-14276
▁Ster	-14277
▁Subs	-14278
▁TEMP	-14279
▁Tent	-14280
▁Thạc	-14281
▁Tips	-14282
▁Trận	-14283
▁Vành	-14284
▁Wisc	-14285
▁bách	-14286
▁bích	-14287
▁bổng	-14288
▁chục	-14289
▁cúng	-14290
▁dinh	-14291
▁head	-14292
▁iron	-14293
▁khoá	-14294
▁khúc	-14295
▁lash	-14296
▁lily	-14297
▁loan	-14298
▁lánh	-14299
▁mail	-14300
▁ngần	-14301
▁ngọc	-14302
▁nhám	-14303
▁post	-14304
▁quấy	-14305
▁sand	-14306
▁soft	-14307
▁ĐÁNG	-14308
▁Đảng	-14309
▁ກ້າວ	-14310
▁ຊ່ອຍ	-14311
▁ຍິ່ງ	-14312
▁ຍ້ອນ	-14313
▁ຖ່ອມ	-14314
▁ລິ້ງ	-14315
▁ຫນາມ	-14316
▁ຫຼຸດ	-14317
▁ອ້າງ	-14318
▁ເຊີນ	-14319
▁ເວທີ	-14320
▁ແກ່ນ	-14321
▁≤0.5	-14322
OWHEEL	-14323
Thượng	-14324
active	-14325
bourne	-14326
coiler	-14327
denone	-14328
master	-14329
namese	-14330
rosion	-14331
ກະດ້າງ	-14332
ການຂອງ	-14333
ງານທໍາ	-14334
ທຸກຄົນ	-14335
ບຸກຄົນ	-14336
ພາຍໃຕ້	-14337
ສະຫງວນ	-14338
▁1:500	-14339
▁2012,	-14340
▁2020]	-14341
▁86-18	-14342
▁Amber	-14343
▁Armen	-14344
▁Avast	-14345
▁Chung	-14346
▁Chuỗi	-14347
▁Combo	-14348
▁Congo	-14349
▁Deals	-14350
▁Frost	-14351
▁Giành	-14352
▁Giêsu	-14353
▁Glory	-14354
▁Gmail	-14355
▁Great	-14356
▁LadyL	-14357
▁Nokia	-14358
▁Pants	-14359
▁Polyp	-14360
▁Princ	-14361
▁Queen	-14362
▁Radio	-14363
▁Steam	-14364
▁Table	-14365
▁Tener	-14366
▁Wuhan	-14367
▁Xinye	-14368
▁Yahoo	-14369
▁Zhang	-14370
▁after	-14371
▁favor	-14372
▁fiber	-14373
▁inter	-14374
▁kiêng	-14375
▁salon	-14376
▁satin	-14377
▁short	-14378
▁steel	-14379
▁thiêu	-14380
▁valve	-14381
▁ກະຊວງ	-14382
▁ຂໍ້ດີ	-14383
▁ປະສົມ	-14384
▁ເຊັ່ນ	-14385
▁ແນວໃດ	-14386
ephrine	-14387
ichloro	-14388
itation	-14389
ຂີ້ຝຸ່ນ	-14390
ຂື້ນໂດຍ	-14391
ຄວາມຖີ່	-14392
ປະລິມານ	-14393
ປ່ຽນແປງ	-14394
ຢ້ຽມຊົມ	-14395
ລາຄາຖືກ	-14396
ອານາຈັກ	-14397
ອາບນ້ໍາ	-14398
▁(2016)	-14399
▁42.0.2	-14400
▁Bishop	-14401
▁Boston	-14402
▁Broker	-14403
▁Bungal	-14404
▁Cinema	-14405
▁Coffee	-14406
▁Copper	-14407
▁Finish	-14408
▁Fleece	-14409
▁Folder	-14410
▁GEOCON	-14411
▁George	-14412
▁Hammer	-14413
▁Heater	-14414
▁Holder	-14415
▁Loader	-14416
▁Odessa	-14417
▁Palăng	-14418
▁Powder	-14419
▁Pudong	-14420
▁Rating	-14421
▁Remote	-14422
▁Rezero	-14423
▁Rupees	-14424
▁Spiral	-14425
▁VMware	-14426
▁Valley	-14427
▁Wicker	-14428
▁Yandex	-14429
▁cotton	-14430
▁height	-14431
▁purity	-14432
▁pusher	-14433
▁rotary	-14434
▁ຊື່ຂອງ	-14435
▁ຕະຫຼອດ	-14436
▁ຕົວແບບ	-14437
▁ທີມງານ	-14438
▁ພາບລວມ	-14439
▁ມູນຄ່າ	-14440
▁ວັນທີ່	-14441
▁ວີດີໂອ	-14442
▁ວົງຈອນ	-14443
▁ຫາດຊາຍ	-14444
▁ອົງການ	-14445
▁ເກມອອນ	-14446
▁ແຜນການ	-14447
.12.2018	-14448
Italiano	-14449
ithuania	-14450
wiremesh	-14451
ຕໍາແຫນ່ງ	-14452
ທາງອາກາດ	-14453
ສາທາລະນະ	-14454
ອາເມລິກາ	-14455
ເສດຖະກິດ	-14456
ແມ່ເຫຼັກ	-14457
▁Antenna	-14458
▁Archive	-14459
▁Biscuit	-14460
▁Connect	-14461
▁Dolphin	-14462
▁Drivers	-14463
▁Feitian	-14464
▁Florida	-14465
▁Georgia	-14466
▁MacBook	-14467
▁Mounted	-14468
▁Olympic	-14469
▁Peptide	-14470
▁Station	-14471
▁service	-14472
▁ກັ່ນຕອງ	-14473
▁ກ່າວວ່າ	-14474
▁ຄົ້ນພົບ	-14475
▁ຍົກເລີກ	-14476
▁ພວງມາໄລ	-14477
▁ພື້ນຜິວ	-14478
▁ຫຼັກຖານ	-14479
▁ອອກຄວາມ	-14480
▁ເຂົ້າໃຈ	-14481
▁ໄຮໂດລິກ	-14482
igeration	-14483
ການຊື້ຂາຍ	-14484
ການປັບປຸງ	-14485
ຂີ້ເຫຍື້ອ	-14486
ທີ່ມີຄວາມ	-14487
▁7773033.	-14488
▁86-755-8	-14489
▁992-9033	-14490
▁Advanced	-14491
▁Festival	-14492
▁Giveaway	-14493
▁Shackles	-14494
▁ShenZhen	-14495
▁SnapTube	-14496
▁Tenerife	-14497
▁doraemon	-14498
▁jacquard	-14499
▁ຈໍາຫນ່າຍ	-14500
▁ມິນລິເມດ	-14501
▁ສັນຍາລັກ	-14502
▁ຫນ້າຫຼັກ	-14503
▁ເຟີນິເຈີ	-14504
ເຮັດງານທໍາ	-14505
▁Honeycomb	-14506
▁Wisconsin	-14507
▁Zhongtian	-14508
▁brushless	-14509
▁crossbody	-14510
▁ການສະຫນອງ	-14511
▁ຂໍ້ສະເຫນີ	-14512
▁ຖານຂໍ້ມູນ	-14513
▁ທອງເຫລືອງ	-14514
▁ພວກເຮົາຈະ	-14515
▁ວິທະຍາສາດ	-14516
▁ສະຫນາມບິນ	-14517
▁ເດືອນເມສາ	-14518
ichloroisoc	-14519
luoroethane	-14520
▁Antichrist	-14521
▁Nandrolone	-14522
▁Trenbolone	-14523
▁ຄວາມຍາວຂອງ	-14524
▁ຕອບກ່ຽວກັບ	-14525
▁ພວກເຮົາໄດ້	-14526
ຫຼ້າສຸດເມື່ອ	-14527
ໄດ້ຮັບລາງວັນ	-14528
▁BestCleaner	-14529
▁Temperature	-14530
▁ການຄົ້ນຄວ້າ	-14531
▁ການສະກົດຈິດ	-14532
▁ດາວໂຫລດປື້ມ	-14533
▁ບັນຊີລາຍຊື່	-14534
▁ພະລັງງານຂອງ	-14535
▁ລາຍຊື່ອີເມວ	-14536
▁ເຄື່ອງປະດັບ	-14537
ເຂົ້າສູ່ລະບົບ	-14538
▁ວັນຄຣິດສະມາດ	-14539
▁Massachusetts	-14540
▁ຂຸດຄົ້ນບໍ່ແຮ່	-14541
▁ອອກຄວາມເຫັນໄດ້	-14542
▁ເບິ່ງເພີ່ມເຕີມ	-14543
▁ສ້າງຕັ້ງຂື້ນໂດຍ	-14544
($	-14545
,6	-14546
As	-14547
Ax	-14548
FE	-14549
Fe	-14550
HK	-14551
JD	-14552
JT	-14553
Kg	-14554
Km	-14555
QU	-14556
RU	-14557
SI	-14558
Sm	-14559
Tw	-14560
UI	-14561
VM	-14562
VO	-14563
YL	-14564
cd	-14565
hn	-14566
sw	-14567
sự	-14568
xR	-14569
ັຍ	-14570
ເຫ	-14571
ໂອ	-14572
ໃຫ	-14573
ໄບ	-14574
ịp	-14575
ịt	-14576
ụn	-14577
’;	-14578
-1,	-14579
-63	-14580
-65	-14581
.0%	-14582
/07	-14583
1.2	-14584
1.6	-14585
137	-14586
14'	-14587
162	-14588
17"	-14589
187	-14590
188	-14591
190	-14592
194	-14593
207	-14594
216	-14595
279	-14596
351	-14597
352	-14598
359	-14599
364	-14600
50-	-14601
506	-14602
555	-14603
602	-14604
606	-14605
641	-14606
706	-14607
767	-14608
852	-14609
88,	-14610
883	-14611
889	-14612
893	-14613
958	-14614
959	-14615
987	-14616
:19	-14617
:28	-14618
:75	-14619
Bro	-14620
CAD	-14621
CAS	-14622
CBM	-14623
Che	-14624
Dec	-14625
ERH	-14626
FCX	-14627
How	-14628
ISE	-14629
ITY	-14630
KVA	-14631
Key	-14632
MAX	-14633
Pre	-14634
SEC	-14635
SiC	-14636
WEL	-14637
aum	-14638
bai	-14639
bek	-14640
của	-14641
def	-14642
fab	-14643
hum	-14644
irl	-14645
ken	-14646
lie	-14647
mah	-14648
nhà	-14649
nie	-14650
nom	-14651
oan	-14652
owa	-14653
ozz	-14654
pet	-14655
res	-14656
rig	-14657
roc	-14658
roy	-14659
sản	-14660
tex	-14661
tùy	-14662
ugh	-14663
uke	-14664
ula	-14665
ves	-14666
ກາກ	-14667
ກິນ	-14668
ຂວາ	-14669
ຈົກ	-14670
ຊະນ	-14671
ຊັບ	-14672
ດຸນ	-14673
ຜູກ	-14674
ພິດ	-14675
ພໍ່	-14676
ຟູກ	-14677
ມິດ	-14678
ສູດ	-14679
ຫລີ	-14680
ະລື	-14681
າດາ	-14682
ິລິ	-14683
ົວກ	-14684
ເບກ	-14685
ໂທດ	-14686
ໄຂ່	-14687
▁"-	-14688
▁(.	-14689
▁+,	-14690
▁-9	-14691
▁6)	-14692
▁BA	-14693
▁Dc	-14694
▁EL	-14695
▁GC	-14696
▁Gy	-14697
▁IF	-14698
▁Id	-14699
▁LX	-14700
▁NJ	-14701
▁Pb	-14702
▁Qi	-14703
▁RC	-14704
▁Sở	-14705
▁TB	-14706
▁Ze	-14707
▁ag	-14708
▁bá	-14709
▁bẻ	-14710
▁bế	-14711
▁cy	-14712
▁dn	-14713
▁ft	-14714
▁hd	-14715
▁ki	-14716
▁kề	-14717
▁mẻ	-14718
▁mồ	-14719
▁xé	-14720
▁xổ	-14721
▁ÁP	-14722
▁Ôi	-14723
▁Đỏ	-14724
▁đế	-14725
▁ຖຸ	-14726
▁ນູ	-14727
▁ລຸ	-14728
▁ລໍ	-14729
▁ໂສ	-14730
▁€,	-14731
-160	-14732
-2.0	-14733
-865	-14734
.73.	-14735
/100	-14736
1800	-14737
35">	-14738
38">	-14739
6000	-14740
72">	-14741
72-2	-14742
="28	-14743
="34	-14744
Cola	-14745
Công	-14746
KVAC	-14747
Lake	-14748
Mail	-14749
OGIC	-14750
adex	-14751
agne	-14752
ajon	-14753
anai	-14754
arts	-14755
asht	-14756
ccst	-14757
cent	-14758
chun	-14759
code	-14760
cons	-14761
dney	-14762
egot	-14763
elli	-14764
elly	-14765
epal	-14766
esch	-14767
fann	-14768
iami	-14769
icle	-14770
ipal	-14771
ists	-14772
lege	-14773
mand	-14774
oles	-14775
opro	-14776
orun	-14777
ovsk	-14778
qian	-14779
rael	-14780
ubei	-14781
weig	-14782
ຄ່ໍາ	-14783
ຍິ່ງ	-14784
ຍ່າງ	-14785
ດີຊີ	-14786
ທ້ອນ	-14787
ປ່ອຍ	-14788
ຟຣິກ	-14789
ຫ່າງ	-14790
ີນີ້	-14791
ເຜົາ	-14792
ເລີດ	-14793
ເລ່ຍ	-14794
ເຮືອ	-14795
ໄປໃນ	-14796
▁(55	-14797
▁(6)	-14798
▁(85	-14799
▁---	-14800
▁-15	-14801
▁0,6	-14802
▁0-6	-14803
▁021	-14804
▁085	-14805
▁1,2	-14806
▁106	-14807
▁112	-14808
▁124	-14809
▁13)	-14810
▁144	-14811
▁16)	-14812
▁162	-14813
▁17:	-14814
▁18.	-14815
▁2-5	-14816
▁223	-14817
▁232	-14818
▁236	-14819
▁288	-14820
▁301	-14821
▁375	-14822
▁4.1	-14823
▁5.8	-14824
▁50,	-14825
▁6.6	-14826
▁615	-14827
▁617	-14828
▁660	-14829
▁915	-14830
▁999	-14831
▁Ain	-14832
▁Aus	-14833
▁BIG	-14834
▁BSF	-14835
▁CMO	-14836
▁CON	-14837
▁Cop	-14838
▁Cub	-14839
▁CÂU	-14840
▁DOC	-14841
▁DST	-14842
▁Dao	-14843
▁Dau	-14844
▁EAS	-14845
▁ESL	-14846
▁Eco	-14847
▁Fib	-14848
▁Fur	-14849
▁Gan	-14850
▁HZM	-14851
▁Hao	-14852
▁Hơi	-14853
▁Hỡi	-14854
▁IOS	-14855
▁Inv	-14856
▁KXD	-14857
▁Kaz	-14858
▁Khê	-14859
▁LIN	-14860
▁Les	-14861
▁MEI	-14862
▁MHz	-14863
▁Moh	-14864
▁Mom	-14865
▁Mot	-14866
▁Mời	-14867
▁PLA	-14868
▁Pac	-14869
▁Pel	-14870
▁RBS	-14871
▁RCO	-14872
▁RGB	-14873
▁RPA	-14874
▁Raj	-14875
▁Rập	-14876
▁SIN	-14877
▁SSL	-14878
▁Sea	-14879
▁TRA	-14880
▁TUY	-14881
▁Tow	-14882
▁Tzm	-14883
▁VAN	-14884
▁VST	-14885
▁Vip	-14886
▁XAU	-14887
▁XXL	-14888
▁bai	-14889
▁bám	-14890
▁bấm	-14891
▁cur	-14892
▁cut	-14893
▁cúi	-14894
▁cẩu	-14895
▁dắt	-14896
▁gìn	-14897
▁lon	-14898
▁lot	-14899
▁net	-14900
▁nàn	-14901
▁pie	-14902
▁ref	-14903
▁rod	-14904
▁rót	-14905
▁rầu	-14906
▁rủi	-14907
▁ske	-14908
▁slu	-14909
▁ter	-14910
▁tom	-14911
▁tuệ	-14912
▁tăm	-14913
▁vác	-14914
▁Đáp	-14915
▁Đẩy	-14916
▁đâm	-14917
▁đùa	-14918
▁đục	-14919
▁Ước	-14920
▁ຂັດ	-14921
▁ຊອງ	-14922
▁ດອນ	-14923
▁ຕີນ	-14924
▁ຕຶກ	-14925
▁ຕື້	-14926
▁ຕໍາ	-14927
▁ທາຍ	-14928
▁ທຶກ	-14929
▁ປຸງ	-14930
▁ຜົມ	-14931
▁ສຶກ	-14932
▁ເມຍ	-14933
▁ເຫມ	-14934
▁ໂທດ	-14935
▁ໂຟມ	-14936
▁ໄກ່	-14937
,000+	-14938
23100	-14939
="0.3	-14940
="0.9	-14941
AKERS	-14942
SINST	-14943
Shang	-14944
Trans	-14945
acter	-14946
adesh	-14947
aftan	-14948
agnet	-14949
alent	-14950
anger	-14951
antai	-14952
arent	-14953
enery	-14954
esher	-14955
extet	-14956
ibbeh	-14957
idery	-14958
iling	-14959
istry	-14960
itang	-14961
ities	-14962
itive	-14963
iving	-14964
izhou	-14965
matic	-14966
oming	-14967
ontal	-14968
opper	-14969
pairs	-14970
scape	-14971
umblr	-14972
ກະເປົ	-14973
ຕາມິນ	-14974
ຕ້ຕອບ	-14975
ບດເຕີ	-14976
ຫົວໃຈ	-14977
ອນໄລນ	-14978
ັງກາຍ	-14979
ເຫນືອ	-14980
▁'14'	-14981
▁1.00	-14982
▁10.0	-14983
▁101,	-14984
▁1350	-14985
▁1650	-14986
▁2211	-14987
▁2240	-14988
▁408,	-14989
▁AIDS	-14990
▁Alle	-14991
▁Axit	-14992
▁Bleu	-14993
▁Brag	-14994
▁Brun	-14995
▁Cake	-14996
▁Chao	-14997
▁Cost	-14998
▁Draw	-14999
▁Drum	-15000
▁Flip	-15001
▁Gran	-15002
▁Grid	-15003
▁Herm	-15004
▁Icon	-15005
▁Iowa	-15006
▁Kand	-15007
▁Kath	-15008
▁Khốn	-15009
▁Kông	-15010
▁Lean	-15011
▁Lạnh	-15012
▁Made	-15013
▁Mask	-15014
▁Math	-15015
▁Meth	-15016
▁Mobi	-15017
▁More	-15018
▁Nano	-15019
▁Nghi	-15020
▁Nhẫn	-15021
▁Radi	-15022
▁Rail	-15023
▁SHBC	-15024
▁Seat	-15025
▁Suit	-15026
▁TSJY	-15027
▁TYPE	-15028
▁Treo	-15029
▁Ultr	-15030
▁Utah	-15031
▁Wiki	-15032
▁Yarn	-15033
▁chèo	-15034
▁chúa	-15035
▁chắp	-15036
▁clip	-15037
▁extr	-15038
▁nhục	-15039
▁niêm	-15040
▁phay	-15041
▁phàn	-15042
▁plug	-15043
▁quạt	-15044
▁rack	-15045
▁ròng	-15046
▁sofa	-15047
▁tung	-15048
▁túng	-15049
▁volt	-15050
▁vong	-15051
▁vắng	-15052
▁£200	-15053
▁Đứng	-15054
▁ຕ້ອນ	-15055
▁ປຶ້ມ	-15056
▁ປ່ຽງ	-15057
▁ຫະລື	-15058
▁ເກີນ	-15059
13.889	-15060
SERIES	-15061
ainted	-15062
arator	-15063
escent	-15064
fanned	-15065
filter	-15066
logics	-15067
obeaut	-15068
ongsaw	-15069
uanjie	-15070
ydroxy	-15071
ກາງເກງ	-15072
ການບິນ	-15073
ການແພດ	-15074
ຂອງນັກ	-15075
ຄວນຮູ້	-15076
ຕາຂ່າຍ	-15077
ຖະຫນົນ	-15078
ທິດຖານ	-15079
ທີ່ຂອງ	-15080
ບັງຄັບ	-15081
ຜູ້ນໍາ	-15082
ວິເຄາະ	-15083
ວີດີໂອ	-15084
ວົງຈອນ	-15085
ສວຍງາມ	-15086
ສະຫນາມ	-15087
ສໍາພັດ	-15088
ຫາດຊາຍ	-15089
ອັກສອນ	-15090
ຮູ້ວ່າ	-15091
ຮຽນຮູ້	-15092
ເທົ່າກ	-15093
ເພື່ອນ	-15094
▁(1000	-15095
▁1-800	-15096
▁15479	-15097
▁16/22	-15098
▁16000	-15099
▁2017,	-15100
▁25-33	-15101
▁86-20	-15102
▁9001:	-15103
▁ACCUR	-15104
▁Analy	-15105
▁Anrui	-15106
▁Cajon	-15107
▁Chuck	-15108
▁Crush	-15109
▁Drick	-15110
▁Dutou	-15111
▁Elite	-15112
▁Embro	-15113
▁Funny	-15114
▁Giăng	-15115
▁Hmoob	-15116
▁Hubei	-15117
▁Inlet	-15118
▁Jimmy	-15119
▁Khoản	-15120
▁Kháng	-15121
▁Labor	-15122
▁Ladyl	-15123
▁Maker	-15124
▁Mason	-15125
▁Month	-15126
▁Ngành	-15127
▁Penns	-15128
▁RHCSA	-15129
▁Rigid	-15130
▁Rikoo	-15131
▁Riêng	-15132
▁Rolls	-15133
▁Round	-15134
▁Rugby	-15135
▁Shape	-15136
▁Spher	-15137
▁Steph	-15138
▁Susan	-15139
▁TRONG	-15140
▁Tekna	-15141
▁Thiếu	-15142
▁Thỉnh	-15143
▁Toner	-15144
▁Torch	-15145
▁Total	-15146
▁Tuyệt	-15147
▁UCFCX	-15148
▁Vigrx	-15149
▁Wales	-15150
▁black	-15151
▁cabin	-15152
▁cauda	-15153
▁chước	-15154
▁khoái	-15155
▁linen	-15156
▁nhúng	-15157
▁peach	-15158
▁plush	-15159
▁price	-15160
▁satch	-15161
▁shelf	-15162
▁tenor	-15163
▁ປະກອບ	-15164
▁ປະທັບ	-15165
▁ມີການ	-15166
▁ຮັກສາ	-15167
▁ເຊື້ອ	-15168
OSHIRTS	-15169
SINSTON	-15170
anthate	-15171
eschool	-15172
igation	-15173
irconia	-15174
schweig	-15175
stepper	-15176
ຕໍ່ຕ້ານ	-15177
ທີ່ຂ້ອຍ	-15178
ສິ້ນສຸດ	-15179
ອ້າງອີງ	-15180
▁0577-6	-15181
▁20-200	-15182
▁APICMO	-15183
▁Austin	-15184
▁Boiler	-15185
▁Covers	-15186
▁Energy	-15187
▁Foshan	-15188
▁Indoor	-15189
▁Juteng	-15190
▁Kaftan	-15191
▁MEIGHT	-15192
▁Making	-15193
▁OSGEAR	-15194
▁Oliver	-15195
▁Output	-15196
▁Patent	-15197
▁Pellet	-15198
▁Phuong	-15199
▁Pillow	-15200
▁Queens	-15201
▁Shuang	-15202
▁Spider	-15203
▁Sydney	-15204
▁Teacup	-15205
▁Towers	-15206
▁Tribal	-15207
▁Vector	-15208
▁Videos	-15209
▁Wonder	-15210
▁indoor	-15211
▁khốicr	-15212
▁naruto	-15213
▁powder	-15214
▁rating	-15215
▁selfie	-15216
▁stairs	-15217
▁ການຊື້	-15218
▁ຊິງຕັນ	-15219
▁ຕາເວັນ	-15220
▁ຕົວແທນ	-15221
▁ຜົງດິບ	-15222
▁ສະຫວັນ	-15223
▁ແລະທໍ່	-15224
▁ໂດຍລວມ	-15225
.02.2019	-15226
/05/2017	-15227
Whatsapp	-15228
achinery	-15229
ickercom	-15230
ironment	-15231
onavirus	-15232
urniture	-15233
ຍຸດທະສາດ	-15234
ທີ່ມີຢູ່	-15235
ບດເຕີລີ່	-15236
ບໍ່ມີການ	-15237
ແລະອື່ນໆ	-15238
▁Baoding	-15239
▁Booster	-15240
▁Camping	-15241
▁Develop	-15242
▁Frankie	-15243
▁Instant	-15244
▁Jessica	-15245
▁Jewelry	-15246
▁Jingmen	-15247
▁Liangxi	-15248
▁MACHINE	-15249
▁Petrole	-15250
▁Pradesh	-15251
▁Process	-15252
▁Telecom	-15253
▁Toronto	-15254
▁Torrent	-15255
▁Tourism	-15256
▁Updater	-15257
▁Weather	-15258
▁Winding	-15259
▁Workout	-15260
▁Wuqiang	-15261
▁Yueqing	-15262
▁ceramic	-15263
▁macaron	-15264
▁trolley	-15265
▁winding	-15266
▁wwwccst	-15267
▁ຄຸນະພາບ	-15268
▁ສົນທະນາ	-15269
▁ຫລັກສູດ	-15270
▁ເງິນສົດ	-15271
ategories	-15272
hongwugas	-15273
ຂັບເຄື່ອນ	-15274
ຄອມພິວເຕີ	-15275
ວິທະຍາສາດ	-15276
ອະລູມິນຽມ	-15277
▁Actuator	-15278
▁Colorado	-15279
▁Computer	-15280
▁Embossed	-15281
▁Florence	-15282
▁Freebies	-15283
▁Mandarin	-15284
▁Straight	-15285
▁Suriname	-15286
▁Template	-15287
▁Xinglong	-15288
▁favorite	-15289
▁mattress	-15290
▁molypden	-15291
▁ທາດເຫຼັກ	-15292
▁ປັດຈຸບັນ	-15293
▁ອະທິດຖານ	-15294
▁ແລະຜະລິດ	-15295
13.889.815	-15296
obeautiful	-15297
ການບໍລິການ	-15298
ການເດີນທາງ	-15299
ທຸລະກິດຂອງ	-15300
ທຸລະກິດທີ່	-15301
ົບການສຶກສາ	-15302
ເປັນຈໍານວນ	-15303
▁2010-2019	-15304
▁Auslogics	-15305
▁Cellulose	-15306
▁Changfeng	-15307
▁Christian	-15308
▁Galvalume	-15309
▁Institute	-15310
▁Luancheng	-15311
▁Maharishi	-15312
▁Panasonic	-15313
▁Refresher	-15314
▁Sundsvall	-15315
▁Wikipedia	-15316
▁laminated	-15317
▁ການຕໍ່ສູ້	-15318
▁ຄວາມສົນໃຈ	-15319
▁ຊື້ຕິດຕາມ	-15320
▁ທະນາຍຄວາມ	-15321
▁ທີ່ແທ້ຈິງ	-15322
▁ພາລາມິເຕີ	-15323
▁ສະຖານະພາບ	-15324
▁ເພດຮູບແບບ	-15325
▁09.08.2018	-15326
▁POLOSHIRTS	-15327
▁Prostepper	-15328
▁ການຄຸ້ມຄອງ	-15329
▁ຄວາມກະດ້າງ	-15330
▁ຄວາມສໍາຄັນ	-15331
▁ຊິງຕັນດີຊີ	-15332
▁ທີ່ຢູ່ອາໄສ	-15333
▁ວິທີການຊື້	-15334
▁ເຄື່ອງເຮັດ	-15335
ລະບົບຕ່ອງໂສ້	-15336
▁192.168.0.0	-15337
▁Accelerator	-15338
▁ການລົງທະບຽນ	-15339
▁ກ້ອງຖ່າຍຮູບ	-15340
▁Braunschweig	-15341
▁Pennsylvania	-15342
▁ປະເພດທຸລະກິດ	-15343
▁ປ້ອງກັນປະເທດ	-15344
▁ອະໄຫລ່ສໍາລັບ	-15345
▁ຮູບແບບຮູບພາບ	-15346
cryptocurrency	-15347
▁Infobeautiful	-15348
▁ຖົງການກັ່ນຕອງ	-15349
▁ລະບາຍຄວາມຮ້ອນ	-15350
▁ເຄື່ອງດູດຝຸ່ນ	-15351
▁wwwccstickercom	-15352
▁ວິທະຍາໄລແຫ່ງຊາດ	-15353
".	-15354
+3	-15355
0)	-15356
1:	-15357
8-	-15358
BI	-15359
Bl	-15360
Có	-15361
DR	-15362
EV	-15363
GD	-15364
IK	-15365
Kw	-15366
Kế	-15367
LO	-15368
MU	-15369
QM	-15370
SS	-15371
Se	-15372
TI	-15373
Ta	-15374
Tu	-15375
Vo	-15376
WP	-15377
XY	-15378
YK	-15379
ZZ	-15380
ae	-15381
cô	-15382
db	-15383
iy	-15384
lb	-15385
lô	-15386
pg	-15387
tc	-15388
uw	-15389
vn	-15390
wh	-15391
wl	-15392
xu	-15393
zb	-15394
ກິ	-15395
ຫູ	-15396
ແຟ	-15397
ịn	-15398
▁à	-15399
***	-15400
,00	-15401
-0,	-15402
-1.	-15403
-72	-15404
.).	-15405
.33	-15406
.48	-15407
.59	-15408
.68	-15409
.76	-15410
.78	-15411
012	-15412
1.9	-15413
103	-15414
117	-15415
13,	-15416
135	-15417
156	-15418
2.5	-15419
223	-15420
24)	-15421
256	-15422
294	-15423
298	-15424
369	-15425
440	-15426
449	-15427
456	-15428
471	-15429
508	-15430
690	-15431
703	-15432
787	-15433
83"	-15434
869	-15435
89)	-15436
99"	-15437
:16	-15438
:41	-15439
ARD	-15440
Bar	-15441
Day	-15442
ESI	-15443
Fru	-15444
ISI	-15445
LIC	-15446
Mac	-15447
Mhz	-15448
OCK	-15449
OCT	-15450
One	-15451
Pai	-15452
Rep	-15453
Sur	-15454
Thể	-15455
Túi	-15456
XIN	-15457
agu	-15458
aka	-15459
aud	-15460
aze	-15461
bia	-15462
bot	-15463
cou	-15464
cre	-15465
cyn	-15466
dge	-15467
eps	-15468
fac	-15469
gic	-15470
gio	-15471
ias	-15472
ief	-15473
imy	-15474
irm	-15475
iro	-15476
job	-15477
kyo	-15478
loy	-15479
mad	-15480
mir	-15481
nel	-15482
như	-15483
oad	-15484
opo	-15485
sai	-15486
ths	-15487
tos	-15488
uch	-15489
usa	-15490
uva	-15491
wan	-15492
ydr	-15493
zhi	-15494
zzi	-15495
ຂວດ	-15496
ຄັດ	-15497
ດອນ	-15498
ດາຍ	-15499
ຕໍາ	-15500
ບວກ	-15501
ບາກ	-15502
ບາບ	-15503
ບິດ	-15504
ປັດ	-15505
ປືນ	-15506
ປຸກ	-15507
ປ່າ	-15508
ຝັງ	-15509
ມົນ	-15510
ສົງ	-15511
ອັບ	-15512
ເບຍ	-15513
ເມຍ	-15514
ແປກ	-15515
ແມງ	-15516
ໂຣກ	-15517
່ຽມ	-15518
▁")	-15519
▁&#	-15520
▁(@	-15521
▁-2	-15522
▁3-	-15523
▁AJ	-15524
▁AX	-15525
▁BO	-15526
▁BR	-15527
▁Bỉ	-15528
▁CÁ	-15529
▁DK	-15530
▁EH	-15531
▁FG	-15532
▁FT	-15533
▁Gn	-15534
▁Ha	-15535
▁Hd	-15536
▁IQ	-15537
▁JA	-15538
▁Lỗ	-15539
▁MW	-15540
▁NE	-15541
▁NI	-15542
▁Nụ	-15543
▁OB	-15544
▁QF	-15545
▁RW	-15546
▁Rw	-15547
▁Tệ	-15548
▁XR	-15549
▁az	-15550
▁cự	-15551
▁el	-15552
▁er	-15553
▁kỉ	-15554
▁lờ	-15555
▁rổ	-15556
▁xỉ	-15557
▁£€	-15558
▁ຫູ	-15559
▁ຫໍ	-15560
▁ແຮ	-15561
▁–;	-15562
-30%	-15563
-350	-15564
-450	-15565
-585	-15566
.00)	-15567
/180	-15568
/485	-15569
1010	-15570
1119	-15571
2311	-15572
2800	-15573
4450	-15574
5000	-15575
66">	-15576
68">	-15577
Axis	-15578
Blue	-15579
Cont	-15580
Hong	-15581
JIAN	-15582
LECT	-15583
Next	-15584
Note	-15585
TERN	-15586
Type	-15587
YERH	-15588
abad	-15589
achi	-15590
aire	-15591
alur	-15592
anka	-15593
azam	-15594
azzo	-15595
bone	-15596
card	-15597
come	-15598
cont	-15599
cuss	-15600
ebug	-15601
edar	-15602
eler	-15603
elta	-15604
ents	-15605
etal	-15606
fors	-15607
hand	-15608
hire	-15609
ices	-15610
ikes	-15611
inal	-15612
inda	-15613
irty	-15614
lios	-15615
love	-15616
nius	-15617
odao	-15618
olar	-15619
ooby	-15620
ools	-15621
orte	-15622
oufl	-15623
quan	-15624
rano	-15625
riad	-15626
rise	-15627
rome	-15628
sets	-15629
shir	-15630
sule	-15631
time	-15632
ubba	-15633
uder	-15634
ules	-15635
uxih	-15636
ກນິກ	-15637
ກຸ່ມ	-15638
ກໍາລ	-15639
ຂ້າມ	-15640
ຊື່ນ	-15641
ຊ້ອນ	-15642
ຍ້າຍ	-15643
ຕົ້ມ	-15644
ຖ່ານ	-15645
ທ້ອງ	-15646
ນິ້ວ	-15647
ນໍ້າ	-15648
ປ່ອງ	-15649
ພົ່ນ	-15650
ພ້ອມ	-15651
ຫນາວ	-15652
ຫມາກ	-15653
ຫວັງ	-15654
ຫະນະ	-15655
ຫາປາ	-15656
ຫິມະ	-15657
ຫຼວດ	-15658
ຮ້ານ	-15659
ເບີດ	-15660
ເລັບ	-15661
ແຕ້ມ	-15662
ແອັດ	-15663
່ງໃສ	-15664
▁$2,	-15665
▁$62	-15666
▁(*)	-15667
▁(4,	-15668
▁(8)	-15669
▁-30	-15670
▁005	-15671
▁031	-15672
▁1/4	-15673
▁126	-15674
▁129	-15675
▁184	-15676
▁2,0	-15677
▁219	-15678
▁222	-15679
▁238	-15680
▁3.9	-15681
▁305	-15682
▁319	-15683
▁345	-15684
▁5.4	-15685
▁6.4	-15686
▁641	-15687
▁7.0	-15688
▁7.6	-15689
▁770	-15690
▁830	-15691
▁860	-15692
▁9-1	-15693
▁990	-15694
▁ADS	-15695
▁AFP	-15696
▁Ads	-15697
▁Alu	-15698
▁Api	-15699
▁Atl	-15700
▁Côn	-15701
▁DMF	-15702
▁DXP	-15703
▁Dog	-15704
▁ERW	-15705
▁ETC	-15706
▁Esp	-15707
▁FAN	-15708
▁FDI	-15709
▁Fal	-15710
▁Flu	-15711
▁Fox	-15712
▁GWA	-15713
▁Guo	-15714
▁HTC	-15715
▁Hey	-15716
▁Hit	-15717
▁Hạn	-15718
▁Imm	-15719
▁Joy	-15720
▁Ker	-15721
▁Kha	-15722
▁LTE	-15723
▁Lỗi	-15724
▁MAX	-15725
▁MIL	-15726
▁MOD	-15727
▁McG	-15728
▁Mir	-15729
▁Nhỏ	-15730
▁NÀY	-15731
▁Nén	-15732
▁Oak	-15733
▁Osc	-15734
▁PAR	-15735
▁PLC	-15736
▁PVD	-15737
▁Phê	-15738
▁Ric	-15739
▁Rim	-15740
▁Rửa	-15741
▁SAR	-15742
▁SNE	-15743
▁SPD	-15744
▁SPR	-15745
▁SSD	-15746
▁Sha	-15747
▁Sid	-15748
▁Six	-15749
▁Séc	-15750
▁Sẵn	-15751
▁Sốc	-15752
▁THU	-15753
▁Tao	-15754
▁Tap	-15755
▁Thr	-15756
▁Tun	-15757
▁Tết	-15758
▁Tội	-15759
▁VAC	-15760
▁Vòi	-15761
▁Wil	-15762
▁Wra	-15763
▁YJD	-15764
▁Zip	-15765
▁art	-15766
▁blu	-15767
▁bon	-15768
▁bắp	-15769
▁bộc	-15770
▁cay	-15771
▁cel	-15772
▁def	-15773
▁dẻo	-15774
▁fly	-15775
▁gir	-15776
▁gre	-15777
▁gật	-15778
▁hâm	-15779
▁hải	-15780
▁lay	-15781
▁ltd	-15782
▁lùi	-15783
▁mưu	-15784
▁mộc	-15785
▁ngộ	-15786
▁out	-15787
▁pay	-15788
▁phú	-15789
▁sec	-15790
▁tas	-15791
▁trà	-15792
▁vặn	-15793
▁yes	-15794
▁ĐÂY	-15795
▁Đám	-15796
▁Đưa	-15797
▁đạn	-15798
▁đậu	-15799
▁ຄົວ	-15800
▁ຍຶດ	-15801
▁ດັງ	-15802
▁ດຶງ	-15803
▁ທົວ	-15804
▁ທ່າ	-15805
▁ພອນ	-15806
▁ພິວ	-15807
▁ລອຍ	-15808
▁ຫມູ	-15809
▁ຫົກ	-15810
▁ເຍຍ	-15811
▁ເອດ	-15812
▁ແກ່	-15813
▁ໂລຫ	-15814
,2016	-15815
-4000	-15816
16.34	-15817
40-11	-15818
="0.2	-15819
Brazz	-15820
Break	-15821
Drive	-15822
METAL	-15823
Phòng	-15824
amide	-15825
aptor	-15826
arket	-15827
assis	-15828
bella	-15829
berry	-15830
crete	-15831
eguid	-15832
epona	-15833
erole	-15834
esman	-15835
https	-15836
idine	-15837
ifold	-15838
inson	-15839
isure	-15840
lopes	-15841
lover	-15842
oform	-15843
oodle	-15844
place	-15845
resso	-15846
rogen	-15847
shots	-15848
sters	-15849
video	-15850
visor	-15851
ybake	-15852
ກະດານ	-15853
ຄູປອງ	-15854
ພະຍາດ	-15855
ພະຫັດ	-15856
ຟຣິກາ	-15857
ມາຈາກ	-15858
ອດຕັນ	-15859
ຸກເກີ	-15860
ົດແທນ	-15861
ເວັ້ນ	-15862
ໄຟເບີ	-15863
▁$499	-15864
▁(100	-15865
▁(120	-15866
▁(130	-15867
▁(320	-15868
▁(500	-15869
▁0.18	-15870
▁1390	-15871
▁1960	-15872
▁1999	-15873
▁29.4	-15874
▁3015	-15875
▁410,	-15876
▁6500	-15877
▁BLOG	-15878
▁Bell	-15879
▁Binh	-15880
▁Biết	-15881
▁Biệt	-15882
▁Brad	-15883
▁Bund	-15884
▁Bust	-15885
▁CUNG	-15886
▁Chum	-15887
▁Chun	-15888
▁Coal	-15889
▁Cock	-15890
▁Cros	-15891
▁Cuộn	-15892
▁Ding	-15893
▁Dome	-15894
▁HIPS	-15895
▁Khắc	-15896
▁Kyiv	-15897
▁Loài	-15898
▁Magn	-15899
▁Midi	-15900
▁Mode	-15901
▁Ngôi	-15902
▁Nhất	-15903
▁Oppa	-15904
▁Oree	-15905
▁Penh	-15906
▁Pool	-15907
▁Prim	-15908
▁Prop	-15909
▁Rfid	-15910
▁Robo	-15911
▁Rượu	-15912
▁SNMP	-15913
▁STAR	-15914
▁Skin	-15915
▁Slim	-15916
▁Stor	-15917
▁Stro	-15918
▁Tile	-15919
▁UPVC	-15920
▁Weif	-15921
▁Well	-15922
▁WiFi	-15923
▁[...	-15924
▁cage	-15925
▁canh	-15926
▁char	-15927
▁chèn	-15928
▁chén	-15929
▁chấn	-15930
▁chớp	-15931
▁form	-15932
▁free	-15933
▁ghen	-15934
▁giàn	-15935
▁here	-15936
▁hoài	-15937
▁hplc	-15938
▁hãnh	-15939
▁khâu	-15940
▁khấu	-15941
▁leat	-15942
▁lượn	-15943
▁mens	-15944
▁menu	-15945
▁more	-15946
▁nhắm	-15947
▁port	-15948
▁quát	-15949
▁rail	-15950
▁shar	-15951
▁suối	-15952
▁thâm	-15953
▁tiễn	-15954
▁vươn	-15955
▁with	-15956
▁your	-15957
▁điền	-15958
▁ກວ່າ	-15959
▁ຄລິກ	-15960
▁ຖ່າຍ	-15961
▁ມ່ວນ	-15962
▁ລຸ່ມ	-15963
▁ສະຫຼ	-15964
▁ສະເປ	-15965
▁ເນີນ	-15966
▁ເຜີຍ	-15967
▁ເມັດ	-15968
▁ໄຟລ໌	-15969
▁“...	-15970
-26.27	-15971
.0.101	-15972
/2016/	-15973
/25/32	-15974
678910	-15975
Fruity	-15976
Option	-15977
SHIRTS	-15978
YERHAU	-15979
agonal	-15980
andard	-15981
arness	-15982
ductor	-15983
elling	-15984
isting	-15985
leymon	-15986
osable	-15987
ublish	-15988
worker	-15989
yption	-15990
ການຂາຍ	-15991
ຕະຫລາດ	-15992
ຕໍ່ລອງ	-15993
ພັດລົມ	-15994
ພັບໄດ້	-15995
ລໍາໂພງ	-15996
ວິນຍານ	-15997
ສະຫມຸດ	-15998
ສະເພາະ	-15999
ສະເຫມີ	-16000
ສາຍແອວ	-16001
ສໍາຜັດ	-16002
ອອກຈາກ	-16003
ັດສະນະ	-16004
ເນື່ອງ	-16005
▁(1,50	-16006
▁1.000	-16007
▁15-20	-16008
▁2014,	-16009
▁33467	-16010
▁72.00	-16011
▁Adren	-16012
▁Anime	-16013
▁Anton	-16014
▁Award	-16015
▁Bella	-16016
▁Booth	-16017
▁Bruce	-16018
▁Bursa	-16019
▁CISSP	-16020
▁Chlor	-16021
▁Clark	-16022
▁Debby	-16023
▁Floor	-16024
▁Gyopo	-16025
▁Hương	-16026
▁Index	-16027
▁Jinan	-16028
▁Molly	-16029
▁Naked	-16030
▁Nhiên	-16031
▁Novos	-16032
▁Overs	-16033
▁POWER	-16034
▁Phnom	-16035
▁Plaza	-16036
▁Quyết	-16037
▁Reply	-16038
▁Right	-16039
▁Saver	-16040
▁Selen	-16041
▁Shift	-16042
▁Socks	-16043
▁Spins	-16044
▁Spray	-16045
▁Store	-16046
▁Synth	-16047
▁THÔNG	-16048
▁TRUNG	-16049
▁Tocyn	-16050
▁Tokyo	-16051
▁Truss	-16052
▁Tuyên	-16053
▁Unimy	-16054
▁Xinwu	-16055
▁lucks	-16056
▁mario	-16057
▁ngoái	-16058
▁phông	-16059
▁thuần	-16060
▁trans	-16061
▁ທັນທີ	-16062
▁ທີ່ຈະ	-16063
▁ວາວຜີ	-16064
▁ສີຟ້າ	-16065
▁ອາຊີບ	-16066
,500.00	-16067
MPlayer	-16068
climber	-16069
cussion	-16070
hotmail	-16071
ictoria	-16072
ippines	-16073
lioside	-16074
ouflage	-16075
ylinder	-16076
ymotion	-16077
ກົດຫມາຍ	-16078
ຂໍ້ຄວາມ	-16079
ຊັ້ນນໍາ	-16080
ທາງເທີງ	-16081
ທີ່ແລ້ວ	-16082
ບົດຄວາມ	-16083
ບໍລິຫານ	-16084
ປະຈໍາປີ	-16085
ປົກປ້ອງ	-16086
ຜ່ານແດນ	-16087
ພລາສຕິກ	-16088
ພະຍາກອນ	-16089
ພັກຜ່ອນ	-16090
ລ້ອມຮອບ	-16091
ສອບເສັງ	-16092
ສັງກະສີ	-16093
ຮູບຖ່າຍ	-16094
ົ່ານັ້ນ	-16095
ເລິກຂອງ	-16096
ໂຟນເດີ້	-16097
▁10,000	-16098
▁54.0.2	-16099
▁86-159	-16100
▁86-512	-16101
▁ACCURL	-16102
▁Aichun	-16103
▁Backup	-16104
▁Baiyun	-16105
▁Canary	-16106
▁Coated	-16107
▁Duodao	-16108
▁Inkjet	-16109
▁Inspir	-16110
▁Invent	-16111
▁Jumper	-16112
▁Jution	-16113
▁Keyuda	-16114
▁Killer	-16115
▁Ladies	-16116
▁Linear	-16117
▁Mosaic	-16118
▁Movavi	-16119
▁ONLINE	-16120
▁Origin	-16121
▁Panels	-16122
▁Pyrrol	-16123
▁Recuva	-16124
▁Saddle	-16125
▁Seguid	-16126
▁Serial	-16127
▁Shazam	-16128
▁Welded	-16129
▁hellip	-16130
▁hippie	-16131
▁hovers	-16132
▁khoáng	-16133
▁origin	-16134
▁tagged	-16135
▁ການປັບ	-16136
▁ດັດແກ້	-16137
▁ດີກວ່າ	-16138
▁ນັກຮຽນ	-16139
▁ບົດຮຽນ	-16140
▁ພາຍນອກ	-16141
▁ມື້ນີ້	-16142
▁ລາຍງານ	-16143
▁ລົດຖີບ	-16144
▁ລໍາບາກ	-16145
▁ອອນໄລນ	-16146
▁ແມ່ນໃຜ	-16147
chloride	-16148
fengyuan	-16149
iracetam	-16150
ການສຶກສາ	-16151
ຊີເອັນຊີ	-16152
ຍິ່ງໃຫຍ່	-16153
ຕົວເລືອກ	-16154
ທາງລົດໄຟ	-16155
ທາດເຫຼັກ	-16156
ສະແຕນເລດ	-16157
ສົ່ງເສີມ	-16158
ເງື່ອນໄຂ	-16159
ເປັນຫຍັງ	-16160
ໃບຄ້າຍຄື	-16161
່ວຍເຫຼືອ	-16162
▁422/485	-16163
▁59.0.30	-16164
▁Asphalt	-16165
▁Capsule	-16166
▁Catalog	-16167
▁Collect	-16168
▁Fusheng	-16169
▁Genesis	-16170
▁Ireland	-16171
▁Palazzo	-16172
▁Perfect	-16173
▁Reshine	-16174
▁Shangke	-16175
▁Shengyu	-16176
▁Society	-16177
▁Songben	-16178
▁Steroid	-16179
▁Sweater	-16180
▁Tensile	-16181
▁Vilnius	-16182
▁WebSite	-16183
▁bending	-16184
▁melting	-16185
▁pleated	-16186
▁wedding	-16187
▁ການເກັບ	-16188
▁ຂ້ອຍໄດ້	-16189
▁ຕື່ມການ	-16190
▁ປັກກິ່ງ	-16191
▁ສິ່ງພິມ	-16192
▁ສຸກເສີນ	-16193
▁ເຮືອບິນ	-16194
▁ແຜ່ນມຸງ	-16195
.23-26.27	-16196
unication	-16197
unnygames	-16198
urization	-16199
ການອອກແບບ	-16200
ກໍາລັງກາຍ	-16201
ສະກຸນເງິນ	-16202
ສະລັອດຕິງ	-16203
ສົມບູນແບບ	-16204
ແລະຂະຫນາດ	-16205
ແສງຕາເວັນ	-16206
ໄຟອັນຕລາຍ	-16207
▁0086-532	-16208
▁43.0.244	-16209
▁Aquarium	-16210
▁Botanics	-16211
▁Chloride	-16212
▁Chunyuan	-16213
▁Clarinet	-16214
▁Columbia	-16215
▁CrushThe	-16216
▁December	-16217
▁Doraemon	-16218
▁Estepona	-16219
▁Facetime	-16220
▁Fangqian	-16221
▁Function	-16222
▁Ironwork	-16223
▁KOOWHEEL	-16224
▁Kopybake	-16225
▁Launcher	-16226
▁Longgang	-16227
▁Macverin	-16228
▁Marbella	-16229
▁Membrane	-16230
▁Pakistan	-16231
▁Punching	-16232
▁SNEAKERS	-16233
▁Shenyong	-16234
▁Tempered	-16235
▁Unloader	-16236
▁WEYERHAU	-16237
▁WinMount	-16238
▁conveyor	-16239
▁hardware	-16240
▁hologram	-16241
▁ຂະບວນການ	-16242
▁ປະເພດຂອງ	-16243
▁ລາຄາຕ່ໍາ	-16244
▁ວັນພະຫັດ	-16245
▁ຫ້ອງນ້ໍາ	-16246
▁ແມ່ນແລ້ວ	-16247
▁ໂປໂມຊັ່ນ	-16248
shirleymon	-16249
ການວັດສະດຸ	-16250
ທີ່ໃຊ້ເວລາ	-16251
▁42.0.2393	-16252
▁Automatic	-16253
▁Casserole	-16254
▁Centrifug	-16255
▁Embossing	-16256
▁Equipment	-16257
▁Laminated	-16258
▁Landesman	-16259
▁Melbourne	-16260
▁MoneyGram	-16261
▁Regulator	-16262
▁Slotmatic	-16263
▁Unimyriad	-16264
▁Wallpaper	-16265
▁diaphragm	-16266
▁messenger	-16267
▁ການຕິດຕາມ	-16268
▁ການສູນເສຍ	-16269
▁ຂັ້ນຕອນທີ	-16270
▁ຈັດອັນດັບ	-16271
▁ສໍານັກງານ	-16272
▁ອົດສະຕາລີ	-16273
▁ຮູບແບບການ	-16274
▁ເຊື່ອມຕໍ່	-16275
Brazzaville	-16276
ຕົ້ນກໍາເນີດ	-16277
ບົບໄຮໂດຼລິກ	-16278
▁0086-311-8	-16279
▁Breathable	-16280
▁Calibrator	-16281
▁CompanyHub	-16282
▁Disposable	-16283
▁Essentials	-16284
▁Protection	-16285
▁Queensland	-16286
▁Seguidores	-16287
▁SlotFruity	-16288
▁SoundCloud	-16289
▁Washington	-16290
▁background	-16291
▁ironworker	-16292
▁originated	-16293
▁skateboard	-16294
▁ການສົນທະນາ	-16295
▁ຊັບໂຟນເດີ້	-16296
▁ນໍາທິດສະນີ	-16297
▁ປະເທດສະວິດ	-16298
▁ວາວຜີເສື້ອ	-16299
▁ສີດໍາແລະສີ	-16300
▁ໃນປັດຈຸບັນ	-16301
Manufacturer	-16302
ການເລີ່ມຕົ້ນ	-16303
▁16/22/25/32	-16304
▁Transparent	-16305
▁Xinfengyuan	-16306
▁ຈໍານວນບັນຈຸ	-16307
▁ທີ່ຢູ່ອີເມວ	-16308
▁ເຄື່ອງບັນຈຸ	-16309
▁............	-16310
▁Polyurethane	-16311
▁Treadclimber	-16312
▁ການຈັດອັນດັບ	-16313
▁ຜົນສໍາລັບການ	-16314
▁ລະຫັດການເງິນ	-16315
▁ເດືອນທີ່ແລ້ວ	-16316
▁ເອເລັກໂຕຣນິກ	-16317
▁Cryptotrading	-16318
▁ການດໍາເນີນງານ	-16319
▁ຂະຫນາດທັງຫມົດ	-16320
▁ຈໍານວນທັງຫມົດ	-16321
▁ຊື່ຜະລິດຕະພັນ	-16322
▁ກັບການຝຶກອົບຮົມ	-16323
▁ຕົ້ນສະບັບສໍາລັບ	-16324
!,	-16325
,”	-16326
7"	-16327
9"	-16328
:3	-16329
='	-16330
BD	-16331
Br	-16332
DX	-16333
EF	-16334
FX	-16335
Fr	-16336
GU	-16337
HV	-16338
Hu	-16339
Id	-16340
JI	-16341
Le	-16342
Sử	-16343
TK	-16344
UE	-16345
WA	-16346
WH	-16347
Xt	-16348
Yb	-16349
có	-16350
dZ	-16351
lf	-16352
oC	-16353
pv	-16354
rP	-16355
rh	-16356
sn	-16357
ws	-16358
zy	-16359
ÁT	-16360
ກໍ	-16361
ທາ	-16362
ເຢ	-16363
ໂບ	-16364
້ໍ	-16365
*18	-16366
-2-	-16367
-38	-16368
-5,	-16369
-51	-16370
-96	-16371
.57	-16372
.89	-16373
024	-16374
106	-16375
107	-16376
11)	-16377
124	-16378
16)	-16379
199	-16380
208	-16381
226	-16382
22:	-16383
24"	-16384
249	-16385
266	-16386
287	-16387
297	-16388
3.6	-16389
305	-16390
317	-16391
357	-16392
382	-16393
46,	-16394
507	-16395
51"	-16396
6">	-16397
6.0	-16398
662	-16399
665	-16400
675	-16401
7-4	-16402
713	-16403
741	-16404
884	-16405
904	-16406
94,	-16407
95%	-16408
956	-16409
:34	-16410
ANH	-16411
ASK	-16412
Alu	-16413
Ang	-16414
BER	-16415
DER	-16416
DOC	-16417
DSM	-16418
Ele	-16419
FIB	-16420
Hãy	-16421
Imp	-16422
JOT	-16423
Koh	-16424
LEX	-16425
Làm	-16426
MAN	-16427
Mỗi	-16428
OLD	-16429
OSS	-16430
OWO	-16431
PEX	-16432
RSS	-16433
Rob	-16434
SPP	-16435
Spy	-16436
Sản	-16437
TIA	-16438
UBE	-16439
USB	-16440
VNC	-16441
Vid	-16442
WAY	-16443
ZUK	-16444
abr	-16445
alm	-16446
asa	-16447
ask	-16448
avy	-16449
aww	-16450
bei	-16451
bey	-16452
cal	-16453
chu	-16454
cor	-16455
cyc	-16456
dao	-16457
dol	-16458
dài	-16459
eak	-16460
edy	-16461
eep	-16462
fam	-16463
gam	-16464
goo	-16465
gre	-16466
hao	-16467
ipe	-16468
kal	-16469
lox	-16470
lên	-16471
map	-16472
med	-16473
nik	-16474
onc	-16475
ony	-16476
ppm	-16477
rac	-16478
rim	-16479
rit	-16480
sky	-16481
ulu	-16482
uyu	-16483
ຂາດ	-16484
ຄອມ	-16485
ຄີມ	-16486
ຄົດ	-16487
ຈົບ	-16488
ຊີນ	-16489
ດັດ	-16490
ຖັກ	-16491
ຖັງ	-16492
ຖຸດ	-16493
ຖົມ	-16494
ຖຽງ	-16495
ປອມ	-16496
ມາກ	-16497
ມີດ	-16498
ລາງ	-16499
ສະຖ	-16500
ສາວ	-16501
ສືບ	-16502
ຫວງ	-16503
ຫວດ	-16504
ຫິນ	-16505
ີນີ	-16506
ເລື	-16507
ໍ່າ	-16508
ềng	-16509
”).	-16510
▁$:	-16511
▁("	-16512
▁*,	-16513
▁+7	-16514
▁4-	-16515
▁="	-16516
▁AB	-16517
▁BE	-16518
▁Bệ	-16519
▁Bị	-16520
▁Dữ	-16521
▁Ec	-16522
▁Ek	-16523
▁FF	-16524
▁HR	-16525
▁IS	-16526
▁KY	-16527
▁Kỷ	-16528
▁MZ	-16529
▁Mĩ	-16530
▁Og	-16531
▁QE	-16532
▁QS	-16533
▁RP	-16534
▁TW	-16535
▁Ug	-16536
▁Ur	-16537
▁VR	-16538
▁Vs	-16539
▁WU	-16540
▁YQ	-16541
▁ZS	-16542
▁ađ	-16543
▁bể	-16544
▁cọ	-16545
▁dạ	-16546
▁go	-16547
▁it	-16548
▁me	-16549
▁mo	-16550
▁ne	-16551
▁ob	-16552
▁pF	-16553
▁rũ	-16554
▁tò	-16555
▁zh	-16556
▁ôi	-16557
▁đẻ	-16558
▁ຕູ	-16559
▁ຝາ	-16560
▁ຢູ	-16561
▁ສິ	-16562
▁ສຸ	-16563
▁ໂຈ	-16564
▁ໂຍ	-16565
▁ໂບ	-16566
▁ớt	-16567
))))	-16568
-001	-16569
-1.5	-16570
-212	-16571
-217	-16572
-260	-16573
-444	-16574
.00+	-16575
172)	-16576
1808	-16577
1811	-16578
2,3,	-16579
2060	-16580
2345	-16581
31-8	-16582
="12	-16583
="14	-16584
="25	-16585
AMIS	-16586
DFab	-16587
DING	-16588
Fans	-16589
Good	-16590
HDBK	-16591
John	-16592
Khrs	-16593
Kích	-16594
Live	-16595
Plex	-16596
ROID	-16597
ROUP	-16598
Tags	-16599
Vero	-16600
Wire	-16601
abil	-16602
addy	-16603
agas	-16604
ager	-16605
aler	-16606
amed	-16607
ande	-16608
anks	-16609
arep	-16610
arma	-16611
ased	-16612
athe	-16613
aunt	-16614
ball	-16615
bigz	-16616
cial	-16617
ckey	-16618
cuối	-16619
côla	-16620
dZBX	-16621
drop	-16622
eman	-16623
epts	-16624
erox	-16625
eset	-16626
fram	-16627
furt	-16628
ibir	-16629
iden	-16630
idin	-16631
iled	-16632
ilun	-16633
inar	-16634
iper	-16635
iter	-16636
kina	-16637
lead	-16638
lene	-16639
lift	-16640
mers	-16641
odes	-16642
olls	-16643
omat	-16644
onze	-16645
oooo	-16646
osis	-16647
oval	-16648
pler	-16649
quid	-16650
rate	-16651
rial	-16652
shui	-16653
slid	-16654
tong	-16655
urch	-16656
ures	-16657
urok	-16658
utes	-16659
uttg	-16660
xiao	-16661
ycin	-16662
ບນ້ໍ	-16663
ຟື້ນ	-16664
ສະວະ	-16665
ັກຊິ	-16666
ຸດຕິ	-16667
ົນລະ	-16668
ເຈາະ	-16669
ເຊີນ	-16670
ເມັນ	-16671
ເຢຊູ	-16672
ເລີຍ	-16673
ເວທີ	-16674
ແກັດ	-16675
ແຂ້ວ	-16676
ແຫວງ	-16677
ໂນ້ມ	-16678
————	-16679
▁$72	-16680
▁(70	-16681
▁(90	-16682
▁-1,	-16683
▁01,	-16684
▁070	-16685
▁09:	-16686
▁1-3	-16687
▁113	-16688
▁13:	-16689
▁14.	-16690
▁168	-16691
▁177	-16692
▁18:	-16693
▁196	-16694
▁19:	-16695
▁202	-16696
▁214	-16697
▁24/	-16698
▁255	-16699
▁285	-16700
▁312	-16701
▁321	-16702
▁323	-16703
▁33,	-16704
▁389	-16705
▁410	-16706
▁431	-16707
▁445	-16708
▁475	-16709
▁510	-16710
▁540	-16711
▁58,	-16712
▁60%	-16713
▁647	-16714
▁769	-16715
▁8,5	-16716
▁8.3	-16717
▁875	-16718
▁920	-16719
▁940	-16720
▁<10	-16721
▁Aff	-16722
▁Any	-16723
▁BOX	-16724
▁Bếp	-16725
▁CCJ	-16726
▁CSV	-16727
▁CTN	-16728
▁Cha	-16729
▁DCP	-16730
▁DMH	-16731
▁Dim	-16732
▁Diy	-16733
▁Djs	-16734
▁Dot	-16735
▁Dtg	-16736
▁ECN	-16737
▁EMS	-16738
▁ETL	-16739
▁FAX	-16740
▁FIL	-16741
▁FIT	-16742
▁GED	-16743
[...]
